#version: 0.2
ï ¼
ä ¸
ï¼ Į
ã Ģ
ç ļ
çļ Ħ
ä º
ãĢ Ĥ
å ı
æ ľ
ä »
Ġ t
å ħ
Ġ a
å ¤
i n
å ®
å Ī
ä ½
h e
è ¿
ç Ķ
å ľ
ãĢ ģ
å Ĳ
å Ĭ
æ Ī
æ ĺ
o n
r e
ç »
æ ĸ
e r
ä¸ Ģ
Ġt he
è ¯
ä ¹
è ®
å Ľ
â Ģ
å ¹
a t
æ Ĺ
ä ¼
å °
Ġ s
æĺ ¯
å Ń
å Ĵ
åľ ¨
o r
åĴ Į
å º
å ¸
æ Ŀ
Ġ c
å į
e n
é ĩ
å ·
é Ģ
æľ ī
å Į
i s
e s
æ ķ
i t
è ¡
Ġ w
a n
Ġ o
ĥ ½
Ġ Ġ
å ¼
äº º
ä¸ Ń
a l
æ ī
Ġ f
ä» ¥
å ĩ
å Ĩ
å ¯
è Ģ
ä¸ į
Ġ p
ç Ľ
è §
å ¾
ä¸ º
æ Ĭ
äº Ĩ
Ġa n
in g
o u
Ġ b
æ ł
ç §
æ Ģ
ç İ
a r
çĶ ¨
e d
ç ī
è ´
è ĥ½
å ±
ä¸ ª
Ġ m
i on
Ġ in
ï¼ ļ
åı ¯
Ġo f
å¤ §
l e
ä ¿
æ °
è ¦
çĶ Ł
ç Ń
i c
é Ĺ
è µ
æ Ķ
Ġt o
Ġ d
é Ļ
ä¸ ļ
æ ³
è¦ ģ
å ¥
å ½
ç Ĳ
å¹ ´
Ġan d
æ Ń
è ĩ
æ ŀ
åŃ ¦
æ İ
é Ŀ
æĪ ĳ
å ¿
æĹ ¶
è¿ Ļ
è¡ Į
å İ
é ¢
åĽ ½
ç º
åı ĳ
ä¼ ļ
æ µ
å ĵ
ä¸ Ĭ
o m
å ĳ
* *
a s
ä½ ľ
å· ¥
æĪ Ĳ
âĢ ľ
âĢ Ŀ
äº İ
å¯ ¹
æĿ ¥
æ ĭ
åĪ °
2 0
çĲ Ĩ
ä ¾
æ Į
è ¾
æ ¯
å Ł
ä» ¬
c t
åľ °
å ¦
è ½
æĸ ¹
åĩ º
æ ²
æ ĥ
çŃ ī
æ Ħ
Ġt h
åĪ Ĩ
æ ı
en t
Ġ h
ç ®
r o
Ġ n
æ ±
é «
åĬ ¨
s t
Ġ e
å¤ ļ
ç «
é« ĺ
åĮ ĸ
åħ ¬
e t
å® ¶
è¿ ĩ
æ ¸
ä¸ ĭ
é ĺ
æ Ľ
Ġ l
Ġ re
å ī
è¿ Ľ
å¦ Ĥ
èĩ ª
i l
Ġ is
ç ¨
ç ľ
æ ´
äº §
æĸ °
v e
æĢ §
ä½ ĵ
çİ °
ä¸ İ
æ į
æľ º
åĬ Ľ
ç ½
é ģ
åĲ Į
æı Ĳ
æ Ļ
åĲ Ī
å® ļ
æķ °
ï¼ ī
ï¼ Ī
å »
åħ ¨
æ³ ķ
åı¯ ä»¥
éĿ ¢
åĵ ģ
å® ŀ
éĢ ļ
è Ĥ
æ ¬
ç» ı
Ġ T
å¸ Ĥ
ä» ĸ
ç Ĥ
æĹ ¥
é ĥ
åº ¦
i m
ä¹ Ł
r a
é ķ
åĬ ł
å ģ
æĸ ĩ
u t
åĲ İ
åħ ¶
é ¡
Ġ y
ä¿ Ŀ
æľ ¬
l y
Ġ I
åħ ³
é £
é ľ
Ġ g
ç ¤
o t
è® ¾
åº Ķ
Ġ 1
å¥ ½
Ġ S
è ī
å» º
å¼ Ģ
å ¢
o l
éĩ ı
éĥ ¨
at ion
éĩ į
æĽ ´
è ¶
å± ķ
Ġf or
çĶ µ
ä¹ ĭ
c e
åĬ ¡
èĢ Į
ä¸ »
é Ľ
çī ©
o w
ç ³
åı Ĭ
æľ Ī
i d
u s
å° ı
i g
å° Ĩ
åŃ Ĳ
è ģ
0 0
Ġ A
æĬ Ģ
åĪ ¶
èĢ ħ
ç Ł
æĪ ĸ
è ·
ç ¬
ç¨ ĭ
è °
å Ģ
æľ Ģ
ä½ ¿
éĹ ´
Ġ C
å¾ Ĺ
e l
å¿ ĥ
ä¸Ģ ä¸ª
å° ±
u r
c h
è® ¡
ç ±
æ° ´
a m
æī Ģ
ç ¾
Ġy ou
ç§ į
åĨ ħ
ç ł
éķ ¿
å¹ ¶
ç ¡
éľ Ģ
ä½ ł
é ļ
æį ®
ĠĠ ĠĠ
Ġ (
äº Ľ
åī į
çĽ ®
åľ º
æľ ¯
èµ Ħ
u n
å Ŀ
æĥ ħ
Ġ on
ç³ »
ç ©
è¡ ¨
æĪĳ ä»¬
æ ¶
ç Ħ
ç Ļ
åĽ ł
æ Ł
u l
é Ķ
Ġ **
åħ ¥
è Ĭ
v er
u m
Ġb e
ç Ŀ
æŀ ľ
åĮ º
é ĥ½
çĽ ¸
ç® ¡
è§ £
å¼ ı
å¤ ©
Ġs t
ç ķ
ä¿ ¡
å¸ ¸
ç ´
çĤ ¹
it h
æ ģ
åı ¸
æ Ĥ
äº ĭ
ç ĸ
é ħ
ä½ į
æľ Ł
å¤ ĸ
a y
æĦ ı
é¢ ĺ
i f
Ġth at
æ¯ Ķ
è Ĳ
å¹ ³
çī ¹
å §
æ´ »
å® ī
æķ Ļ
æĺ İ
åħ¬ åı¸
çĦ ¶
ç ĥ
åĲ į
Ġ =
Ġ M
åĳ ĺ
å½ ĵ
ä» İ
Ġ \
20 1
ä» £
Ġw ith
å ŀ
Ġ P
éĹ ®
ç§ ĳ
æŃ ¤
i r
è´ ¨
é ¦
è¿ ĺ
ç½ ĳ
æĮ ģ
æ ·
a d
ï¼ Ľ
åĪ ©
ç¾ İ
éĩ ĳ
ä½ Ĩ
ä¸ ī
ç¬ ¬
éģ ĵ
q u
æľ į
åħ ·
ç ¼
ç Ĺ
Ġc on
o d
Ġp ro
æ ¡
æĦ Ł
åŁ º
æł ĩ
er s
çĿ Ģ
ä» ¶
Ġ it
ä¾ Ľ
Ġa s
g e
å ķ
ç» Ł
å·¥ ä½ľ
Ġ $
ï¼ Ł
è¯ ´
æĬĢ æľ¯
ãĢ ĭ
at e
è Ī
è½ ¦
s e
é Ĥ
æ º
ãĢ Ĭ
æ¬ ¡
ç ²
ä½¿ çĶ¨
å¾ Ī
åıĳ å±ķ
ç± »
æ± Ĥ
åħ ĥ
è ĭ
ç» ĵ
æŃ £
é ĵ
ç¡ ®
å½ ±
é ª
æĹ ł
è ¢
ä¼ ģ
è¿Ľ è¡Į
åĪ Ľ
èµ ·
é¡ ¹
# #
ä¸ ĵ
äº ¤
Ġa l
å¤ Ħ
t h
is t
Ġ B
éľĢ è¦ģ
æĶ ¿
åŀ ĭ
æ° Ķ
è§ Ħ
æķ Ī
çİ ¯
æİ ¥
é£ İ
ç ¥
ç ģ
éĩ Į
Ġa re
Ġ -
é Ĵ
è į
ä» »
åĲ Ħ
å¼ º
å Ļ
a b
èī ²
å £
r i
æ° ĳ
çĶ ±
ä¼ģ ä¸ļ
æµ ģ
t er
æī ĭ
è ĥ
he r
è¿ Ĳ
Ġ or
æĪ ·
ä¸Ń åĽ½
ĠT he
åı ĺ
è £
å¢ ŀ
p p
åį ķ
ç» Ħ
es t
Ġw h
åĬ ©
åĻ ¨
æ »
å® ĥ
è¢ «
ç Ī
çł Ķ
å ĸ
éĢ ī
åķ Ĩ
ä¹ Ī
çľ ĭ
éĢ ł
æł ¼
ç¤ ¾
å¯ ¼
åĮ ħ
Ġ v
éĢļ è¿ĩ
Ġc om
å¤ ĩ
ç¤ º
çŁ ¥
æ ¨
Ġe x
åı Ĺ
e m
Ġ 2
ĠĠ Ġ
æº Ĳ
æľį åĬ¡
ç« ĭ
Ġ F
** ï¼ļ
an d
Ġ H
è º
Ġ D
æģ ¯
k e
èĢ ĥ
éĹ® é¢ĺ
æıĲ ä¾Ľ
Ġ "
çĲ ĥ
æĸ Ļ
è· ¯
ä¼ ł
çº ¿
re s
æĢ »
åİ Ł
Ġ W
åĲ ĳ
æĥ ³
éĻ ¢
å· ²
Ġw e
æĶ ¶
æµ ·
è° ĥ
ig h
æ¯ ı
éĽ Ĩ
åı¯ èĥ½
åĮ »
a c
ç ¦
il l
æł ·
èº «
ä¹ ł
æĬ ¥
è® ©
Ġ R
å° ĳ
1 0
ä» ·
ç®¡ çĲĨ
æ £
ä¼ ĺ
è Ļ
åı ĸ
it y
èĩ ³
æ¸ ¸
è¾ ¾
es s
æ ®
t e
æĻ º
r om
å½ ¢
p e
æķ° æį®
è İ
Ġa t
åİ »
m ent
äº Į
æ³ ¨
å· ±
åĩ Ĩ
æİ ¨
o s
é ©
åģ ļ
éĹ ¨
è Ħ
åı °
Ġd e
ä¸ ¤
Ġ L
æķ ´
çº §
é¢ Ĩ
` `
åħ ±
è¯ ¥
èĩª å·±
åĪ «
ç» Ļ
è ¥
å¹ ¿
äº§ åĵģ
è Į
Ġ E
o re
èĬ Ĥ
éĿ ŀ
èģ Ķ
Ġ us
èĤ ²
æĤ ¨
ou n
i ve
æĮ ĩ
åħ Ī
æŀ Ħ
ct ion
Ġ r
æĹ¶ éĹ´
è¥ ¿
æ² ¡
æĶ ¹
åĨ ³
æŃ ¥
å¢ ĥ
å® ¢
åŁ İ
ä¾ ĭ
æ¨ ¡
å® Į
å® ¹
æĶ ¾
åı £
æ ¼
è® ¤
l d
å¸ Ī
èĲ ¥
çĹ ħ
åı Ĥ
æ² »
çİ ĩ
Ġ he
é Ł
ä¸ ĩ
è¯ ģ
è¯ ·
ç® Ĺ
Ġb y
åĽ ŀ
i v
æł ¡
Ġc an
Ġn e
Ġs e
éª Į
éĤ £
è¯ Ń
a in
an t
é »
åį Ĺ
- -
Ġ N
ç© º
l o
è´ ¹
æĶ ¯
çĽ ´
è¯ ķ
æ· ±
åı ª
å¤ į
åĽ ¢
è§ Ĩ
è® ®
Ġ G
é£ Ł
p t
1 9
åŃ Ĺ
ä½ ķ
æł ¹
âĢ Ļ
æĬ ķ
åĵ į
æĸ ½
or t
æĬ ¤
å¸ ¦
ä¸ ĸ
å± ±
å Ķ
Ġs u
Ġh a
éĢ Ĥ
è§ Ĥ
åħ ī
è¾ ĥ
p le
åį ģ
åĮ Ĺ
è£ ħ
å¸ ĥ
Ġ 3
å¸Ĥ åľº
ar t
igh t
è ±
éĺ ²
åĬ Ł
é ¥
ç³» ç»Ł
å¦Ĥ æŀľ
çľ ģ
è¯ Ĩ
ä¸ ľ
Ġth is
çĥ Ń
æŁ ¥
éĢ Ł
åĢ ¼
ä¿¡ æģ¯
ç© ¶
ç² ¾
æľ ª
éĺ Ł
è® °
çķ Į
æĿ ¡
çĻ ½
ç ħ
è¿ ĳ
ä¹ ¦
åŁ Ł
re n
æµ ĭ
æ¶ Ī
Ġf rom
ç Ĭ
éĻ ħ
i es
åŃ¦ ä¹ł
ç´ ł
ç» Ń
æĻº èĥ½
å ²
åŃ ĺ
ä¸Ģ äºĽ
en d
æ¡ Ī
p l
éĻ Ĳ
è ¨
å¿ «
Ġc h
æĢ ģ
æ¸ ħ
æİ §
è¿Ļ ä¸ª
è½ ¬
å¼ ķ
in e
i al
çĸ Ĺ
u re
åĪ Ĺ
æ²¡ æľī
ä¹ Ĳ
æī ĵ
åĨ µ
Ġn ot
ä½ İ
ä»ĸ ä»¬
å®ī åħ¨
al l
å¸ ®
å½± åĵį
çłĶ ç©¶
é¢ Ħ
p er
æĪ ĺ
Ġ O
ç« Ļ
o c
æĺ ĵ
æ ¢
é¡¹ çĽ®
æĿ Ĳ
é¦ ĸ
è®¾ è®¡
èµ Ľ
åģ ¥
åį ĩ
éĩį è¦ģ
ä» Ĭ
ç ĭ
Ġw as
20 0
è® º
åĬ ŀ
è¿Ļ äºĽ
æĸ Ń
' s
u st
åĳ Ĭ
èĢ ģ
ç§ ¯
ä¸į åĲĮ
éĩ ĩ
åĽ Ľ
éħ į
åĪ Ĵ
ä¸Ń çļĦ
åĪ Ļ
Ġs h
çİ¯ å¢ĥ
Ġha ve
çĶŁ æ´»
æ¸ ©
æİ Ĵ
åı į
æĸ ¯
a g
çľ Ł
å¥½ çļĦ
å§ ĭ
åĲĮ æĹ¶
ç» ´
Ġyou r
in t
éŁ ³
è¶ Ĭ
Ġ un
æĿ ĥ
å¤ Ł
æĻ ¯
è§ ģ
u d
a ge
èĩ ´
æ® µ
T he
åºĶ çĶ¨
Ġ le
æī į
æĭ ¬
Ċ ĠĠĠ
èİ ·
ç¤¾ ä¼ļ
f e
æķĻ èĤ²
ä»¥ åıĬ
æŀ ģ
å± Ģ
ç¥ ŀ
ou r
åı ·
åĽ½ å®¶
æĸ¹ éĿ¢
å¤ ´
ç½ ®
æĺ¯ ä¸Ģ
ä¸» è¦ģ
åį İ
åº ·
ï¼ ģ
ä» Ģ
ä¸ Ķ
è ı
o o
åİ ĭ
æĭ ©
æ´» åĬ¨
å¤Ħ çĲĨ
çĶŁ äº§
çŃ ĸ
åĮħ æĭ¬
æł¹ æį®
åĨ į
è¶ ³
åİ Ĩ
åĩ ı
ic al
æµ İ
ul t
éĶ Ģ
æ£ Ģ
ar d
å ¡
çº ¦
èģ Į
çī ĩ
b er
ä»¥ ä¸ĭ
id e
éĢī æĭ©
æĸĩ åĮĸ
è¯ Ŀ
1 2
Ġ J
æıĲ é«ĺ
èĬ ±
åĽ ¾
ä»Ģ ä¹Ī
ou ld
å ĭ
âĢ Ķ
ç ı
om e
æĥħ åĨµ
å· ŀ
ic h
æ ĳ
u e
in d
å¸® åĬ©
éļ ı
è¶ ħ
æĺ ¾
ç§ °
è¯ Ħ
çĪ ±
éĻ ¤
ä¸ĵ ä¸ļ
åħ »
o st
æĪ ¿
è´ £
ç± ³
åĳ ¨
i z
ç» Ĩ
æĹ ħ
æĸ¹ å¼ı
Ġ k
æ ¹
è¡Į ä¸ļ
åĩ ł
ou t
ĠI n
è ĳ
çĬ ¶
ä¾ ¿
æĢ Ŀ
è ŀ
èī º
è¨ Ģ
Ġw or
ä¹ ī
å¾ ·
re d
çī Į
æ» ¡
èĮ ĥ
i e
ç»ı æµİ
åį ³
éĻ ©
. .
æ ĵ
æ Ĵ
å»º è®¾
Ġ 4
ç ª
åħ ĭ
åŃ¦ çĶŁ
å§ Ķ
è± ¡
or m
æ¼ Ķ
Ġp l
å¿ ħ
o g
Ġ +
éļ ¾
Ġa b
å¥ ³
Ċ ĠĠĠĠ
ä» ħ
ç Į
åħ¶ ä»ĸ
èĥ½ åĬĽ
çĽ¸ åħ³
å ĥ
çħ §
å®ŀ çİ°
åį ı
Ġ U
è®¾ å¤ĩ
éĿŀ å¸¸
åħ į
æ Ĳ
çĽ ĳ
a ct
è® ¸
è ħ
Ġw ill
åĬ ¿
ab le
æ ħ
a k
èĥ½ å¤Ł
æ ļ
Ġm e
åĽł ä¸º
éĻ į
Ġ 5
æĺ Ł
ä» ½
im e
æŀ Ĳ
å£ «
äº Ķ
çĶ¨ æĪ·
ion s
æĬ Ĭ
1 1
ä¼ Ĺ
å·¥ ç¨ĭ
an s
è¾ ĵ
éħ Ĵ
ç ¢
äº ¬
as t
u p
è¦ģ æ±Ĥ
åĨ Ļ
å¤ ª
æĸ¹ æ³ķ
åĳ ½
åº Ĺ
Ġal l
èĭ ±
æĪĲ ä¸º
am e
ç¦ »
è§ Ĵ
Ġw he
k s
ä¿ ®
Ġ 0
Ġ en
åģ¥ åº·
èĤ ¡
æľ Ľ
å° Ķ
å¹ ²
at ed
æ² ¹
å¥ ¹
äº Ĵ
åħ· æľī
å°± æĺ¯
ä¸ĸ çķĮ
åº ı
ç® Ģ
âĢĿ ï¼Į
g h
a ch
åº ľ
el l
çļĦ äºº
èŀ į
å± Ĥ
æ¬ ¾
åĿ ĩ
è´¨ éĩı
x t
å± ŀ
as s
æŀ Ĺ
Ġ im
Ġd o
d u
è¿ĩ ç¨ĭ
ic e
é¢Ĩ åŁŁ
è¿ ŀ
i b
ç¼ ĸ
Ġn um
åĪĨ æŀĲ
åĨ ľ
åħ ħ
åĥ ı
ãĢĤ âĢĿ
Ġa d
ĠT h
as e
d er
`` `
Ġ j
åĢ Ļ
1 5
ation s
Ġa r
åĽł æŃ¤
$ $
è´ Ł
å·² ç»ı
Ġre s
å¼ ł
ra c
åĽ Ń
åı Ī
å¯¹ äºİ
ä½ľ ä¸º
æĿ ¿
èį ¯
å Ħ
åĶ ®
è¿ °
it e
æĮ ī
r y
äº ¿
èĩªå·± çļĦ
3 0
oun d
é© ¬
t her
i p
åı ĭ
ç» ĩ
e ar
Ġ qu
c l
Â ł
å¦Ĥ ä½ķ
èĲ ½
æĬķ èµĦ
æ± Ł
å¾ ĭ
åĽ ´
æł ¸
åĲ «
åı ²
å® ¤
å¤ ±
ar y
çĽ Ĭ
é ¾
ç« ł
ä¸ª äºº
Ġwh ich
å¤§ çļĦ
Ġcom p
çº ¢
e p
ç§ĳ æĬĢ
Ġh as
äºĨ è§£
åŁİ å¸Ĥ
a p
å ł
on g
æķ ħ
Ċ ĠĠ
éĥ¨ åĪĨ
åĨħ å®¹
è´ Ń
å ¨
è®¡ ç®Ĺ
ac k
æĭ ī
å¾ Ģ
t o
åŁ ¹
å¯ Ĩ
çģ «
äºº åĳĺ
éĺ ³
ä¾ Ŀ
æī ¿
è§ ī
at h
çļĦ ä¸Ģ
å¾ ®
u b
ä¸Ń å¿ĥ
èµĦ æºĲ
c c
è½ »
Ġb ut
æī ¾
å¼Ģ å§ĭ
Ġa pp
an ce
çŁ ³
æĶ¿ åºľ
en ce
## #
åĲ ¦
ä½ ı
ou gh
ç» Ī
åĳ ³
p h
äºº å·¥
çİ ĭ
on e
äº ļ
å¿ µ
åĦ ¿
Ġ if
Ġcon t
æĿ ĳ
s o
å¯ Į
åĪĽ æĸ°
ig n
åĲĪ ä½ľ
Ġc l
éľĢ æ±Ĥ
è® Ń
åŃ £
ä¸ ¥
an g
i le
a v
åĽ½ éĻħ
è§£ åĨ³
æĤ £
åĸ Ħ
ç ¯
ç» ľ
ä¿Ŀ æĬ¤
a ce
æ¬ ¢
åĪ ĩ
æĪ ı
çł ģ
ç¬¬ ä¸Ģ
äº§ ä¸ļ
ç ¿
åħ¶ ä¸Ń
Ġ K
f orm
Ġ |
è¡¨ ç¤º
ç¡® ä¿Ŀ
æľª æĿ¥
00 0
ou s
èµ °
åĸ ľ
è¯ »
i ke
ä¾ĭ å¦Ĥ
çĻ ¾
å Ĥ
Â ·
èī ¯
i re
ç»Ħ ç»ĩ
åĲ ¸
) .
åľ Ł
Ġs o
è¯ ¾
å£ °
æĿĲ æĸĻ
æ ¥
æīĢ æľī
å¾Ī å¤ļ
çĽ® åīį
æłĩ åĩĨ
Ġo ut
äº ī
å½ ķ
Ġon e
åĬŁ èĥ½
a re
è¾ ¹
çķ ¥
å¼Ģ åıĳ
éĿ Ĵ
i a
æĻ ®
a ke
è¿ ľ
al ly
æ ¤
Ġ V
æ± ½
Ġ1 9
it ion
æĶ¯ æĮģ
åı ¤
y th
åİ ¿
åħ ´
å¹³ åı°
a il
} {
Ġp er
äººå·¥ æĻºèĥ½
å®¢ æĪ·
5 0
n e
ç½ĳ ç»ľ
åħ ļ
åĪ Ŀ
äº «
çĭ ¬
ä½Ĩ æĺ¯
Ġm ore
æīĢ ä»¥
ï¼ī ï¼Į
å¤§ åŃ¦
ren t
ç§ĳ åŃ¦
æ² ³
çļĦ æĺ¯
åĨ Ľ
åĩº çİ°
r u
è´ ¢
ä¸į æĸŃ
1 8
âĢ ĵ
åŃ ©
èĩª çĦ¶
æ ¿
è¿Ļ æł·
âĢĿ ãĢĤ
ç´ ¢
Ġg o
ä» ĭ
Ġ Y
æį ¢
çī Ī
çĸ «
) ,
å¸ Į
ä»¥ ä¸Ĭ
å®ļ çļĦ
ç¾ ¤
åĪ° äºĨ
äºº çļĦ
å®Į æĪĲ
è¯ į
å»º è®®
æ²» çĸĹ
å± ħ
ä¸ ¾
f f
Ġ '
çļ ®
çĶ¨ äºİ
f t
æİ§ åĪ¶
Ġf un
o p
Ġ `
çŃ ĳ
æĪĸ èĢħ
çĶ »
åĵģ çīĮ
ä¹Ł æĺ¯
ä¸į æĺ¯
æ ¦
oun t
é¦ Ļ
p ort
å¢ŀ åĬł
å¥ ĸ
Ġ 6
Ġ [
l l
è¿Ļ ç§į
çĽ® æłĩ
or d
åı Į
æŁ ĵ
ã ģ
åħ³ äºİ
Ġt e
åįķ ä½į
Ġ up
å° ½
å® ¡
en s
è®¡ åĪĴ
ä¿Ŀ æĮģ
æĽ´ å¤ļ
åŁº ç¡
c on
ç¬ ¦
åĿ ļ
åŁºç¡ Ģ
æī §
æ ½
éĵ ¶
ç Ĩ
äºº æ°ĳ
ç»ĵ æŀĦ
Ġt r
ä½ľ çĶ¨
ç¦ ı
ur n
res s
æĹ ©
å¿ Ĺ
éĶ ®
re e
æŃ ¢
Ġ 201
çİ° åľ¨
ç¨ ³
ä¹ĭ éĹ´
é¢ ĳ
åŃ¦ æł¡
æ¿ Ģ
éĵ ģ
é¢ Ŀ
f rac
åºĶ è¯¥
åİ Ĥ
é» Ħ
äº ĳ
Ġs p
ç ĵ
l ow
æıĲ åįĩ
1 6
Ġm an
Ġs pe
åĵ ª
oo k
æĺ¯ ä¸Ģä¸ª
ĠS t
èİ· å¾Ĺ
åĪ© çĶ¨
åį Ĭ
ent s
Ġthe ir
çª ģ
æŁ Ĳ
æĽ´ åĬł
åĩı å°ĳ
åı ¦
åıĳ çİ°
èĻ ĳ
å¢ŀ éķ¿
å»º çŃĳ
åĲ ¬
ç« ¯
æľī éĻĲ
ç» ĥ
é ¸
æ¸¸ æĪı
æ± ¡
çŁ Ń
ä¹ °
æī ¹
Ġs c
éĴ ¢
éģ ¿
åħ¨ çĲĥ
åº ķ
é ²
å® Ŀ
åį °
è® ²
ow n
Ġ {
çı Ń
æľº æŀĦ
Ġp r
æľī æķĪ
æ¶Ī è´¹
æ³¨ æĦı
å· ®
é ¤
Ġt ime
ä¿ ĥ
å· ´
è Ń
è®¤ ä¸º
éĽĨ åĽ¢
æĭ ħ
é¡ »
éĥ¨ éĹ¨
å¼ Ĥ
Ġl ike
æĹħ æ¸¸
çŁ¥ è¯Ĩ
ä½ł çļĦ
e ct
æĵ į
or s
æĸ° çļĦ
ç« ŀ
è¡ Ģ
Ġo ther
åį ļ
æİ ¢
Ġab out
yth on
åı ¥
æĹ¶ åĢĻ
Ġal so
1 4
æ³ ¢
d e
çŃ Ķ
æĮģ ç»Ń
æŃ Į
åŃĺ åľ¨
åį ¡
éĶ Ļ
çł ´
åľ° åĮº
å® ³
åħ³ ç³»
Ġd is
Ġp art
ç¾İ åĽ½
åħ· ä½ĵ
at a
æĺ¯ åĲ¦
å¾ ģ
éĢ ģ
w o
c es
çĶ ³
or y
ver s
ir st
ç ĩ
ver y
ĠI t
c k
æĿ İ
å»º ç«ĭ
å¯¼ èĩ´
_ _
èĪ ª
ra m
åĮĹ äº¬
äºº ç±»
ä¸ļ åĬ¡
é¥ ®
åį «
åıĳ çĶŁ
Ġ ro
æĸĩ ç«ł
çķ Ļ
ä¸į ä»ħ
2 5
å¤§ å®¶
Ġthe y
o ve
ä¹ĭ ä¸Ģ
åĲĦ ç§į
ç§ »
èĪ ¬
åĲ ĥ
éĥ½ æĺ¯
é¾ Ļ
âĢ ¢
åħ¨ åĽ½
äºº ä»¬
æ±½ è½¦
çĶ± äºİ
c om
I n
è½ ¯
1 3
ĠTh is
éĢļ å¸¸
A I
çľ ¼
èı ľ
w e
å® ĺ
äº§ çĶŁ
ä¸ ´
åĮ» çĸĹ
ä¸ °
Ġe v
åŃ© åŃĲ
ä»· æł¼
æĴ Ń
åĲ Ĺ
è Ĵ
åį ł
æĸ¹ æ¡Ī
çº ª
åį ´
æĭ Ľ
æĤ£ èĢħ
èīº æľ¯
åİĨ åı²
æĭ ¥
éĩĩ çĶ¨
ä¸Ĭ çļĦ
é¤ Ĳ
ä½ Ļ
æĿ Ĥ
éļ ľ
è¯ ¢
é» ĳ
ç§¯ æŀģ
èģ ļ
ä¸º äºĨ
Ġs ome
at es
åº §
å¸Į æľĽ
æľ ¨
Ġf e
ï¼ļ âĢľ
y s
er v
è¡ ¥
åī §
éĤ£ ä¹Ī
Ġ x
Ġ1 0
ç» ¼
å® £
è¿Ĳ åĬ¨
ç» §
Ġne ed
è½ ½
åĩ »
å·¥ ä¸ļ
å¾ ħ
20 20
ç¥ ¨
Ġne w
ĠC h
åĿ Ĺ
è´ §
ä¸Ģ æŃ¥
è Ĺ
ç»ĵ æŀľ
ç½ Ĺ
æĶ¿ çŃĸ
åħ³ éĶ®
at er
æĪĳä»¬ çļĦ
Ġp o
äºĨ ä¸Ģ
ä¼ł ç»Ł
is h
åıĺ åĮĸ
é ¼
å®ĥ ä»¬
åº ĵ
éĺ ¿
éķ ĩ
ç £
å ª
åī ¯
ä¸į èĥ½
åĽ¢ éĺŁ
çĲĨ è§£
er m
äº ²
ing s
è¡Į ä¸º
ç´ §
ç» ¿
Ġfun ction
r ic
èĳ Ĺ
çĶµ åŃĲ
Ġit s
Ġan y
ĠA n
ä» ¤
æ¸ ¯
æľº åĻ¨
æ¯Ķ è¾ĥ
èĩª åĬ¨
åģ ĩ
ï¼ī ãĢĤ
ä»· åĢ¼
ä»» åĬ¡
è¯Ń è¨Ģ
p ut
å®ŀ éĻħ
è ª
å¸¦ æĿ¥
ar i
ä»£ è¡¨
åº Ń
ĊĠĠĠĠ ĠĠĠ
è¿ĺ æĺ¯
éĶĢ åĶ®
Ġthe re
Ġwor k
Ġnum ber
Ġm y
1 7
æĺ ¥
ay s
Ġus e
éļı çĿĢ
åŁº æľ¬
ar k
if ic
2 4
ĠĠĠĠ ĠĠĠĠ
o v
Ġs y
p r
Ġv al
201 9
ç¬¬ äºĮ
è° ¢
Ġ 7
æł ĳ
è¯ ī
æ¹ ĸ
æĽ ²
æĽ ¾
æĬ Ĺ
ç» į
Ġ 8
" :
Ġk n
å¹´ çļĦ
èĢĥ èĻĳ
éģ¿ åħį
j ect
æľī åħ³
ä¸¤ ä¸ª
åĨ ·
Ġfor m
çĶ ·
æ¯ į
b le
é£İ éĻ©
Ġh ow
æį Ł
Ġd es
åħ ¸
ç¨ İ
åħ Ń
æľīéĻĲ åħ¬åı¸
è¶ £
ç¯ ĩ
åį ĥ
_ {
Ġp re
éĿ ©
Ġh is
æĵį ä½ľ
éģ ĩ
äº¤ éĢļ
æ°´ å¹³
Ġ$ $
1 00
å ³
Ġt wo
è®¸ å¤ļ
çº ³
æĿ¡ ä»¶
Ġw ould
çİ¯ ä¿Ŀ
è Ľ
Ġg et
Ġo ur
æĿ ¾
ç½ĳ ç«Ļ
Ġo ver
æ¤ į
ter n
èĻ ½
èĤ ī
Ġ âĢĵ
å½¢ æĪĲ
Ġb et
çĶµ å½±
æķ° åŃĹ
ä» ĺ
Ġd if
çĽ´ æİ¥
i an
-- --
æĹ ı
åª Ĵ
et h
Ġpro v
åī Ĥ
æĪĲ åĬŁ
åĽ½ åĨħ
ç¼ º
æİ ª
æ¶ ²
åĳ ¢
è´£ ä»»
åıĤ ä¸İ
an ge
ä»ĭ ç»į
l es
çĹ ĩ
te xt
é Ĩ
Ġm od
å ©
Ġth an
ä¼ ¤
Ġf irst
æķĪ æŀľ
a x
Ġcom m
å¯ Ł
åĽ º
å¿ħ é¡»
Ġre t
Ġwh o
äº¿ åħĥ
æ³ Ľ
Ġc ol
å¥ ĩ
Ġwhe n
é¦ Ĩ
çŁ¥ éģĵ
ç»ı èĲ¥
é£ ŀ
éĩ Ĭ
çĤ º
åĪ¶ éĢł
cl ud
ä»» ä½ķ
è¾¾ åĪ°
éĢ Ĳ
çī¹ åĪ«
æĭ¥ æľī
" ,
æ¯ Ĵ
ä¸Ģ èĪ¬
æķĪ çİĩ
ro w
è Ĩ
çļĦ åıĳå±ķ
at ive
èĥ Į
l ic
åĪ »
è¿Ļ ä¸Ģ
Ġin to
æ¨¡ å¼ı
le ct
éħ ¸
Ġy ear
ä» į
çİ ©
åħ °
æ´ ²
å½ ©
è¿ ½
è¿ĺ æľī
Ġ *
Ġe qu
ic s
ä¸įåĲĮ çļĦ
6 0
å¼Ģ å±ķ
æĦ ¿
åĽ °
åģ ľ
ä¼ ¼
en er
çģ µ
è°ĥ æķ´
éĵ ¾
åıĳ å¸ĥ
ï¼Į âĢľ
çĶŁ æĪĲ
æĪĲ æľ¬
a us
è¯ ¯
è§Ħ å®ļ
æĺ¯ä¸Ģ ç§į
æĻ ļ
ç¨ĭ åºı
æ³ķ å¾ĭ
é º
æĢ§ èĥ½
éħĴ åºĹ
ä½ĵ éªĮ
ä¸Ģ èµ·
Ġad d
Ġ\ (
^ {
éĢ ı
çĸ ¾
å° ¼
æı ı
at ing
u al
im es
Ġa cc
æĿ¥ è¯´
åŃ¦ éĻ¢
od e
Ġa m
ç»¼ åĲĪ
âĢ ¦
Ġs ol
æľ ĭ
åıĤ åĬł
2 2
ä¹ ¡
æ£Ģ æŁ¥
Ġt ra
è½ ®
å¥ Ĺ
çĻ »
ä½ľ åĵģ
Ġc o
åľ° æĸ¹
å¤ ı
çī Ľ
ç» ©
éĴ Ł
ment s
ä¿ĥ è¿Ľ
éĴ Ī
ä¸Ģ å®ļ
éĹ »
æķĻ åŃ¦
è´Ł è´£
å° Ħ
o b
Ġwh at
éĩĳ èŀį
èĥ½ æºĲ
å¾Ĺ åĪ°
ç³» åĪĹ
Ġs et
Ġ Ċ
èĭ ı
st em
T h
% ï¼Į
é Ń
2 1
( )
åĩ Ģ
éŁ³ ä¹Ĳ
æ¬ §
ç ĳ
Ġspe c
4 0
è¿ĩç¨ĭ ä¸Ń
in k
èŃ ¦
ic k
ä¼ °
è ĵ
æİ Ī
ç²¾ ç¥ŀ
çĮ ®
æĺ¾ ç¤º
ç»ĵ åĲĪ
Ġ 9
æĮ ĳ
Ġp os
åħ± åĲĮ
å² ģ
åĬ ³
çĦ¶ åĲİ
Ġthe m
æ´ Ĺ
åĤ ¨
å®ŀ æĸ½
Ġof f
æŀ ¶
èį ī
æĢ§ çļĦ
æĢ İ
on s
çİ° ä»£
æľĢ åĲİ
ä»İ èĢĮ
åĮ» éĻ¢
b ers
æķħ äºĭ
p s
æī§ è¡Į
ä¸ ½
è¿Ľ ä¸ĢæŃ¥
Ġhe l
æľĭ åıĭ
ç² ī
çĽ ĸ
Ġ âĢľ
ç§ Ģ
çĶŁ çī©
æķ £
2 3
èº« ä½ĵ
è¡¨ çİ°
è· Ł
åĬ ±
è¿Ľ åħ¥
ä¸į ä¼ļ
d s
åĸľ æ¬¢
èĮĥ åĽ´
åĬł å¼º
ä¸Ĭ æµ·
è¿ İ
ç»ı éªĮ
èĢĮ ä¸Ķ
è¯ Ĭ
ĠH e
æŃ ¦
æ¦ Ĥ
åħ³ æ³¨
c ess
ut ion
æĢ ¥
æĹł æ³ķ
èĻ½ çĦ¶
âĢĶ âĢĶ
å¯ »
æ¨¡ åŀĭ
æī ĺ
Ġ &
ä½ Ľ
c re
} $
r it
ä¸» é¢ĺ
Ġa g
æİª æĸ½
åľ ĭ
ri b
æŃ¤ å¤ĸ
æĳ Ħ
è§Ħ åĪĴ
åĨ ²
ä½ ³
åĨ ł
am ple
éĿ ł
æĬ¥ åĳĬ
å®¶ åºŃ
å·¥ åħ·
r ough
å¹¿ æ³Ľ
ç©º éĹ´
åĽł ç´ł
åĪ ¤
å® Ī
éĺ ¶
r ing
è® ¨
è® ¿
ä¼ļ è®®
Ġe ach
åĩ ½
æĪĳ çļĦ
il d
Ġe m
ul ar
8 0
è¿Ļ æĺ¯
èĢ Ĳ
åħ «
çĸ« æĥħ
åĲ ¯
Ġthe n
èģĶ ç½ĳ
æıĲ åĩº
Ġcon s
ä¸Ģ ç§į
é¡ º
çĶŁ æĢģ
åİŁ åĽł
Ġas s
ç» Ŀ
ĠR e
ĠW e
' t
ä¸° å¯Į
Ġon ly
ä»ĸ çļĦ
ç®Ģ åįķ
ot h
æ° §
éĩı çļĦ
n ing
èĦ ĳ
éĢĤ åĲĪ
æĮī çħ§
ľ é£İ
èģĮ ä¸ļ
åİĭ åĬĽ
æ ©
ä¼ĺ åĮĸ
çŃ ¾
ä»£ çłģ
çĻ½ çĻ
è´ µ
il ity
ã ĥ
é¦ĸ åħĪ
Ġpro du
Ġwe re
ä»Ĭ å¹´
Ġf ol
çĻ½çĻ ľé£İ
è¶ħ è¿ĩ
æ¥ ¼
Ġdif fe
Ġg r
is e
éĢł æĪĲ
éĩį çĤ¹
ç³ ĸ
Ġus ing
åŁ¹ è®Ń
as ed
åĬ ª
Ġre c
å¡ ĳ
o se
æī ©
he n
æĮ ¥
æ± ī
èµ· æĿ¥
æĽ´ å¥½
å» ¶
åİ ħ
Ġ 200
Ġ 20
éĽ ¨
æĤ¨ çļĦ
æĸĩ ä»¶
e w
åı ¶
Ġwhe re
Ġ$ \
çĶ³ è¯·
æ² Ļ
å¨ ģ
èĮ ¶
æĪĳ åĽ½
åĳĺ å·¥
å· ¦
çĿ £
Ġ #
ä¹ĭ åĲİ
äº¤ æµģ
Ġsu b
åı ³
Ġp e
Ġm at
åħ¨ éĿ¢
Ġp h
æĸĩ æľ¬
Ġn o
ç»§ ç»Ń
åıĹ åĪ°
Ġin clud
å¿« éĢŁ
Ġin te
å¹¶ ä¸Ķ
Ġret urn
éĴ ±
Ġf ind
æ¯Ķ èµĽ
é¥ °
åªĴ ä½ĵ
% ãĢĤ
èĭ ¥
éĵ¶ è¡Į
åı¯èĥ½ ä¼ļ
ä» ª
ç¬¬ ä¸ī
Ġun der
æİ¨ åĬ¨
i ent
é£Ł åĵģ
Ġbe en
ä½ĵ ç³»
æ¯ı ä¸ª
Ġs im
Ġd ata
éĻ Ħ
é¡ ¾
Ġre l
çļĦ éĹ®é¢ĺ
it s
Ġin d
f ul
ä¸Ģ ä¸ĭ
fe ct
Ġbe c
æīĭ æľº
è® ¢
Ġj ust
** :
çĨ Ł
ä¹ ħ
æ¯Ķ å¦Ĥ
è§Ħ æ¨¡
h at
ã Ĥ
åĬª åĬĽ
ä¸Ģ çĽ´
ib le
201 8
Ġtr ans
åĪ¶ ä½ľ
çĸ¾ çĹħ
çļĦ æĹ¶åĢĻ
Ġ Ð
f ter
m ath
ç«ŀ äºī
äº¤ æĺĵ
å¤ ľ
æ¶ ī
æ±¡ æŁĵ
re at
è¡ ¡
è ĸ
Ġd et
ç¿ »
å¤ «
çĶ ļ
äº Ī
èĥ ľ
éĿ Ļ
ç¡® å®ļ
19 9
ä¸Ģ æ¬¡
å± Ĭ
è® ¯
æ± ł
èĹ ı
æĭ Ł
he d
æĹ¥ æľ¬
å® ģ
er t
éĢ Ģ
æŃ£ åľ¨
Ġ ra
Ġg iv
æŃ »
å½ Ĵ
èĽ ĭ
ç® ±
æ´ ģ
Ġa ct
æ¢ °
Ġ i
æĭ į
) :
å®¹ æĺĵ
å ĺ
è· Ŀ
æĢ§ åĴĮ
Ġthe se
æ¶ ¦
éĩįè¦ģ çļĦ
Ġo b
Ġm ost
éĽ ¶
å¤į æĿĤ
s w
ie w
Ġde f
ol og
é ±
ç§ Ł
åĪĽ éĢł
ic t
Ġkn ow
æł¸ å¿ĥ
ä¼ ĳ
ä¸ĵ å®¶
éĻį ä½İ
æĥħ æĦŁ
Ġl ist
} \
ĠI f
ä¸ ĥ
çļĦ éĩįè¦ģ
ation al
u es
ĠU n
é ½
in al
äº ®
åį ±
Ġfol low
ç¨³ å®ļ
Ġus ed
we en
Ġhel p
g et
è¡ Ĺ
.. .
çļĦ å¤§
ä¸ĩ åħĥ
æ· ·
åĩ½ æķ°
æ»¡ è¶³
a w
åº Ĩ
æ² Ł
åį Ī
æ¯ ķ
æīį èĥ½
ä¼ĺ åĬ¿
æĭ ¿
è®° èĢħ
Ġres ult
åıª æľī
éļ Ĳ
ä»Ĭ å¤©
èĦ ±
é± ¼
é ĸ
he s
ç µ
æ¸ Ĳ
é² ľ
å· ¨
Ġb u
æĮĳ æĪĺ
i ed
æĶ¶ åħ¥
Ġc ur
{ \
Ġm ay
åıĬ æĹ¶
å½¢ å¼ı
c ed
è¯ Ĺ
Ġin st
è½¯ ä»¶
æ£Ģ æµĭ
c ul
é¢Ĩ å¯¼
æĸ ¼
å¸ ģ
i x
ç§ ģ
2 8
åĪ¶ å®ļ
ra ct
aus e
Ġth rough
ç¬ Ķ
çĬ¶ æĢģ
å¹ ħ
æħ ¢
åĨ Į
å¿ĥ çĲĨ
éĺ ħ
t ing
è¿Ĳ è¡Į
åĮĸ çļĦ
æĶ »
éĿ¢ ç§¯
æ± ĩ
s s
Ġsu ch
è° Ī
çĽ ĺ
Ġbet ween
Ġc re
çļĦ å½±åĵį
æĺ¯ åľ¨
on t
æľ Ŀ
ä¿Ŀ è¯ģ
æķĻ å¸Ī
Ġpo int
èĪ ŀ
åĪĨ åĪ«
çģ ¯
ç±» åŀĭ
è§ ¦
ä¹ Ŀ
æľº ä¼ļ
æ ¾
å· Ŀ
åıĸ å¾Ĺ
Ġin t
æ° ¸
iz e
o ple
it ies
el f
ĠP ro
u res
éĻ Ī
ä¿Ŀ éļľ
åĪ ļ
Ġ ke
è¡¨ è¾¾
å¥ ¥
è Ķ
éľ ²
or k
Ġh ad
ç« ¥
ç¬¦ åĲĪ
åĢ Ł
æĬĢ èĥ½
Ġsy stem
al s
æ¸© åº¦
å° ļ
çº ¸
Ġ <
Ċ Ġ
æĪĲ ç«ĭ
r ight
is s
æµĭ è¯ķ
æıı è¿°
pt ion
è¡Į æĶ¿
Ġch ar
f ore
å° ģ
c y
ç¡ ¬
åº Ĭ
èį Ĳ
Ġg ener
Ġex p
åº Ł
æľŁ éĹ´
æľĢ ç»Ī
å° Ŀ
åĨ³ å®ļ
Ġv ari
ä¹ĭéĹ´ çļĦ
çĶ ²
æĿ¥ è¶Ĭ
é¼ ĵ
æĸ¹ åĲĳ
ve l
ow er
ç»ı è¿ĩ
ç¤ ¼
o od
çĶļ èĩ³
Ġre g
è¶Ĭ æĿ¥è¶Ĭ
åĮº åŁŁ
è¯ ¦
ble m
åĪĨ éĴŁ
çľĭ åĪ°
çĪ ¶
çĩ ĥ
è¿Ļ éĩĮ
æĹ¶ ä»£
è¾ ĳ
ä»¥ä¸ĭ æĺ¯
å° ¤
å¾ Ħ
Ġcom ple
çłĶ åıĳ
åŁ¹ åħ»
èģĶ ç³»
å°ı æĹ¶
æ¢ ¦
i el
2 6
é«ĺ çļĦ
æļ ĸ
Ġm ake
èį £
Ġsh ould
Ġ /
2 7
m er
æ´ ĭ
æİ¨ èįĲ
ic es
ĠC om
è ³
åĩĨ å¤ĩ
æĶ¹ åıĺ
åı¯ä»¥ å¸®åĬ©
ä»ĸä»¬ çļĦ
æİ¥ åıĹ
çĶ °
çĤ İ
åħĥ ç´ł
éĢŁ åº¦
åĴ ¨
çĸ ĳ
åĬł åħ¥
è· µ
åŁº éĩĳ
ä¸į è¦ģ
Ġre m
è¶ ĭ
åĩĨ ç¡®
ä¼ ´
Ġin v
æĸ° éĹ»
ç®Ĺ æ³ķ
éĻ¤ äºĨ
çĽ Ł
å½ĵ çĦ¶
åĲ §
è¾ Ĩ
æĺİ ç¡®
Ġw ant
çĶŁ åĳ½
æĽ´å¥½ åľ°
åł Ĥ
ç¼ ©
Ð ¾
form ation
å¾ ª
åĴ¨ è¯¢
pe ct
æľº æ¢°
æĮĩ å¯¼
ä¹ İ
èµĦ éĩĳ
ä¹ ĺ
i o
en g
çİ° åľº
on d
å®ŀ éªĮ
è¯Ħ ä¼°
å® Ĺ
å¢ŀ å¼º
ç¾İ åħĥ
Ġc or
è¯ ļ
ä¸į è¿ĩ
è¯¾ ç¨ĭ
çī¹ çĤ¹
éĩĩ åıĸ
åĮ» çĶŁ
éķ¿ æľŁ
å§Ķ åĳĺ
äºº æīį
ç´ ¯
å¤ ®
å®ī è£ħ
åķĨ ä¸ļ
p ro
å² Ľ
Ġs m
ä»¥ æĿ¥
è®¾ æĸ½
éĺ¶ æ®µ
éĤ ®
Ġman y
è®Ń ç»ĥ
o ol
ç ¹
æĢİ ä¹Ī
Ġm in
ve lo
èĢģ å¸Ī
ä¸Ģ æł·
æĸ½ å·¥
æ¶Īè´¹ èĢħ
ä¸ Ŀ
Ġd ist
ç¼ ĵ
Ġt y
Ġa c
Ġdo es
æķ ĳ
äºĴ èģĶç½ĳ
çŁ ¿
æŃ£ ç¡®
t y
n g
è ¸
è¡Į åĬ¨
éĢ Ķ
è¡ £
Ġin ter
æ´ ¾
åĿļ æĮģ
ç© ¿
è´Ń ä¹°
æİ¨ è¿Ľ
Ġ her
Ġ â
éģ Ĺ
åĪ¶ åº¦
al cul
æ» ĳ
åĳ ¼
æ¡ ¥
åħħ åĪĨ
è¿ Ŀ
åŁº äºİ
æĿ Ł
Ġst ud
åĵ Ī
å· §
Ġdiffe rent
çĹ Ľ
é¢ ľ
æ½ ľ
çļĦ é«ĺ
ä½į ç½®
èĥ ¶
7 0
Ġre qu
å®Į åħ¨
ä¼ ¦
æ ĩ
æī¾ åĪ°
éĴĪ å¯¹
å¸ Ń
çĥ Ī
æķ° éĩı
o x
æĦı è¯Ĩ
ä¸¥ éĩį
ï¼ī ãĢģ
å¹´ æĿ¥
Ġ .
è¯Ĩ åĪ«
åİ ļ
Ġl oc
è »
il y
é¡ ¶
æ£ ®
éĥ½ æľī
æĪĺ çķ¥
ç©º æ°Ķ
åĬł å·¥
Ġs a
Ġw ell
åĵª äºĽ
Ġs erv
he m
è§ Ī
Ġpe ople
çĽ® çļĦ
ol d
Ġse e
è ľ
Ġ ent
æĽ´å¤ļ çļĦ
æľĢ è¿ĳ
æķ´ ä¸ª
æĹ ¢
è¯ ĳ
æľī çļĦ
è´ «
å¤ļ ä¸ª
Ġc ould
çŃĸ çķ¥
åĨ °
åģ ı
ad e
Ġsu pp
ä½į äºİ
Ġqu est
Ġat t
c i
Ġpl ay
2 9
åĪĨ ç±»
eth od
è§Ĵ èī²
æı ¡
åĲİ çļĦ
at ure
èĻ ļ
åĬ¨ çī©
ãĢ Ģ
å³ °
æĦı è§ģ
sw er
è§Ħ èĮĥ
æ¯ Ľ
çī© è´¨
è§Ĩ é¢ĳ
ä¹ĭ åīį
éļ Ķ
Ġe le
ä¸į åı¯
è´ ¸
åĮħ åĲ«
e x
åį« çĶŁ
201 7
ç»Ħ æĪĲ
æİ Į
Ġpro blem
åĲĪ çĲĨ
å® ľ
g ram
w n
åĲ ī
æĥħåĨµ ä¸ĭ
ur ing
ĠF or
åĪĽ å»º
èĢĥ è¯ķ
éĩ İ
è ²
æĲ Ń
å®ŀ è·µ
w ard
å·¥ èīº
er g
æĿ¥ èĩª
èī¯ å¥½çļĦ
Ð µ
} }
ç¤¾ åĮº
å±ŀ äºİ
ãĢĭ ï¼Į
æĶ¹ éĿ©
in ce
ç§ ĭ
æĥ ł
åıĳ æĮ¥
ction s
å½ĵ åľ°
åıĳå±ķ çļĦ
9 0
è¾ĵ åħ¥
res ent
t s
æµ ª
éª ¤
Th is
Ġw ay
æľº åĪ¶
æ¡ £
t en
é ¹
é© ¾
çī¹ èī²
æĦı ä¹ī
e c
ç»´ æĬ¤
ä¼ĺ ç§Ģ
è¿Ĳ èĲ¥
ç Ĵ
æ³ °
ä¸ĭ éĻį
ical ly
èĤ ¤
åĩł ä¸ª
Ġs ame
åħ¬ åħ±
) )
åĿ Ĳ
g r
ru ct
åĪ ĺ
Ġst art
æİ¢ ç´¢
åľ Ĩ
å¡ Ķ
ĠY ou
æ·± åħ¥
èı Į
çļĦ äºĭ
åı¯ä»¥ éĢļè¿ĩ
åĨľ ä¸ļ
3 5
æķ´ ä½ĵ
ire ct
é¡ µ
Ġapp ro
å¤© æ°Ķ
æ²Ł éĢļ
ç¨ĭ åº¦
è´ ´
u ch
å¹ ¸
Ġh igh
ra y
èĥ ŀ
æħ §
t he
åĩº äºĨ
èģ ĺ
èģĶ åĲĪ
å®£ ä¼ł
l ine
æĺ ł
æŃ£ å¼ı
åŃ ¸
åĿ ı
as h
åĿ Ģ
æ¹ ¿
çĦ ¦
å¹ ķ
ar ch
æĻ Ĥ
åį ĸ
é£Ł çī©
èĭ ¦
Ġb ack
u g
4 5
ĠE x
æľī ä¸Ģ
ĠA l
èµĦ äº§
æĪ ª
æľ «
çļĦ å·¥ä½ľ
è§£ éĩĬ
in es
å® ½
at or
éĽ ª
' ,
âĢĿ ãĢģ
pr int
è· ¨
èµĦ æĸĻ
æĽ ¿
æ· »
å© ļ
ç§ ĺ
åĩº çļĦ
æŃ¥ éª¤
åħ¬åı¸ çļĦ
a ir
èĨ ľ
å¤ļ ç§į
Ġcon st
ers on
æ³¨ åĨĮ
æĺİ æĺ¾
Ġex per
çĶ¨ çļĦ
d ay
åĪ ¸
åĳĬ è¯ī
èĦ ļ
è®¡ç®Ĺ æľº
æľ ĥ
è´ ·
åģļ å¥½
é© ¶
çĥ Ł
åĲ¸ å¼ķ
å°Ŀ è¯ķ
å±ķ ç¤º
åı «
ä¿Ŀ éĻ©
åĳ Ī
èĵ Ŀ
éĢ Ĵ
Ġgiv en
ak ing
id ent
è ©
ag es
ra ph
å¹³ åĿĩ
æĸ Ĺ
çĬ ¯
è· ĳ
f fect
if y
ut e
åıį åºĶ
Ġval ue
æĥ ¯
å¹¶ ä¸į
è¶ĭ åĬ¿
æĶ¹ åĸĦ
æ² ī
æľĢ å¤§
åħ¬ éĩĮ
å² Ĺ
çİ ī
åĲĮ æ¯Ķ
åĩº æĿ¥
éĽ ·
Ġev en
æ¤į çī©
çĲĨ è®º
Ġs he
çĶµ è§Ĩ
p ython
åĢ º
å± ĭ
Ġin formation
ç¬ ĳ
ç¤¾ äº¤
e ver
ç»¿ èī²
Ġb oth
æŃ£ å¸¸
ch n
åĮĸ åŃ¦
ä¹Ł æľī
Ġa fter
o h
è¯¦ ç»Ĩ
è®° å½ķ
æ¶ī åıĬ
å¦ Ī
æĲ ľ
çĦ¶ èĢĮ
éĺħ è¯»
çĽ Ľ
å¹³ æĸ¹
it ed
ä½ĵ èĤ²
Ġl ook
éĻ Ĩ
Ġc all
ãĢĤ âĢľ
äºĭ ä»¶
åħ¶ å®ŀ
çī Ļ
Ġ very
è§ī å¾Ĺ
el s
åķĨ åĵģ
èĪ ¹
å®Į åĸĦ
éĢĤ åºĶ
Ġcl ass
Ġp ar
è®¾ ç½®
ul l
a pp
Ð °
ãĢ Į
æĪĲ ç»©
ãĢ į
in ed
å°¤ åħ¶
å¼Ģ æĶ¾
Ġde c
Ġ Q
âĢ ĺ
éª ¨
å®ĥ çļĦ
ow s
éĶĻ è¯¯
è°ĥ æŁ¥
é¢Ħ æµĭ
æĢ Ģ
æĪĲ éķ¿
æĬ ĺ
å®ī æİĴ
æĪĲ åĳĺ
èĦ Ĥ
ou p
å¥ ¶
Ġc ar
an y
åĨ³ çŃĸ
éĿ¢ å¯¹
con d
åĬ¨ åĬĽ
åĲĪ åĲĮ
çļĦ æĸ°
çĪ Ĩ
æ¯ı å¤©
å ´
t a
çľŁ æŃ£
å° Ĭ
åĬŀ åħ¬
æĿ ¯
è¯ º
çŃī çŃī
åı¦ å¤ĸ
Ġ end
Ġyear s
e g
åĪĨ äº«
åħ´ è¶£
Ġr ight
Ġs ign
Ġ1 8
r t
èĢ Ĺ
çĥ §
æ® Ĭ
åħĪ è¿Ľ
éĽ Ħ
è¿ Ķ
æ·± åº¦
é«ĺ æķĪ
Ġl ong
Ġbec ause
ç½ ²
v en
åĬĽ éĩı
h ip
æ¶ Ĥ
é¸ ¡
ç§» åĬ¨
i er
åįı ä¼ļ
201 6
velo p
è ļ
ĠH ow
ç¢ ³
æĪĳä»¬ åı¯ä»¥
Ġre p
å·¦ åı³
è¡¨ éĿ¢
ä¾Ľ åºĶ
Ġpro cess
èĲ¥ éĶĢ
åºĶ å½ĵ
ç¹ ģ
ç»Ĩ èĥŀ
Ġ1 2
i ous
è¿Ĳ è¾ĵ
n um
t t
éģ į
ç ¶
æīĵ éĢł
fe ren
ĠĠ ĊĠĠ
æĦŁ è§ī
å¤ª éĺ³
æĹ¥ å¸¸
Ġim port
æ¬¢ è¿İ
æĹ §
ä¸ī ä¸ª
å¤ļ å°ĳ
çģ ¾
Ġf act
Ġs ur
è¯´ æĺİ
å¾ Į
ä½ĵ çļĦ
A n
Ġf il
in s
-- -
äºĭ ä¸ļ
èĪ Ĵ
é¥® é£Ł
9 9
æ¯ķ ä¸ļ
an k
è¿ŀ æİ¥
å½ĵ åīį
èĩª æĪĳ
ä¸Ń å¤®
åĶ ±
åıĤ èĢĥ
Ġl ine
çĿ ¡
å¼ķ èµ·
ç» ª
m m
i qu
if e
Ġ1 5
åĪĽ ä½ľ
Ġf l
å°ı æĺİ
è¾ ħ
ff ic
é£İ æł¼
c ri
åĢ į
çĽ¸ å¯¹
æĢĿ æĥ³
è¿ĩ åİ»
Ġs um
éĺ »
Ġwh ile
æµ ĵ
at her
éĽ ħ
v al
W e
Ġst r
3 1
al ity
i k
åıª æĺ¯
ç½ ª
æ³ ¡
o k
èª ī
Ġex ample
è± Ĩ
çĭ¬ çī¹
æıĲä¾Ľ äºĨ
o y
et s
al e
æķ ı
é¦Ļ æ¸¯
i vers
åľ £
æ¼ «
çħ ¤
ä¸ĭ æĿ¥
Ġcur rent
çī¹ å¾ģ
Ġex t
Ġde p
è¿ ·
ce pt
å¢ Ļ
Ġ ed
åľ¨ çº¿
p en
Ġ z
è´ ¡
é ł
æĤ ī
èĥĮ æĻ¯
åĢ Ĵ
Ġre ad
åľº æĻ¯
Ġ X
è¿Ļæł· çļĦ
ä¾ §
Ġgo od
åĵģ è´¨
3 6
æĹħ è¡Į
å¹¿ åĳĬ
çĭ Ĺ
éĢļ çŁ¥
l and
åĬ© äºİ
èħ Ĳ
çº ¯
ç£ ¨
æ¶ ¨
é½ Ĳ
æĶ¯ ä»ĺ
Ġc he
çļĦ å°ı
Ġm ult
ï¼ļ **
çº ·
æµģ ç¨ĭ
å¹´ åº¦
Ġe very
ä¹ł æĥ¯
Ġd own
± ä¹Ĳ
æĸ¹ ä¾¿
çĲĨ å¿µ
çĽĳ çĿ£
ä¸¥ æł¼
iz ed
åı¥ åŃĲ
Ġnum bers
. "
åĩ Ŀ
è´¹ çĶ¨
Ġt erm
éģ µ
èĤ ¥
ch ool
ç»Ł è®¡
Ġa v
åĬĽ çļĦ
. ,
æĻº æħ§
è° ·
è¾ĵ åĩº
èĲ½ å®ŀ
å¹³ è¡¡
u ally
æĬ ĵ
Ġl ar
åĭ ĩ
Ã Ĺ
èĩª èº«
å¸¸ è§ģ
åĪ º
g er
éķ ľ
æĬĢæľ¯ çļĦ
ä¹Ł åı¯ä»¥
èĲ¥ åħ»
å± ı
ĠS e
Ġb el
æģ ¢
Ġn ow
Ġin s
æĥ³ è¦ģ
æĸ¹éĿ¢ çļĦ
v ing
ĠĠĠĠ ĠĠĠ
æİ¨ å¹¿
éĹ Ń
Ġd on
æĻ® éĢļ
çļĦ æĹ¶éĹ´
le ft
ç¦ ģ
5 00
Ġ Z
åĦ¿ ç«¥
çĶµ è¯Ŀ
å®ļ æľŁ
é¢ľ èī²
æľī äºĽ
åĨ ¬
èĩª çĶ±
ĠN ew
Ġprov id
ä¸į å¾Ĺ
g an
ç ĺ
Ñ Ĥ
åĢ ĭ
) ;
t on
è¦ Ĩ
Ġg u
a z
æ³ ¥
Ġ çļĦ
Ġs er
åĪĹ è¡¨
ä¸ĭ éĿ¢
Ġan swer
re st
ĠD e
çĽ Ĳ
åĽ° éļ¾
æĹł è®º
ĥ åľ
ç»ı åİĨ
Ġpro gram
Ġc ode
ä¸ĭ çļĦ
é¼ĵ åĬ±
åħ µ
å§Ķåĳĺ ä¼ļ
åĨħ éĥ¨
æĿ¥ çľĭ
åħ¬ å¼Ģ
Ġprodu ct
Ġ ,
åľ Ī
ä½¿ å¾Ĺ
Ġst ate
å¹´ è½»
c ial
ä½ł åı¯ä»¥
åĮ» åŃ¦
è·Ŀ ç¦»
iel d
æļ ´
åį ·
ot her
éĽĨ ä¸Ń
Ġc ount
it t
ĠĠ Ċ
ak es
n er
æ½ ®
Ġo per
åŀ ĥåľ
åŀĥåľ ¾
æĶ¿ æ²»
çī¹ æ®Ĭ
åľ° çĲĥ
å°± ä¼ļ
å¤ļ çļĦ
ä¹Ł ä¸į
å¡ ŀ
èĳ £
ä¼ Ĭ
å¯ ¿
Ġm ain
Ġhe re
Ġm uch
re ad
äº ¦
ä¹Ł ä¼ļ
a ve
Ġm on
le ase
éĻĲ åĪ¶
Ġc alcul
æĹ Ĺ
âĢĿãĢģ âĢľ
ç ·
æģ¢ å¤į
æģ ¶
åĪĽ ä¸ļ
Ð ¸
å°± ä¸ļ
éĩĳ å±ŀ
Ġfollow ing
æĦŁ åĪ°
å¡ «
æĿ Ģ
å® ¿
Ġre f
ur al
as es
åı ¬
éľ ĩ
å¦Ĥæŀľ ä½ł
çİ° è±¡
æĪĲ æŀľ
ä¸Ĭ å¸Ĥ
çª Ĺ
éĢĲ æ¸Ĳ
äºĨ ä¸Ģä¸ª
çī© æµģ
éĺ µ
æĭ ĵ
Ġdes ign
æĥħ ç»ª
t imes
3 3
æģ ©
å¿ħ è¦ģ
æ¹ ¾
æ¾ ³
åĽŀ çŃĶ
ä¾ µ
é¥ Ń
éĥ½ ä¼ļ
Ġprov ide
éĨ Ĵ
é¾ Ħ
å¼ ¹
æĺ¯ ä»Ģä¹Ī
ç»ı çĲĨ
( "
æľĢ ä½³
S t
å® «
u c
ç¿» è¯ĳ
åĲ ¨
Ġh and
Ġpos s
å¼ ±
ä¸» ä»»
ä¸Ń åįİ
olog y
as on
ar n
Ġt est
å¼º è°ĥ
ab ility
çĤ ¼
åŁº åľ°
Ġar t
æ´ ¥
äº§åĵģ çļĦ
çĽĳ ç®¡
å¤§ éĩı
å¯¹ è¯Ŀ
ä¸Ģ ä½į
æľī åĬ©äºİ
Ġex pl
çļ® èĤ¤
æ¦Ĥ å¿µ
E R
èµĦ æł¼
æ°§ åĮĸ
c o
t al
æĿ ¨
åĪĨ ä¸º
åİŁ åĪĻ
è§£åĨ³ æĸ¹æ¡Ī
éĩį æĸ°
æĹ¶ æľŁ
ent ial
Ġde velop
Ġth ink
æĳ ©
Ġf in
ĠS h
çļĦ æĸ¹å¼ı
it ive
Ġm em
çĮ «
ion al
åĨħ çļĦ
Ġb est
æī ¬
èĴ Ļ
æĬķ åħ¥
è´ ¦
r on
è´¡ çĮ®
èĤ ¯
ar s
æĬ ½
åĵ ¥
å®ļ ä¹ī
çĳ ŀ
am p
201 5
çĶµ æ±ł
Ġr un
ä¸º ä»Ģä¹Ī
æ² ¿
Ġ :
æ´ Ľ
éĶ ħ
å® ĩ
æ´ ŀ
éĩį å¤§
åŃ Ķ
èĪ ĩ
i ence
å¿ Ĩ
åĬŀ æ³ķ
Ġa ut
in ess
åħ· å¤ĩ
èį¯ çī©
Ġm ethod
æ» ¤
) $
æĢĿ èĢĥ
L E
æĿ¥ æºĲ
æį ·
ä¸ ²
ub lic
äº« åıĹ
Ġ }
æķ° åŃ¦
çĬ¶ åĨµ
èĢħ çļĦ
ä¸į å°ĳ
Ġc ent
å¾ª çİ¯
è®¨ è®º
è¿ ħ
ç»ı å¸¸
is ion
åħ¨ éĥ¨
Ġt ake
å¸ Ŀ
ï ½
ç»ĵ æĿŁ
åħħ æ»¡
Ġpr int
a h
æĶ¶ éĽĨ
å¦Ĥ ä¸ĭ
è½ ´
id er
èĲ ¨
Ġpart ic
Ġth ree
äºº åı£
Ġo wn
èµ ¢
åĲį çļĦ
åŃĹ ç¬¦
Ġd irect
è¿ ª
__ __
st and
ä¸ĸ çºª
æĥ Ĭ
åº¦ çļĦ
/ /
is m
åĲĮ åŃ¦
Ġbe ing
è¿Ľè¡Į äºĨ
è¯Ħ ä»·
ä¸Ģ ç¯ĩ
7 5
æĮĩ åĩº
æľºåĻ¨ äºº
lo g
æī ¶
çļ ĩ
çĽ¸ åºĶ
v iew
ç¼ ĺ
åħ ¼
å¤§ åŀĭ
ä¸» ä¹ī
Ġsm all
æľī æīĢ
Ġper form
åıĺ å¾Ĺ
åįģ åĪĨ
eng th
è´ ¥
re ct
éŁ ©
ot s
Ġb l
ç» ķ
ç² Ĵ
çĹĩ çĬ¶
A T
ä¸¾ åĬŀ
de f
ä¸Ĭ è¿°
\ )
w ay
r m
ç į
çĽ¸ ä¿¡
19 8
çļĦ ä¸»è¦ģ
æľĢ é«ĺ
ç¼ĸ ç¨ĭ
è¿½ æ±Ĥ
æ·» åĬł
Ġto p
åĶ Ĳ
çĵ ¦
ä¸Ģ æ®µ
c ent
Ġc ase
l ed
æŃ¤ æ¬¡
æĽ´ æĸ°
èİ· åıĸ
é¢ĨåŁŁ çļĦ
er n
æķĻ æİĪ
æľ¬ æ¬¡
æł· çļĦ
ir c
R e
åįĩ çº§
ç± į
è¿ŀ ç»Ń
å°Ĩ ä¼ļ
b s
Ġ est
è§Ħ åĪĻ
è½¦ è¾Ĩ
ä¼ Ļ
Ġbe fore
ä¼ĺ è´¨
çİ° å®ŀ
é¢ Ĺ
åĪ° çļĦ
d d
åįı è®®
é¦ Ī
åĬ³ åĬ¨
è£ ģ
é©¾ é©¶
Ġf am
Ġe l
æİĮ æı¡
Ġchar act
æ°Ķ åĢĻ
è´¢ åĬ¡
Ġt ri
Ġre al
èĭ± åĽ½
---- ----
O S
Ġcon f
Ġte chn
Ġb us
oc k
am es
é¡ ¿
Ġf ound
ot e
Ġor der
ä¹ Ļ
iz ation
Ġp erson
ä¸ª æĢ§
erg y
Ġm ade
Ġd ay
e k
al th
o f
y n
å¯» æī¾
çľŁ å®ŀ
çı ł
f or
A P
çļĦ æĸ¹æ³ķ
Ġm et
ä»İ äºĭ
åĭ ķ
ä¸º ä¸»
çļĦ è¯Ŀ
Ġm ed
en e
é² ģ
Ġ ve
çİ »
ĠC l
Ġd i
è¿Ľ æŃ¥
g le
a u
ain s
en cy
éĿ¢ ä¸´
Ġm ust
ist s
Ġsh ow
ç»Ł ä¸Ģ
ä¸ľ è¥¿
æĬ¥ éģĵ
å¼ ĥ
æĸĩ æĺİ
Ġ åľ¨
åĶ ¯
as k
æĮ ¯
åĲį ç§°
Ġquest ion
Ġin f
å «
â Ħ
è· ³
éĵ Ŀ
å¥ ĭ
åŃĺ åĤ¨
èĤ¡ ä»½
å¦Ĥ æŃ¤
æľī çĿĢ
çĹħ æ¯Ĵ
P ython
H e
Ð ½
æģ Ĵ
Ġd id
è¯ģ æĺİ
ĠA s
æľ Ĺ
Ġn ame
åĪ© æ¶¦
éĩį è§Ĩ
Ġst ep
å½ĵ æĹ¶
3 4
å° º
ãĢĭ ãĢģ
æľºåĻ¨ åŃ¦ä¹ł
è®¤ è¯Ĩ
Ġst and
ust om
y le
ä¼ģä¸ļ çļĦ
èµ ĸ
Ġto tal
i red
æľĢ å¤§çļĦ
æĺ¯ æĮĩ
åĴ ĸ
çļĦ çĶŁæ´»
oh n
p os
æĪĳ æĥ³
ĠW h
ł éģĵ
è¯Ĭ æĸŃ
è´ Ŀ
Ġ| |
çĴ ĥ
Ġn on
æĬ¥ åĲį
Ġe as
Ġpro per
æĹ ¨
æĢ» ç»ĵ
æĹ ĭ
Ġm ark
ar m
Ġag ain
æıĲ åıĸ
èµ ı
Ġle ad
èĢĮ æĺ¯
Ġp ol
Ġmod el
å±ħ æ°ĳ
çī© çĲĨ
he re
åıª è¦ģ
çŃĶ æ¡Ī
ri x
åı¯ä»¥ åľ¨
èĤ º
Ġin cre
Ã ©
Ġwor ld
Ġ1 00
æŁĲ äºĽ
ĠC on
åħĪ çĶŁ
s q
åİ» å¹´
æ¯Ķ ä¾ĭ
è¡Į çļĦ
éģĵ è·¯
æĲľ ç´¢
åº Ħ
éº »
Ġe ffect
å¿ ĺ
çĭ¬ ç«ĭ
æİ ī
éĿ¢ çļĦ
Ġh ome
Ġs k
Ġan al
ro ss
an n
Ġc le
I f
v ed
åºĶ å¯¹
ç ŀ
Ċ Ċ
Ġsupp ort
ç¥ŀ ç»ı
æı ´
ç§° ä¸º
in ing
èĥ ¡
oc i
" )
æĮ Ĥ
èĭ ¹
éĤ£ äºĽ
o ot
å° ¾
çªģ çł´
äºĴ åĬ¨
åĩº åı£
Ġse cond
æĦŁ åıĹ
Ġp a
çī¹ å®ļ
èĭ¹ æŀľ
A R
æĲ º
åľ ³
çĽ¸ åĲĮ
åŃ¦ ç§ĳ
ç½ ļ
ãĢ ĳ
èĭ± è¯Ń
æĽ´ å¥½çļĦ
ãĢ Ĳ
Ġ1 6
3 2
åĪ ·
æ³ķ è§Ħ
mer ic
çĽ¸ æ¯Ķ
5 5
çĻ ¼
æ¢ ģ
Ġo pt
åĢ¼ å¾Ĺ
æĬĢ å·§
å¤§ å¤ļ
and om
é¢Ħ éĺ²
è¿ ¹
èŀį åĲĪ
æ¶Ī æģ¯
Ġres p
ç§ĳ çłĶ
é» ĺ
æ¢ ħ
ç» ĺ
æĿ °
è§Ĥ ä¼Ĺ
Ġp ost
al k
çİ» çĴĥ
æ·± åľ³
çļĦ äº§åĵģ
) ï¼Į
ä¹ ±
åľŁ åľ°
æ° ı
4 8
ct or
é«ĺ åº¦
pl ay
3 8
om et
èĢ ³
å¤§ åĪ©
ï¼ İ
æĮĩ æłĩ
æľº åħ³
Ġspec ific
( \
èĪª ç©º
å¡ĳ æĸĻ
ç³»ç»Ł çļĦ
p ar
Ġe lect
Ġ3 0
um ent
r or
è ķ
r al
é© ±
äºº å£«
çĥ ¤
å§ Ĩ
ç ¸
æķ ¬
Ġg reat
åı¦ ä¸Ģ
Ñ ģ
è½¬ æį¢
Ġl ast
æĦı åĳ³
åı¯ æĮģç»Ń
Ġp ass
èº« ä»½
åıĬ åħ¶
Ġs ent
ä¹¦ è®°
åĺ ī
ĠL e
æŀĦ å»º
éĺ² æŃ¢
èĭ Ĺ
å° ĺ
é ī
ç»Ļ æĪĳ
Ġb ased
éº ¦
ä¸°å¯Į çļĦ
ä¼ į
T o
åģļ åĩº
è§Ĥ å¯Ł
Ġm ight
it ions
æİ¥ è§¦
åıĮ æĸ¹
æİ¨ åĩº
math b
s c
ä»į çĦ¶
ate g
æ §
ç¥ Ŀ
åıį é¦Ī
åĵ ¡
E x
å¥ ı
å¹ ¼
an e
èĶ ¬
åľ¨ äºİ
æ¯ «
ĠAn d
å¥³ æĢ§
èĩªåĬ¨ åĮĸ
Ġg ra
Ġcon d
ç¥ ĸ
èį ·
è° ģ
çĽĳ æµĭ
Ġv is
å¢ ¨
ä¸ª æľĪ
o int
åı¯ éĿł
å·ŀ å¸Ĥ
èµĦ æľ¬
è¦Ĩ çĽĸ
åıĤ æķ°
åĪĨ å¸ĥ
I S
å½¢ è±¡
éħį ç½®
3 9
åľ° åĿĢ
èµ ŀ
Ġad v
æº ¶
ver t
Ġc ost
Ġth ose
èĤ Į
Ñ Ģ
å¯¹ è±¡
å®¶ éķ¿
è®¤ è¯ģ
åĨľ æĿĳ
æ¸¸ å®¢
iv id
åį Ģ
ou se
éī ´
åĮħ è£ħ
Ġw ater
åķĨ åĬ¡
èī ¾
æĦŁ æŁĵ
åŃ¦ ä¼ļ
åķ ¡
æ¥ ļ
201 4
é ŀ
v es
Ġme an
ä¾ Ĩ
åľ¨ è¿Ļä¸ª
à ¸
Ġke y
èĳ£ äºĭ
å½ »
ant s
æ°ĳ æĹı
è´¸ æĺĵ
åĬł å¿«
Y ou
åĲĦ ç±»
æĸĩ åŃ¦
ãĢĭ ï¼Ī
çļĦ æķ°æį®
ï½ ŀ
n ess
b y
3 7
w ays
us s
m a
èĽĭ çĻ½
æ³ķ éĻ¢
Ġw rit
Ġpro f
åħ¬ åĽŃ
æŁ¥ è¯¢
ä»¥ä¸ĭæĺ¯ ä¸ĢäºĽ
ä¹ ı
è®© äºº
é«ĺ éĢŁ
æŁ Ķ
åħ± äº«
å¯ ¸
çļĦ ä¸Ģä¸ª
èİ ±
å·® å¼Ĥ
è´ ¯
æĬ µ
ä¼ Ł
Ð¾ Ð
ä¸į è¶³
æ¡ Ĩ
çļĦ åŁºç¡Ģ
ä¸Ģ å¹´
Ġ ide
ä½ł ä»¬
em s
åĴĸ åķ¡
åĲĦ åľ°
æ³ ī
è± ª
Ġ >
äº ¡
Ġor ig
æī¿ æĭħ
Ġmult i
åĢ ¾
ä¼ł æĴŃ
g est
m an
è®¤ çľŁ
çŃī æĸ¹éĿ¢
ä¼ ¯
çİ© å®¶
åĸ ·
è¿Ĳ çĶ¨
20 00
åĩ ¡
å£ ģ
âĢ¦ âĢ¦
Ġare a
çľ ł
åĪ¤ æĸŃ
éĤ Ģ
åģ ¿
å¾Ģ å¾Ģ
Ġar ound
at ic
çº ¤
æ± ¤
é¢Ħ è®¡
èĬĤ èĥ½
in u
A l
äºº çī©
at ch
Ġle t
éĽ »
æµ Ļ
å¤© çļĦ
ç¾İ ä¸½
æĶ¹ è¿Ľ
æ· ¡
ar ly
ä½ĵ çİ°
æµ ®
æĹ¥ æľŁ
å²Ĺ ä½į
$ .
æĦıåĳ³ çĿĢ
å¼º åº¦
å® ¾
åŃ¦ æľ¯
åĪ Ĭ
ä¸Ń å°ı
æ¸ħ æ´ģ
Ġst ill
ĠThe re
it al
å¤Ħ äºİ
è®¿ éĹ®
3 00
or n
æ¶ µ
èĩª ä¸»
our ce
âĦ ĥ
æľī ä»Ģä¹Ī
å®Į æķ´
è´· æ¬¾
ç»Ħ åĲĪ
Ġwith out
æ¸ħ æĻ
å®ĺ æĸ¹
ä¸Ģ åĲį
çļĦ æĬĢæľ¯
ä¹ ³
Ġdis c
å¹¸ ç¦ı
6 5
è§Ĵ åº¦
is hed
Ġb r
æĢĿ ç»´
Ġs ing
ä¸» åĬ¨
éĹ®é¢ĺ çļĦ
Ġt ry
éĵģ è·¯
åĲ¯ åĬ¨
åĩ Ń
åľ° äº§
i um
æļ Ĥ
æĢ» ä¹ĭ
ç£ ģ
æľº çļĦ
Ġt em
Ġdet ail
' re
b e
éĹ ²
å¹¿ å¤§
çļĦ ä¿¡æģ¯
Ġen ergy
æİĴ æĶ¾
Ġty p
Ġ1 1
æľĢ æĸ°
ä¸ ģ
çĤ ī
å·¥ä½ľ çļĦ
I N
å±± ä¸ľ
çº ¹
éĢ »
æļ Ĺ
çı į
åĨį æ¬¡
our s
èĦ ¸
æĭ ¼
ail able
æĸ ĳ
l ish
ivers ity
é¸ Ł
è´Łè´£ äºº
éĶ ģ
æ¬§ æ´²
å§ ĵ
åħ¬ å¸ĥ
æĢ ķ
ãĢĭãĢģ ãĢĬ
çĶŁ çļĦ
Ġd uring
Ġl ife
æ¯ı ä¸ªäºº
çĽ¸ äºĴ
\ [
ç¾¤ ä¼Ĺ
å°Ĩ åľ¨
ä¸ ¹
è½ ¨
] ,
åĪĽ æĦı
èī² çļĦ
cri pt
Ġr ange
çĵ ¶
å² ¸
Ġinte rest
çļĦ éľĢæ±Ĥ
éĺ² æİ§
åħ¬ ä¼Ĺ
åĲĪ éĢĤ
åįĬ å¹´
çķ ħ
è£ħ é¥°
è®© æĪĳä»¬
åĸ Ŀ
Ġf ree
if ied
æĿ Ĩ
è¿ħ éĢŁ
av a
O N
å¦ ĩ
ç¯ ®
æĪ ´
Ġp op
çĮ ª
ä½ľ èĢħ
201 3
åŃĲ çļĦ
Ġte am
è´¢ æĶ¿
åıª èĥ½
éģ Ń
éŃ Ķ
Ġo pen
åĽ¾ åĥı
å¨ ±ä¹Ĳ
Ġpro ject
Ġpl ace
æľ¬ èº«
éĺ ´
èĸ Ħ
r ite
æĻ ¶
im ate
æĪĳä»¬ éľĢè¦ģ
æ® ĸ
ä¸º æĤ¨
çŃ ¹
çĻ Į
è¯ķ éªĮ
Ġinclud ing
ç« Ł
Ġth ough
èĴ ¸
çļĦ åľ°æĸ¹
åĬĽ åĴĮ
æ° Ľ
å¤ļ æł·
è ¼
ä»¥ ä¾¿
åĳĪ çİ°
a red
èģ Ĭ
éĵ ľ
Ġp at
èĤ¡ ç¥¨
å¼ Ł
åĭ Ĵ
sq rt
çĶµ èĦĳ
è£ Ĥ
éģĩ åĪ°
pl es
èĶ¬ èıľ
Ġp ower
et er
æ¸ łéģĵ
6 4
lo y
w ork
æı Ĵ
l ess
å¤§ ä¼ļ
ĠThe y
Ġequ ation
èİ «
= =
æľĪ ä»½
res ult
Ġd el
æĳ ĺ
ĠT r
ĠO n
çģ °
ri end
iv es
Ġsa id
W hat
Ġp ur
è¯ ¸
C h
201 2
æ¯ı å¹´
ang u
l ist
ä¿ Ħ
åį³ åı¯
æĽ ¼
å¹´ é¾Ħ
od y
æ¼ ı
è ¹
{ "
c d
ĠP l
ĊĠĠĠĠ ĠĠĠĠĠĠĠ
m e
æ²» çĲĨ
çĶŁ éķ¿
a j
ir on
## ##
i or
åĭ ¤
å¹¿ ä¸ľ
åį³ ä½¿
ç¬¬ åĽĽ
å¼ķ å¯¼
Ġbus iness
ä¸Ĭ åįĩ
æĸ° åŀĭ
è¶³ çĲĥ
Ġc are
Ġval ues
Ġ1 4
å¹¶ åľ¨
et y
éĢĤ å½ĵ
çĽ¸åħ³ çļĦ
ä¹ĭ å¤ĸ
æĺ¯ çĶ±
æľī ä¸Ģä¸ª
ith m
å¥¹ çļĦ
s h
åıį æĺł
ä¸¾ è¡Į
Ġle vel
éĢ» è¾ĳ
ç´ «
Ġposs ible
æī© å¤§
ĠS o
ä¸į åĪ°
ä¿¡ åı·
Ġcomm un
çī¹åĪ« æĺ¯
èĪĴ éĢĤ
Ġst ruct
å¤§ éĩıçļĦ
éĩį åºĨ
æľī æľº
Ġb re
å¦Ĥæŀľ æĤ¨
I t
iqu e
éļĲ ç§ģ
çĶ ľ
çĽĳ æİ§
Ġte xt
æī °
ert ain
1 000
æ³¨ éĩį
æ»¡ æĦı
Ġ er
Ġl og
ä¸ ¦
7 8
åī ©
åĲĮ æł·
ä¼ļ è®¡
ĠP h
ĠE n
Ġin c
å°¤åħ¶ æĺ¯
åħ ģ
åĬŀ çĲĨ
åħ¬ è·¯
Ġunder stand
Ġc ustom
åĩº çīĪ
åĳ¼ åĲ¸
è§Ĩ è§ī
æĦŁ è°¢
æ·· åĲĪ
å¹´ ä»£
le t
åħį è´¹
åĽĽ å·Ŀ
è° ĵ
ä» ¿
ĠT e
æī £
ĠA r
Ġh im
åĿ ¦
è° ±
è¶³ å¤Ł
ä¼ ¸
ĠE ng
çŁ¥ åĲį
åįı è°ĥ
å°½ ç®¡
åģ ¶
v ent
è§Ĥ çĤ¹
çĶ ĺ
ä»¤ äºº
èĻ «
m b
åĿ Ľ
éĢļ ä¿¡
ver se
Ġch ange
Ġdet erm
Ġgr oup
éĢ Ļ
èĢĮ è¨Ģ
åĲ ´
Ġl ess
: **
ut ions
Ġbu ild
çļĦ æĸĩç«ł
çĽ¸ å½ĵ
p i
ition al
å°ı ç»Ħ
ä¸Ģ å®¶
è¿ĺ åı¯ä»¥
Ġ vers
éĿĴ å¹´
åŃ Ļ
ç»ı åħ¸
æ¦ ľ
ĠB ut
åĲĦ ä¸ª
é«ĺ æł¡
b r
å¿ Ļ
en se
st r
ro l
ä¸Ģå®ļ è¦ģ
åĮ ¹
çĶµ åĬĽ
æįŁ å¤±
ç»Ļ äºĪ
ĠP ython
Ġim p
Ġ2 5
å¾® ä¿¡
å¯ Ĵ
æĺ¾ èĳĹ
åĿ ¡
èħ ¾
æĪĲ äºĨ
Ġav ailable
é«ĺ çº§
Ġh y
éĥ ĳ
çĻ» è®°
ä» ģ
Ġl im
l ing
åĪĨ éħį
å®ļ ä½į
å¹² éĥ¨
æĴ ĳ
å² ©
çľŁ çļĦ
æľī å¾Īå¤ļ
201 0
åľ¨ è¿Ļ
æĸĩ åŃĹ
Ġob ject
ĠA meric
m in
æĻ¯ åĮº
ä¿® æĶ¹
cc ess
å¤ĸ éĥ¨
ç¬¬ åįģ
è¯ģ åĪ¸
å¸ĥ å±Ģ
åĪ© çĽĬ
Ġty pe
Ġl ight
ä¸Ģ ä»½
å¾· åĽ½
å®¤ åĨħ
åŃ¦çĶŁ çļĦ
éģĵ å¾·
æ® ĭ
èĦ ī
èŀį èµĦ
Ġis s
ac es
Ġfe w
Ġin put
æ±Ł èĭı
Ġapp lic
ç»´ ä¿®
çļĦ æ°´
Ġch ild
s um
æ£® æŀĹ
$ ,
åĪĨ åŃĲ
ä¸į éĶĻ
è¿Ķ åĽŀ
t ain
éĺ³ åħī
å¼º åĮĸ
éĢĲ æŃ¥
å¹ »
çĶµ åĬ¨
èĳ ¡
A S
çļĦ åºĶçĶ¨
èĬ ¯
Ġcomp ut
Ġs ince
a pt
æĿ¥ çļĦ
åĪ Ģ
å¹³æĸ¹ ç±³
ä¸ĭ åįĪ
9 5
ä»¥ åĲİ
è¿ĳ å¹´æĿ¥
Ġg ive
èļ Ģ
è» Ĭ
æĢģ åº¦
æ¸ħæĻ °
çģ Ń
ç®Ģåįķ çļĦ
Ġre st
ver age
éħį åĲĪ
æĹ ¦
Ġche ck
æľīæķĪ çļĦ
Ġme as
æģ Ĳ
com m
n ot
è¡¨ æĺİ
æİĴ åĲį
ä¿ Ĺ
å¹¿ å·ŀ
Ġlar ge
æīĭ æ®µ
Â °
æµ· æ´ĭ
æĤ¨ åı¯ä»¥
w ord
è¡Į æĺŁ
éĵ º
æĦ Ī
éļ Ĩ
Ġ$$ \
åİĤ å®¶
ä¾Ŀ æ³ķ
æ´ ª
Ġimport ant
èĥ ĥ
Ġp ri
Ġf ile
åĨ Ĵ
æĭ Ķ
å®£ å¸ĥ
æĽ´ æĺ¯
Ġwith in
Ġm ov
Ġs ay
åĬ¨ æĢģ
å¦Ĥ ä»Ĭ
çİ¯ èĬĤ
æľī è¶£
' m
ĠU s
è¢ ĭ
8 8
a ut
éĤ ¦
çĭ¬çī¹ çļĦ
Ġsp ace
un d
ä¸ĵä¸ļ çļĦ
om eth
ä¸´ åºĬ
pl ic
å§ĭ ç»Ī
Ġm us
Ġha pp
o ard
æīĢ åľ¨
Ġm ax
èŀ º
o ver
èĩ³ å°ĳ
çīĪ æľ¬
æĶ¾ åľ¨
èĥ½ éĩı
æĭĽ èģĺ
éĻ ·
éļ¾ ä»¥
çļĦ æĥħåĨµ
ĠW hat
n ame
æ³ķ åĽ½
æµĻ æ±Ł
çī© åĵģ
ç² ĺ
ç¢ į
ometh ing
ãĢĤ ï¼Ī
Ġor gan
E S
é¤Ĳ åİħ
å°Ĭ éĩį
ĠS p
6 6
äº ķ
è· ĥ
äºĭ æķħ
èĪ į
çģµ æ´»
è¸ ª
èĦ ı
Ġb ook
èī¯ å¥½
èģĮ å·¥
æī İ
Ġcor rect
0 5
Ġre ally
Ġal ways
éĩĮ çļĦ
ç¤º ä¾ĭ
um e
ç±» ä¼¼
çĪ¶ æ¯į
4 9
ä¼ĺ åħĪ
ç¢ İ
åĲĦ é¡¹
éªĮ è¯ģ
å¯¹ æĸ¹
c ur
çļĦ åĲĮæĹ¶
I T
èĬĤ çĽ®
åĲį åŃĹ
er y
åįļ å£«
å±ķ çİ°
ĠC ol
ç¾İ é£Ł
ç¼ĸ åĨĻ
åľ° ä½į
èĩª è¡Į
Ġpro b
w are
Ġs chool
æľī äºº
çªģ åĩº
éķ ·
Ġcre ate
8 5
I P
äºĭ é¡¹
å° į
Ġto o
ä¸Ń æĸĩ
Ġv ol
çļĦ å¥½
re en
å¤§ æķ°æį®
æ±¡ æ°´
å°± åı¯ä»¥
åĩł ä¹İ
Ġcomm on
æĥ³ æ³ķ
ç¾İ çļĦ
ä¸Ģ èĩ´
7 7
åĽŀ æĶ¶
ĠHow ever
éĶ »
è· Į
å¤© çĦ¶
ĠT o
éĥ¨ ç½²
åħ¬ åĳĬ
åħļ åĳĺ
èĲ Ħ
Ġch ang
å° ¿
o le
æĪª èĩ³
åĪ ĳ
ç¡® è®¤
201 1
æ¨ ª
ç¼ ´
é¦ĸ æ¬¡
è½¬ åŀĭ
åľ¨ ä¸ŃåĽ½
çĶŁæ´» ä¸Ń
c rib
æ³ ½
çĩ ¥
å°ı çļĦ
éĻ ¶
èĳ¡ èĲĦ
at t
æķ ¢
èµ µ
Ġacc ess
çĪ± æĥħ
Ġre du
F or
Ġcomple x
I D
å°Ĩ åħ¶
å¿ĥ çļĦ
åĩ ī
åı¬ å¼Ģ
end ing
p y
æŁ ±
åĲĮæ¯Ķ å¢ŀéķ¿
Ġs qu
åĽº å®ļ
ĠB e
çļĦ ä¸»
è£ħ ç½®
ä¹ Į
ĠI s
çļĦ å®īåħ¨
ï¼ ħ
ä¸ĵ æ³¨
çĲĥ éĺŁ
ç»ĥ ä¹ł
åģļ åĪ°
ä¾Ŀ æį®
ç¤º èĮĥ
åĶ¯ ä¸Ģ
çļĦ ä¼ģä¸ļ
ç»Ĩ èĬĤ
æ» ´
ress ion
Ġbet ter
4 4
å® ĭ
it le
éĸ ĭ
èµ ģ
å£ ®
åĵ ²
è¿ ģ
id es
æłĩ å¿Ĺ
in a
Ġs it
oo ks
ç§Ł èµģ
Ġan other
æ³ µ
Ġme ans
Ġg row
æĹ¶ çļĦ
ic le
ç¨ ¿
ä¸Ģ åĪĩ
æĬ ¢
ç¾ Ĭ
åħ± åĴĮ
äºĭ å®ŀ
ab les
çº¿ ä¸Ĭ
æ·± åĪ»
çĲĨ æĥ³
feren ce
ç½ĳ ä¸Ĭ
å® ı
os s
} ,
åĬł ä¸Ĭ
çļĦ ä½¿çĶ¨
Ġt imes
çļĦä¸Ģ ç§į
è» į
Ġen g
Ġrep resent
à ¤
ä½ľ ä¸ļ
èĢĥ çĶŁ
Ġp ot
at s
Ġcomp any
åħģ è®¸
Ġsol ution
ar r
åŁ ĥ
Ġv iew
å¿« ä¹Ĳ
æ© Ł
p art
ag n
å¿ ł
: //
re t
éĺŁ ä¼į
or ld
æĪĲ åĪĨ
Ġe t
éĽ ķ
Ġst ring
s et
æĺ Į
ä¿¡ çĶ¨
æµģ éĩı
ul ation
o id
im um
ä¸Ģ çĤ¹
åıĳ çĶµ
çļĦ å¿ĥ
ang le
Ġkn own
er ing
æł ı
ĠS te
å¿Ĺ æĦ¿
åķ Ĭ
Ġle ft
Ġcall ed
äººæ°ĳ å¸ģ
c al
èĭ± æĸĩ
éĢĤ çĶ¨äºİ
åĲĮæĹ¶ ä¹Ł
4 6
ä¼Ļ ä¼´
èĻļ æĭŁ
Ġc ap
è¿Ļ æ¬¡
åı ĥ
æµĭ éĩı
å¯» æ±Ĥ
Ġ ident
re am
éĤ® ä»¶
im al
è¯Ń éŁ³
åĮĸ å·¥
Ġra d
Ġs omething
ç¡® å®ŀ
äºº æķ°
um n
æľŁ çļĦ
å°ĳ å¹´
ä¸Ģ ä½ĵ
åĮ Ģ
åĬ¨ ä½ľ
Ġ1 7
hem at
Ġcon ne
ç®Ģ ç§°
çĵ ·
ç¼º ä¹ı
çī© çļĦ
å¯¿ åĳ½
æľº åľº
åľ° çĤ¹
åŃĹç¬¦ ä¸²
Ġo ld
ç« ¹
Ġne xt
è¿Ľ åı£
Ġof ten
åº¦ åĴĮ
U R
ä¼ ı
ä½¿çĶ¨ çļĦ
ç§ Ĵ
æ¬ £
æ¢ ¯
m y
Ġmon th
Ĩ Ĵ
ä¸į åĨį
å°ı è¯´
çĤ Ń
ä¸¤ ç§į
åİŁ çĲĨ
çļĦ åħ³éĶ®
åŃ ķ
è®° å¿Ĩ
l ight
æĶ¶ çĽĬ
æľŁ å¾ħ
å Ĺ
æľī äºĨ
Ġl ength
æĬ ±
å¿ ½
æĹ¶ å°ļ
Ġre ce
Ġ1 3
è®º æĸĩ
åı¥ è¯Ŀ
âĢĿ âĢľ
æľªæĿ¥ çļĦ
æĮĩ æķ°
A C
æĬ ĳ
ot t
èĲ¥ ä¸ļ
æ°Ķ ä½ĵ
åºĶçĶ¨ äºİ
çĽ Ī
å® ħ
re qu
éĥ½ åľ¨
æĶ¾ æĿ¾
è®¾ ç«ĭ
èī² å½©
s elf
Ġf ield
ä¸Ĭ ä¸ĭ
è¿ «
ffic ient
å¼Ĥ å¸¸
E T
é¢Ħ ç®Ĺ
ç¼ĸ è¾ĳ
çĶŁ ç´ł
itt le
çĲ ´
éĩį å¤į
åįķ è¯į
Ġb as
å¼º çļĦ
æĶ¹ éĢł
è¯ģ ä¹¦
ä¸ĵ åĪ©
Ġstand ard
} $$
è®© æĪĳ
å¸Ĥåľº çļĦ
Ġcomple te
ĠIn d
A N
ãĢĭ ãĢĤ
èı ²
å®¶ å±ħ
Ġpl an
å®ŀ æĹ¶
iv ity
åŃ£ åº¦
Ġh um
Ġw on
é¢Ĩ åħĪ
åĵģ ç§į
å£° éŁ³
èĻ İ
ç´ł è´¨
æĪĳ ä¼ļ
ol ution
Ġpoint s
åŁº åĽł
èĩ´ åĬĽ
æĪĲ éĥ½
å¾ Ĳ
çĿ¡ çľł
çº¤ ç»´
æİĴ åºı
æ¸ħ æ´Ĺ
æĢ» æĺ¯
çļĦ æľįåĬ¡
Ġp rom
è¿Ļ ä¹Ī
Ġhe alth
æĪĲ å°±
ä» ĵ
æī «
éĸ ĵ
æĶ¯ æĴĳ
èĤ¯ å®ļ
åĬł éĢŁ
Ġn et
Ġserv ice
Ġfe el
æĩ Ĥ
åħ¶ æ¬¡
çº ½
å¤§ éĥ¨åĪĨ
æĪĲ çĨŁ
Ġcom b
åį± éĻ©
å¤§å¤ļ æķ°
ï¼Į ãĢĬ
Ġp resent
çī¹ æĢ§
ï ¿
p loy
åĻ¨ çļĦ
åĬł å¤§
å¼ķ åıĳ
Ġspec ial
åĴĮ åħ¶ä»ĸ
Ġd ri
ul a
Ġo cc
åľº æīĢ
çł´ åĿı
åħį çĸ«
å½ ¼
rac k
ys is
æıĲ éĨĴ
0 1
è¡Įä¸ļ çļĦ
èĤ ¿
è¿ĳ æĹ¥
Ġp ublic
ä¸» æĮģ
éĶ Ī
è¡¨ æ¼Ķ
ä¸Ģ å®ļçļĦ
Ġsu re
çİ Ľ
v iron
A s
è Ŀ
ĠC an
æ²³ åįĹ
Ġd em
å· ¡
ĠO r
Ġc our
æıĲ åīį
Ġ )
Ġcons ider
è¾ħ åĬ©
æ¡ Į
Ġke ep
w w
éĢ ²
â ĳ
åĲĪ æł¼
çļĦ çĥŃ
é© »
åĨĻ ä¸Ģç¯ĩ
äº¿ ç¾İåħĥ
æĤ ²
ĠG r
äºĭ æĥħ
è´Ń çī©
ater ial
åĪº æ¿Ģ
ç· ļ
å¾ Ĵ
ç´¯ è®¡
Ġr andom
è¾ Ľ
æīĵ å¼Ģ
i pp
oo gle
ä»£ çĲĨ
éĩĩ è´Ń
er o
å£ ¤
Ġab ove
b all
æīĭ æľ¯
æĹ¥ èµ·
t il
æĳ Ĩ
a i
am b
Ġgo ing
åħ·ä½ĵ çļĦ
éĩı åŃĲ
Ġfam ily
åĲ¸ æĶ¶
Ġim pro
ä¾ĭ åŃĲ
äºº åľ¨
æŃĮ æĽ²
l er
çı ¾
Âł Âł
t ime
è ĺ
ĠA pp
Ġresult s
Ġcharact er
en ces
è° Ĳ
è£ħ å¤ĩ
æ°´ æŀľ
u pp
Ġr ate
ä¾Ŀ èµĸ
ç²¾ åĩĨ
åĬŀåħ¬ å®¤
em ber
P ro
æĮ ĸ
7 6
åĲ Ľ
è½¬ åĮĸ
è°ĥ èĬĤ
Ġl ove
æĽ¾ ç»ı
å¤§ å°ı
æĿ ±
åıĳ è¡¨
æīĢ éľĢ
çĻ¾ åĪĨ
éŀ ĭ
åħļ å§Ķ
i ents
0 4
éĿ¢ è¯ķ
å¸¸è§ģ çļĦ
åı¯ä»¥ ä½¿çĶ¨
Ġmark et
æĭį æĳĦ
Ġth ings
æ¯ı ä¸Ģ
åı¯èĥ½ æĺ¯
æĻ ĵ
å± ¥
äºĮ åįģ
çĶ¨ æĿ¥
éĥ½ èĥ½
é¡º åĪ©
in ation
angu age
æ¡Ī ä»¶
ä¼ĳ æģ¯
Ġb lo
Ġgener al
åĪ¶ åĵģ
æİ¢ è®¨
Ġde v
ĠĠĠĠĠĠĠĠ ĠĠĠĠĠĠĠĠ
e ad
å¯ º
ri es
Ġhe ad
åĲį ä¸º
Ġinclud e
æ¨¡ æĭŁ
ä¿Ŀ æ¸©
çĵ ľ
åīį å¾Ģ
äºº çĶŁ
æł¡ åĽŃ
åĴĮ ç¤¾ä¼ļ
ä¿Ŀ åģ¥
ur y
Ġwe ek
æĭħ ä»»
Ġle ast
æĭ ľ
é» İ
é©± åĬ¨
ut es
Ġbe h
éĽĨ æĪĲ
ĠUn iversity
çĽ´ æĴŃ
åºĶ æĢ¥
æĪ¿ åľ°äº§
ĠU S
éĢı æĺİ
åĽ´ ç»ķ
æĪ¿ å±ĭ
h or
è®¸ åı¯
æ¬ ²
åĲ« æľī
æķ´ åĲĪ
g in
å®ŀéªĮ å®¤
Ġse ver
f ace
çĪ ¸
ç»Ļ åĩº
å®¶ åħ·
Ġh ist
= \
m at
çļĦ ä¸į
" "
éĶ» çĤ¼
c ing
äºº ä½ĵ
ent ion
lo ad
g or
s on
è «
æİ ĺ
å¤© æ´¥
æ¹ĸ åįĹ
) ãĢĤ
Ġl aw
ç§į æ¤į
200 9
è² Į
è¾ ī
ç² ®
çĽ´ åĪ°
çļĦ ä½ľçĶ¨
è½» æĿ¾
ç¤¾äº¤ åªĴä½ĵ
å¦ Ļ
ric t
æ¯ı ä¸Ģä¸ª
ï¼ į
ra w
Ġwor ks
ï¿ ½
Ġf ull
å¾Ī å¤§
ä»¥ ç¡®ä¿Ŀ
Ġ5 0
æĦı æĢĿ
u le
çļĦ åİŁåĽł
oc us
æ¡Ĩ æŀ¶
æ¢¦ æĥ³
çĦ Ĭ
Ġas k
è°¢ è°¢
ä» Ķ
è¾ £
èĥ İ
åħ± æľī
çĤ Ĵ
æŃ£ç¡® çļĦ
çħ ®
Ġorig inal
S o
é¡¾ å®¢
çº ł
s p
I C
çĲĥ åĳĺ
if t
f er
ĠF r
ä¸ĵ éĹ¨
è¯· éĹ®
Ġsim ple
9 8
çļĦäºĭ æĥħ
Ġloc al
Ġp res
çĽ¸åºĶ çļĦ
a pe
èĤ¡ ä¸ľ
äº§ æĿĥ
ä¸ī ä¸ī
) (
ä»ĸ äºº
æľī åĵªäºĽ
æķ°æį® åºĵ
é«ĺ æ¸©
åł ¡
åģĩ è®¾
æĬķèµĦ èĢħ
yth ing
ä¸» ç®¡
ä¾¿ åĪ©
æĭ Ĩ
æŀĦ æĪĲ
åħ±åĴĮ åĽ½
m s
å¦ »
åķĨ æłĩ
}{ \
è¿ĺ èĥ½
or th
ä¼Ĺ å¤ļ
Ġf riend
æĸ° èĥ½æºĲ
200 8
é«ĺ è´¨éĩı
m ed
Ġall ow
æĲŃ éħį
éĤĢ è¯·
åįļ çī©
Ġdist rib
p or
du ct
ib r
æī¹ åĩĨ
Ġo pp
as ter
çĬ¯ ç½ª
Ġsever al
5 8
Ġf our
å¤ĸ çļĦ
æ£ ĭ
ĠA d
ä¼ĺ æĥł
çł Ĥ
Ġ= =
Ġele ments
Ġsing le
é« Ķ
ra d
Ġinv ol
å®¶ äºº
æľ ±
Ġh ard
ä¹Ł åľ¨
èĢĮ ä¸įæĺ¯
çķ ª
} ^{
or ies
åĽ½ åĬ¡
ç¡ ķ
pl ace
v ious
è¡¥ åħħ
Ġp ract
çķ ¶
ä¼ļ åĳĺ
åįĹ äº¬
4 00
b ox
Ġre se
ir d
Ġ ï¼Ī
éķ¿ åº¦
èĩª æ²»
å±ķ è§Ī
ar ning
æ¤ Ĵ
åĳ¨ æľŁ
Ġtr ue
Ġm aking
éģ İ
ç¾İ å¥½
Ġexper ience
ĠQ u
Ġt able
éħ ±
ĠR es
å®ŀ åĬĽ
æµģ åĬ¨
Ġinte gr
çĺ ¤
ä¸Ĭ åįĪ
åı¯èĥ½ éľĢè¦ģ
æķ ¸
æľĢ å¥½
æĭĽ çĶŁ
çīĽ çļ®
ent ly
S E
e b
Ġg ame
æ¶Ī éĺ²
æĻ® éģį
è³ ½
at ures
åĩ ¯
è®¤ åı¯
ç¼ Ŀ
æİĪ æĿĥ
æł¹ æľ¬
Ġele ment
æĦı å¤§åĪ©
å® Ļ
å° ĸ
å¥ ī
ç»´ æĮģ
Ġc irc
ç«ĭ åį³
Ġd ue
ĠA I
éĶ ĭ
end ed
% ï¼Ľ
è¾ ĸ
Ġrec ord
åĻ ª
4 2
ĠS y
Ġdes crib
4 7
le y
Ġsu g
5 6
d is
èĩ³ ä»Ĭ
çļĦ æĥħåĨµä¸ĭ
is ed
æį ķ
ä¼ĺ çĤ¹
çļĦ åīį
å¦Ī å¦Ī
çĪ ¾
çĶŁ åŃĺ
åıĳ è¡Į
ä» Ļ
Ġs ide
A M
et ic
åī ²
æĢ» ä½ĵ
iv ed
ä¸ĩ äºº
æ¡Ī ä¾ĭ
å¹² çĩ¥
çĻ £
æīĵ åį°
äººå·¥æĻºèĥ½ æĬĢæľ¯
æĤ ¬
æĿ Ń
æ» ©
Ġser ies
èĩ´åĬĽ äºİ
ĠA ll
å¾Ī å¥½
æ¸ħ æ¥ļ
ĊĠĠĠĠ ĊĠĠĠ
iss ion
ä¼ļ ä¸Ĭ
å±ķ å¼Ģ
æŃ¦ æ±ī
å°½ éĩı
ĠCom m
å¤ļ æ¬¡
å¤ º
åľ¨ ä¸Ģèµ·
u ro
åĨł åĨĽ
éĢ Ĩ
å¤ļ åħĥ
éħį å¥Ĺ
Ġen s
ific ation
åľ° çĲĨ
å®ĥä»¬ çļĦ
Ġph ys
å§ Ĳ
Ġp ay
åĽ¾ çīĩ
Ġe ver
æľī æ²¡æľī
å®ļ åĪ¶
æĺ¯ ä¸ŃåĽ½
æĸ° åĨł
çĥ ¯
å¿ §
og raph
Ġinst all
æģ ĭ
ä¸»è¦ģ æĺ¯
Ġh ig
Ġt urn
å¤ļ å¹´
Ġs ize
çĤ ¸
åĽ½åĬ¡ éĻ¢
å®¶ çļĦ
Ġinv est
çī¹ å®ļçļĦ
ĠS he
æ° ¨
å°± èĥ½
ä¸Ģ æĿ¡
åħ¨ ä½ĵ
æīĢæľī çļĦ
åį ĵ
åħĪ åĲİ
d ate
ou d
è®¤ çŁ¥
O R
cd ot
C T
è¿ĺ è¦ģ
æ½ľ åľ¨
æ¡ ĥ
æ°Ľ åĽ´
æĿ ľ
ou th
åı° æ¹¾
å®¡ æŁ¥
m ing
æĹ ģ
viron ment
Ġ/ /
P S
ç½Ĺ æĸ¯
l u
z e
ä¸ļ ç»©
æľī åĪ©
i od
èµ ĭ
Ġd ays
æĸ° æĬĢæľ¯
Ġ\ )
åĩº çĶŁ
çļĦ åĨħå®¹
æŁ¥ çľĭ
Ġab le
æĦ¿ æĦı
éļı æĹ¶
an ces
Ġb ro
" .
åŃ ¤
åŃ£ èĬĤ
æıĲ äº¤
ä¸Ĭ æ¶¨
æ© ¡
gor ithm
et a
å¹¶ æ²¡æľī
æķĪ çĽĬ
ä¸ĵ é¡¹
Ġre port
åĵį åºĶ
ä¼¼ ä¹İ
æĹ¶ åĪ»
Ġcont ain
b al
ist ic
ä¾Ŀ çĦ¶
H ow
ĠS c
é«ĺ ç«¯
Ġl ittle
6 8
é½ ¿
åŃ¦ ä½į
le ction
å®ĩ å®Ļ
è¿ĩ æ»¤
åĮ» èį¯
å½± çīĩ
å®ŀ è¡Į
o ice
it ial
åĲİ æĿ¥
åł ´
æ² ĥ
ç»´ çĶŁç´ł
Ġcom e
ç®¡ éģĵ
åĳ¨ åĽ´
Ġstud ents
Ġl ow
ĠM an
r ist
one y
éĻĦ è¿ĳ
éĥ ģ
ple ment
Ġpos itive
å¾ ½
éŁ© åĽ½
åŃ¦ä¹ł åĴĮ
å¯¹ æīĭ
Ġbel ow
' ll
ä¿¡ å¿ĥ
ne w
os ed
feren ces
åľ¨ æŃ¤
ä½İ äºİ
Ġwh y
é«ĺ çŃī
ĠL et
oc ument
ä¸į çŁ¥éģĵ
He re
éģ ĭ
The re
äº ©
çİ° æľī
çŁ ©
ä¼¦ çĲĨ
é ¬
åĲĪéĢĤ çļĦ
0 8
it her
Ġsent ence
us h
Ġass ist
ä¿¡ ä»»
è®¾ å®ļ
ĠM ar
Ġp ut
åĽ¾ ä¹¦
ä½ı æĪ¿
çļĦ è¦ģæ±Ĥ
éĺ Ķ
åģ¥ èº«
ç¼ĵ è§£
Ġp ack
æİ¥ ä¸ĭæĿ¥
Ġin tern
Ġd iv
Ġwork ing
ç¶ ĵ
c hes
at ural
æ¨¡ åĿĹ
çļĦ çİ¯å¢ĥ
Ġm ar
æ± ģ
Ġterm s
4 3
éĢ ĥ
ç¬¬ ä¸Ģä¸ª
6 7
çł ĸ
å±Ĥ æ¬¡
çĶ³ æĬ¥
éķ¿ çļĦ
ie ve
Ġl a
èĸ ª
çīĽçļ® çĻ£
æĿĥ åĪ©
éĩĳ é¢Ŀ
Ġs elf
çħ§ çīĩ
äº ŀ
Ġex pect
ä¼ł éĢĴ
éģµ å®Ī
ä¼ļ æľī
è¿ĩ åº¦
ä¹Ł å°±æĺ¯
Ġm aterial
per ature
å¸¦æĿ¥ äºĨ
å¾Ĺ åĪ°äºĨ
c ol
ure d
èµĽ åŃ£
Ġal ong
Ġwe bs
ç§ ¦
æ£ Ĵ
æłĩ é¢ĺ
åł Ĩ
çī §
æĻ ¨
å·¨ å¤§çļĦ
o pe
Ġ es
() `
ur s
è¿Ŀ æ³ķ
æĹ¨ åľ¨
æĸĩ çĮ®
è¡Ĺ éģĵ
çļĦ åŁºæľ¬
èħ ¹
æĵ ¦
Ġneed s
ç½ ©
Ġev ent
Ġa ir
Ġout put
Ġfunction s
æıĲ ç¤º
ä»¥ åīį
çĶµ åķĨ
å¸¦æĿ¥ çļĦ
Ġpar am
çªģ çĦ¶
Ġre le
æĬ¤ çĲĨ
ä¸Ģ æĹ¦
å° ĩ
æľ¬ ç§ĳ
Ġam ount
å¤§ å¹ħ
çīĪ æĿĥ
åįı ä½ľ
Ġind ivid
e e
å°º å¯¸
éļı æľº
åİ ¨
ä¸» ä½ĵ
e y
ĠHe re
åĴĮ è°Ĳ
é£Ł çĶ¨
åįģ äºĮ
con om
çĨŁ æĤī
Ġrequ ire
æĻ ĭ
çļĦ æķħäºĭ
æĢ ª
æº ª
Ġsh ort
åĿĩ åĮĢ
Ġm ass
l ished
çļĦ è®¾è®¡
ï¼ī ï¼ļ
è¿Ľ å±ķ
ç¦» å¼Ģ
Ø §
å·¥ åİĤ
Ġpro te
Ð »
åį° åº¦
æĭ Į
æ¥ Ń
ç¯ĩ æĸĩç«ł
å¹¶ ä¸įæĺ¯
ĠP r
æĿ¥ åĪ°
ä¸ī å¹´
è¨ Ń
æĽ¿ ä»£
åħ¬ çĽĬ
ph a
ĠN o
Ġm il
èµ ¶
Ġex am
Ġwor ds
æ³ ³
åĮº åĿĹ
çĸ«æĥħ éĺ²æİ§
éª ĳ
il t
en n
al es
äººç±» çļĦ
9 6
æĽ´ ä¸º
å§Ķ ä¼ļ
è´« åĽ°
( '
Ġt ask
åĳĬè¯ī æĪĳ
Ġpartic ular
æ¼ Ĩ
è§Ħ å¾ĭ
è®© ä½ł
Ġappro ach
çĽ Ĵ
å£ ³
ä¼łç»Ł çļĦ
ore d
get her
Ġto gether
d ing
ar l
N A
å·¥ç¨ĭ å¸Ī
ra in
å·¥ä½ľ äººåĳĺ
Ġne g
Ġsystem s
Ġph ot
å¾Ī å¥½çļĦ
æľĢ å¥½çļĦ
çŁ³ æ²¹
ĠW hen
æħ Ī
äººæ°ĳ æĶ¿åºľ
æĭĵ å±ķ
ro p
èĤ ł
èģĶ çĽŁ
g es
çĶ¨æĪ· çļĦ
P h
å© ´
éĿ© åĳ½
æĺ ¨
è¿Ļ æ®µ
é¡¹çĽ® çļĦ
å¾ĭ å¸Ī
W h
a ction
æĬ «
Ġto ol
å¾Ī å¤§çļĦ
å» ī
åħ¶ å®ĥ
ĠThe se
Ġre view
åĲĮ æĦı
Ġsu ccess
èĮĥåĽ´ åĨħ
æį Ĳ
Ġquest ions
ä¿® å¤į
è®² è¿°
çĽ ¾
èĤ ª
éĽ¶ åĶ®
æł¼ å¼ı
æ£Ģ éªĮ
Ġsign ific
Ġ Â
st it
Ġserv ices
åľŁ å£¤
å¤ı åŃ£
èĦĤ èĤª
Ġ ...
ab ly
æķ°æį® çļĦ
Ġcont rol
iv al
æ¼Ķ åĳĺ
Ġpr ice
æĻļ ä¸Ĭ
å¤įæĿĤ çļĦ
æĤ ¦
èĩªçĦ¶ è¯Ńè¨Ģ
è´§ å¸ģ
S T
Ġc r
Ġar g
re l
æĪĲä¸º äºĨ
Ġprof ess
èħĲ èļĢ
Ġpot ential
Ġb ig
Ġs w
il ar
ä¼ĳ éĹ²
åħ¬ å¹³
Ġl o
è¿Ļä¸ª éĹ®é¢ĺ
åħ §
ç©º è°ĥ
\ ]
æŃ» äº¡
ä»ĸ åľ¨
å®ŀ ä½ĵ
æµģ è¡Į
æĢ» ç»ıçĲĨ
æĪ °
åįļçī© é¦Ĩ
å°± åĥı
é¢ ģ
æĭ ĸ
èĤº çĤİ
èĴ Ĥ
aj or
çĿ Ľ
æ¸ Ĺ
Ġapp ear
ren ce
Ġvers ion
éĶ ¦
Ġmat rix
æĪĳ åı¯ä»¥
èĢĥ æł¸
Ġ åĴĮ
åıĳ åĬ¨
éĽĨ ä½ĵ
éĿ¢ åĲĳ
ate ly
å¾Ī éļ¾
åºĶçĶ¨ ç¨ĭåºı
æĿĥ çĽĬ
å°ı åŃ¦
åİ ¦
åī ª
äºİ æĺ¯
èį¯ åĵģ
çļĦ çłĶç©¶
çī ¢
ur ther
è¿ Ł
Ġd ig
äºº åĬĽ
æİ¥ è¿ĳ
4 1
Ġon line
ä¸Ģ ç³»åĪĹ
åĲĪ éĩĳ
ç´§ å¼ł
ä½ ©
Ġun til
Ġl ot
åĢ ĳ
éĵ ¸
oc ial
æľįåĬ¡ çļĦ
Ġdef in
åĲĪ æ³ķ
åĩı è½»
R O
ar get
ent al
A B
å·¥ èµĦ
äººæ°ĳ åħ±åĴĮåĽ½
éĽ ¾
çľģ çº§
åľ° çļĦ
åĬĽ åº¦
åħ¬ å®ī
å¤± åİ»
Q L
çĸ ı
çº¢ èī²
æ¿Ģ åıĳ
ĠM at
çĥ ¦
ç¾¤ ä½ĵ
å¯Ĩ åº¦
å¿ħè¦ģ çļĦ
æ° ¢
æĹ¥ åīį
i us
ä¼¤ å®³
åŃ¦ åİĨ
çĪ± çļĦ
æĺ Ĩ
d a
æĢ§ è´¨
èĳĹ åĲį
èĤ Ŀ
è¯· æ±Ĥ
å»º æĪĲ
æī© å±ķ
Ġf ocus
ç§į ç±»
ĠA t
å¯ Ħ
Ġindivid ual
7 9
ĠY ork
Ġ ÃĹ
éļľ ç¢į
å® ł
æĻºèĥ½ åĮĸ
æĭ Ĵ
iv ing
5 9
é¢ĺ çĽ®
åı¯èĥ½ çļĦ
ä¸ĸçķĮ ä¸Ĭ
éĢī é¡¹
åĲ« éĩı
å®ŀéĻħ ä¸Ĭ
ap s
çļ Ĩ
æıĲä¾Ľ çļĦ
ive ly
æ¸© æļĸ
æı Ń
å£° æĺİ
ä¸ªæĢ§ åĮĸ
age ment
çİ¯å¢ĥ ä¿ĿæĬ¤
Ġ ì
æĺ¯ ä¸į
Ġen c
ä¸Ģ å¤©
å½ ¹
ĠAmeric an
æī ®
æķ° çļĦ
Ġ2 4
Ġar ray
ĠM ay
è³ ĩ
ð Ł
çĶµ æºĲ
lo se
ä½ł èĥ½
é¡µ éĿ¢
çļĦ èĥ½åĬĽ
è° ĭ
ä¸Ńåįİ äººæ°ĳåħ±åĴĮåĽ½
Ġex ist
æĳĦ å½±
åıĺ æĪĲ
åī ĳ
y l
Ġan n
æĶ» åĩ»
r ation
éĹ ľ
un ction
éĤ »
ç¬¬ä¸Ģ æ¬¡
ç¡ «
è¿ Ī
Ġle g
éĩĬ æĶ¾
é Ħ
Ġg ot
æĤ£èĢħ çļĦ
æµ Ĩ
) ^
and s
ar row
ä¼ł è¾ĵ
æµ· å¤ĸ
åĪ« äºº
å¹¼ åĦ¿
ill ion
é¤Ĳ é¥®
c m
our ces
åĨľ æ°ĳ
éĻ ª
è®¾å¤ĩ çļĦ
è£ħ ä¿®
on se
æŃ£ æĺ¯
im port
æĵ İ
è¿Ļ æĺ¯ä¸Ģä¸ª
å¸Ĥ æ°ĳ
æ Ĩ
al f
éķ¿ æĹ¶éĹ´
çģ Į
Ġs ort
om en
Ġre ason
Ġ- -
.. ..
Ġm ove
f rom
æµ ¸
ç´§ æĢ¥
åĬł çĽŁ
éĻ¢ æł¡
åĽŃ åĮº
çµ Ĳ
åĨ² åĩ»
å¤§ å¤§
èĥ ģ
oo se
å¤ĸ è§Ĥ
åĬł çĥŃ
Ġw in
ä¹ĭ ä¸Ń
ä¼ł æĦŁ
our n
eg in
ä¸į èī¯
im ens
ä¸Ģ æĺ¯
åİŁ æĸĻ
Ġspe ed
ĠW ith
Ġ âĢĶ
è·¯ å¾Ħ
å®Ŀ å®Ŀ
c er
Ġc ertain
Ġlook ing
Ġel se
Ġs ite
Ġacc ount
Ġg l
s ide
y m
æ³ Ħ
cl us
æ¯ı æ¬¡
çłĶç©¶ çĶŁ
um p
å¼ Ĺ
at ors
è®º åĿĽ
ä»ª åĻ¨
Ġagain st
C O
pe cial
çĹħ æĥħ
åĩł å¹´
åİ ĺ
æĻ¯ è§Ĥ
ä¸ī è§Ĵ
æ°ĶåĢĻ åıĺåĮĸ
èµ Ķ
Ġj ob
ä¼ļ åľ¨
U n
æĺ¯ éĿŀå¸¸
ĠO ut
un e
çĦ¦ èĻĳ
è¾ĥ å¤§
å¤į åĲĪ
ä¸ĭ è½½
æ» ļ
è¾ĥ ä¸º
çĶŁæĪĲ ä¸Ģä¸ª
g ed
å¦ ¹
åı¤ ä»£
åįı åĬ©
éĻ ķ
åĪ© çİĩ
st yle
ä¹Ł èĥ½
ç³ ķ
é»ĳ èī²
éĨ ĩ
æĹ¥ èĩ³
æķħ éļľ
åĪ° è¾¾
ï¼Ł âĢĿ
$ \
æŃ §
åĳ¨ è¾¹
åĩº åıĳ
ä¹ ĥ
æĪĸ æĺ¯
Ġne ver
éĺ Ģ
éģµ å¾ª
= "
åĽĽ ä¸ª
è¯Ħ è®º
ç¦» åŃĲ
Ġp red
le x
æŁ ľ
ç¡ ħ
å®¡ æł¸
æµ ¦
iv en
èħ Ķ
æ¹ĸ åĮĹ
æ¯ķä¸ļ çĶŁ
ä¸ŃåĽ½ çļĦ
ä»ª å¼ı
èľ ľ
åįģ å¹´
åıĤ è§Ĥ
æĹłè®º æĺ¯
Ġle arn
çĸ ²
åŁºç¡Ģ è®¾æĸ½
ward s
C l
ç² Ĺ
éĹ ª
äºļ æ´²
w h
åı¦ ä¸Ģä¸ª
èµ ł
å¼º å¤§çļĦ
ä¸Ģ ä»£
Ġf lo
èħ ¿
é¢Ħ æľŁ
ç¢ ĳ
ä¸ĩ åĲ¨
è¯» èĢħ
Ġem ploy
d ata
un g
å§ ¿
èĬĤ çĤ¹
æ¿Ģ åĬ±
åĨį çĶŁ
åİĭ ç¼©
Ġ\ \
çĶŁæ´» çļĦ
å¥ ĳ
Ġd er
éĥ¨ ä»¶
Ġt ell
7 2
A L
ä¿Ŀ çķĻ
a f
ï¼ģ âĢĿ
åĩº è¡Į
Ġstruct ure
ç¨ į
æĪ· å¤ĸ
åģľ æŃ¢
s in
ĠB l
æľ¬ ä¹¦
Ġ %
Ġqu ant
Ġro om
é¥ ¼
ind ows
al se
çŃī é¢ĨåŁŁ
éĩį éĩı
å¼º çĥĪ
ord ing
çĨ Ĭ
e le
äºĭ åĬ¡
åŁº å±Ĥ
b ook
åħħ çĶµ
S S
Ġa verage
ic ro
Ġto day
Ġm ot
é¥ ±
J ohn
æ°´ çļĦ
Ġal gorithm
èĥ Ĩ
P C
é¢ĳ çİĩ
é«ĺ ä¸Ń
é¸ £
ro du
æ» ¨
çľ¼ çĿĽ
æĸ ¤
Ġex act
ç»Ļ å®ļ
200 7
åĪ¶éĢł ä¸ļ
an ks
è° ¨
éĺ² æĬ¤
å¼ķ æĵİ
Ġcalcul ate
çĽ¸ ä¼¼
Ġf ood
åħ¨ çľģ
Ġ4 0
Ġper iod
å¾ ¡
Ġcon text
ĠD o
å¥ĸ åĬ±
Ġn orm
å²ģ çļĦ
M L
Ġm akes
Ġus er
æĻ® åıĬ
C om
ç¡¬ ä»¶
ä¿Ħ ç½Ĺæĸ¯
m od
åĲ ¹
it ing
åįİ ä¸º
èģĶ èµĽ
Ġbre ak
ver n
åĪĻ æĺ¯
åĮº åĪ«
å¨ģ èĥģ
ĠC ent
æħ İ
çļĦ è¿ĩç¨ĭ
Ġg re
Ġso ft
mathb f
in ary
t r
çĥ ĺ
å½¢ çĬ¶
æ· Ģ
æĴ ŀ
' ve
8 6
Ġde g
çİ¯å¢ĥ çļĦ
Ġqu ality
åĵ² åŃ¦
æĺ¯ çļĦ
æ¶Ī èĢĹ
æĳ ĩ
ç±»åŀĭ çļĦ
Ġsug gest
i ver
çľĭ çľĭ
b ra
èµĦ è®¯
ound s
æµª è´¹
b l
Ġp age
ĠW orld
æĲ ¬
ä¹¡ æĿĳ
æľīæķĪ åľ°
çĪ¶ äº²
èĽĭçĻ½ è´¨
è¾ĥ é«ĺ
åħ³éĶ® è¯į
æľį è£ħ
Ġc ell
Ġrel ations
c os
åį± å®³
id d
åĬ ²
æ² Ī
åŃ¦ èĢħ
Ġh ours
æ°Ķ æ¸©
ort un
Ġdoes n
éĵ¾ æİ¥
5 7
æ· ĺ
ä½¿ åħ¶
è½¦ åŀĭ
Ġb it
æĥ³ è±¡
Ġstud y
çºª å¿µ
ä»·åĢ¼ è§Ĥ
æ¼Ķ åĩº
5 3
æĪĳä»¬ å°Ĩ
Ġse qu
åĴĮ æľįåĬ¡
Ġdevelop ment
å¾Īå¤ļ äºº
) \
æ°¸ è¿ľ
E D
åĨĻ ä½ľ
read y
åĨ »
15 0
Ġle arning
! !
ä¸Ģ åľº
æĥ ľ
ç °
åħ¨ å¸Ĥ
äºĮ æĺ¯
çłĶç©¶ éĻ¢
èĢģ å¹´
åľ°åĮº çļĦ
æī¿ è¯º
Ġform ula
5 2
èĢ ¶
Ġl ab
åı£ æĦŁ
6 00
âĢĿ ï¼Ī
ep end
ä½ł å¥½
éĢļ è®¯
åĳ½ ä»¤
åĮºåĿĹ éĵ¾
I I
åıĺ éĩı
Ġme et
Ġind ust
ä» °
è¦ ĸ
ä½Ĩ åľ¨
ä¸Ń éĹ´
çº µ
åį³ å°Ĩ
çģ £
å®ŀçİ° äºĨ
Ġac ross
â Ķ
æµ ħ
ç¢ °
ä¸Ĭ äºĨ
Ġha ving
yn am
ä¸Ĭ åįĬå¹´
è¾ ŀ
çŃ Ľ
ä½ľ åĩº
æ²³ åĮĹ
è¾ Ĳ
æĻ¯ çĤ¹
æĳĺ è¦ģ
Ġprovid ed
I M
æľ µ
æŀ Ŀ
è¸ ı
Ġg raph
ç»Ŀ å¯¹
åŀ Ĥ
è¯ģ æį®
ç§¯ ç´¯
åĳ³ éģĵ
Ġeas y
Ġ Ã
åħ Ħ
ĠI m
Ġr is
G B
0 9
å¤§ çº¦
ãĢĭ ãĢĬ
ill s
æĪĺ äºī
O n
èĢĮ åľ¨
æµ ı
æ´» æĢ§
è°ĥ çłĶ
åĤ ¬
æĹł äºº
å¸¦ åĬ¨
Ġen vironment
ç«ŀäºī åĬĽ
Ġ2 2
ç¥ŀ ç§ĺ
ç§ĳåŃ¦ å®¶
de x
æĭĽ æłĩ
åıĸ åĨ³
éĤ£ ä¸ª
200 6
Ġconst ant
èµ¢ å¾Ĺ
ĠC ont
ç¥ ¥
Ġwebs ite
or ing
æ¸ ¡
å¤§ æ°Ķ
æĺŁ æľŁ
LE D
he l
id s
è¿ĳ æľŁ
E N
åĲį åįķ
ä¸» å¸Ń
æ·±åº¦ åŃ¦ä¹ł
çļĦ å¸Ĥåľº
æ¡ Ĥ
éļı åĲİ
äº§çĶŁ çļĦ
è·¯ çº¿
æķ´ çĲĨ
èĳĹ åĲįçļĦ
åıĸåĨ³ äºİ
Ġim plement
ne y
é»Ħ éĩĳ
Ġâ ĨĴ
è¯ļ ä¿¡
m ber
çī µ
g en
Ġd one
ç¨ Ģ
çĹħ äºº
B A
éĥ½ åı¯ä»¥
èĤ¡ä»½ æľīéĻĲåħ¬åı¸
æķ Į
ä¸Ń æľī
b egin
Ġw rite
Ġpa per
Ġsignific ant
ä¸Ģ è·¯
åĩĢ åĮĸ
) ãĢģ
ä¼ ½
in ks
åľ° ä¸ĭ
çĤ¹ åĩ»
å·¨ å¤§
Ġ2 1
ĠJ ohn
ä¹ Ķ
æµ ´
st ring
ç»Ī äºİ
éĴ »
Ġcour se
a ult
Ġproblem s
å¥ Ķ
éĥ¨ çļĦ
æ¯į äº²
Ġf requ
9 7
Ġd at
èģĮ è´£
æĹ© æľŁ
Ġp ain
æĳ ¸
Ġc rit
ou ble
è§Ħ å®ļçļĦ
ĠTh at
åĨ² çªģ
éĺ¿ éĩĮ
' :
éĢĤ çĶ¨
æĬķ æłĩ
u ck
Ġ âĢĺ
åĽ½åĨħ å¤ĸ
ict ion
5 4
æĺ¯ æľĢ
ut ure
æľįåĬ¡ åĻ¨
é¼ »
Ġp lease
Ġsqu are
ç¾İ æľ¯
Ġob s
åĲ Ĭ
æĪ Ĵ
å¤§ åĬĽ
åľ° éĿ¢
æĭħ å¿ĥ
Ġ ä½¿çĶ¨
ãģ ®
Ġrese arch
æłĩ çŃ¾
åĮĹäº¬ å¸Ĥ
X X
åıĸå¾Ĺ äºĨ
Ð º
Ġs at
æķ ¦
åı ī
æĸ° å¢ŀ
å¼Ģ åĲ¯
åĮº çļĦ
å¤§ ä¼Ĺ
èĢĮ ä¸į
æĶ¾ å¼ĥ
Ġar r
åľ¨ è¿ĻéĩĮ
åı ł
Ġf ore
Ġse lect
Ġwor d
t ies
æ¨ Ĥ
åģ¥åº· çļĦ
æķĪçİĩ åĴĮ
the ta
b it
Ġperform ance
Ġwe ight
çŁ¥è¯Ĩ äº§æĿĥ
0 2
æ· ĭ
ç¼ Ĩ
Ġdif f
å¤§ èµĽ
æķ° ç»Ħ
ĠM y
Ġqu ick
æĸĩåĮĸ çļĦ
Ġf low
Ġse arch
Ġdeterm ine
Ġn atural
á »
lo bal
æ´»åĬ¨ çļĦ
æĪĲ çļĦ
éļ Ĭ
Ġcont inu
Ġm ajor
20 21
çŃī å¾ħ
æĦ ī
åŃ©åŃĲ ä»¬
çŃī å¥ĸ
åĲĮ æľŁ
Ġun ique
è¾ ¨
An d
1 20
çŃī çº§
Ġl anguage
çĹħ ä¾ĭ
çĪ± å¥½
çī© èģĶç½ĳ
åį µ
åĨ· åį´
çĶ¨ éĢĶ
Ġproduct s
Ġdetail s
0 3
L et
as ing
ä¹Ł è¦ģ
u ff
ä¿Ŀ åŃĺ
Ġc ard
Ġal ready
åīį æĻ¯
æĪ¿ éĹ´
Ġgo vern
å¹¿ åľº
Ġrem ain
éĻ µ
èİ ī
è´Ł éĿ¢
äº§ éĩı
5 1
' )
i am
çº º
Ġequ al
èĬ¯ çīĩ
Ġm ach
Ġtrans l
Ġchild ren
ä¸į ç®¡
Ġmulti ple
T C
Ġ Âł
S h
ä¸Ń åŃ¦
çĭ Ĥ
mathb b
6 9
w here
ou ps
è© ²
it er
è¡Ģ ç®¡
, "
Ġf oot
æľ¬ åľ°
è½¬ åıĺ
åĴĮ ç®¡çĲĨ
C on
å¯¹ å¤ĸ
ç¸ £
6 2
Ġf ac
é ³
çĸ ¼
è¡ °
Ġvari ous
è´¯ å½»
m l
U S
åĢ ¡
éĥ½ ä¸į
Ġim age
è¯Ĺ æŃĮ
Ġdisc uss
ĠY our
c he
A pp
çļĦ é£İéĻ©
Ġs l
åĲ¦ åĪĻ
j oy
éģ ¸
åŃ©åŃĲ çļĦ
çĸ Ĩ
æĺ¯ä¸Ģ å®¶
num bers
æĪĳ æł¡
åĽŀ åĪ°
é¡º åºı
èĩªçĦ¶è¯Ńè¨Ģ å¤ĦçĲĨ
å½ °
Ġst at
äº¤ æį¢
è¥¿ å®ī
Ġ201 8
ç¬¬ äºĶ
Ġcon c
åŃĹ æ¯į
ene f
Ġmus ic
os p
ãĢĤ ãĢĬ
il ities
å¯¹ åºĶ
å®ŀ çĶ¨
éĩĮ éĿ¢
Ġl ater
æµı è§Ī
æİ¥ æĶ¶
è¿ĺ ä¼ļ
Ġmin utes
Ġl at
Ġm om
äº¤ äºĴ
C D
å¼ķ é¢Ĩ
Ġm ess
èĬĤ çº¦
e red
èĢ Ģ
å¾Ī æľī
å°Ĩ äºİ
é£ŀ æľº
ç±» åĪ«
æīĢ è°ĵ
çľŁæŃ£ çļĦ
å¼ ¯
è® ¼
è¾ ½
æīĢ å¾Ĺ
Ġd om
ç¢ ±
Ġper fect
èĵ Ħ
Ġb ase
Ġm oney
é¢ Ī
è¯ ±
Ġf r
åĬ¨ çĶ»
åĲĮ ä¸Ģ
ç¡ķ å£«
åıĸ æ¶Ī
æĲ ħ
æĢİ æł·
Ġsim ilar
Ġf inal
ä½¿ åĳ½
äºĳ åįĹ
æĸ ľ
åĮ¹ éħį
Ġp ie
å¯¹ æŃ¤
Ġ201 9
çĶµ åĻ¨
æľĢ ä½İ
åħ¸ åŀĭ
èī °
é¼ ł
et ers
é¦ ¬
Ġsu per
Ġ6 0
å±ħ ä½ı
ä¸Ĭ éĿ¢
èĬĤ å¥ı
æģ °
ru ction
c le
çĩ ķ
èĢģ äºº
an a
og n
çĻ½çĻľé£İ çļĦ
: :
è¿ĺ éľĢè¦ģ
åĬ ĩ
ĠA ss
Ġanal ysis
Ġb ody
T r
æķĪ åºĶ
ä»¥ä¸ĭ åĩłä¸ª
åıĳ æĺİ
åīį çļĦ
æĽ´ æį¢
Ġk ind
å±¥ è¡Į
ä¸Ģä¸ª äºº
å« Į
åľ¨ åĮ»çĸĹ
æľī æĹ¶
æķı æĦŁ
Ġstr ong
æĮĩ å®ļ
åıĳ çĹħ
å¯¹ æ¯Ķ
Ġex ce
æıĲåĩº äºĨ
on es
ä½ı å®ħ
ĠUn ited
ä¼łæĦŁ åĻ¨
Ġa way
åı¯ æĺ¯
è½¬ ç§»
çĶ¨ åĵģ
æľº éģĩ
çļĦ çĽ®æłĩ
åĩ ¤
Ġab s
æ¼ Ĥ
Ġen ough
çĥŃ æĥħ
å¼ķ åħ¥
Ġin itial
æľ¬ æĸĩ
èµĽ äºĭ
Ġl and
ib ility
åľ¨ å®¶
Ġpos ition
Ġind ic
ar ing
åıĹ æ¬¢è¿İ
å®Į ç¾İ
æĿ¥ äºĨ
åıĳ éĢģ
ä¹ī åĬ¡
è¯ī è®¼
å¯¼ æ¼Ķ
åĨ³ èµĽ
ä»¥ä¸Ĭ çļĦ
éĥ¨ ä½į
çº¿ è·¯
ç»Ļ ä½ł
Ġh ouse
ä¾ĽåºĶ åķĨ
å½ĵ ä¸Ń
ĠS chool
æĪĸ è®¸
å®ĥ æĺ¯
éĢı è¿ĩ
èĳ£äºĭ éķ¿
P P
Ġe ither
Ġcomp et
åįı åĲĮ
æĳĦ åħ¥
Ġcan not
Ġ å°Ĩ
éĢļ éģĵ
åĪ ł
è¾Ĳ å°Ħ
< /
è¿ĲåĬ¨ åĳĺ
Ñ ĥ
Ġ ver
é«ĺ äºİ
å½± åĥı
Ġwhe ther
å¨ ľ
çļĦ éĢīæĭ©
å¸¦ é¢Ĩ
Ġl ower
res p
è¿Ļ ç¯ĩæĸĩç«ł
ä¿¡æģ¯ åĮĸ
Ġcond itions
p ly
or ks
èĲ¥ éĢł
çļĦ åİĨåı²
å¤ªéĺ³ èĥ½
å¹´ åºķ
ç¨ ®
æĦŁ æĥħ
çĻ½ èī²
Ġsol ve
Ġp ress
å¯ ĵ
æ©¡ èĥ¶
å§ ľ
èĭ± éĽĦ
å¾Ī é«ĺ
æ» ĭ
å¼ķ è¿Ľ
çłĶç©¶ æīĢ
è¯ķ çĤ¹
è¨ Ī
çķĻ ä¸ĭ
id ence
op y
Ġfe atures
ç¨³å®ļ æĢ§
200 5
æ° ¯
åĬŁ çİĩ
æĹ¥ çļĦ
Ġcont ent
è®¢ åįķ
Ġ @
al pha
åĲĦ å¤§
å®īåħ¨ æĢ§
Ġrequ ired
æĸ° é²ľ
Ġf ar
æĿĲ è´¨
Ġp ath
éŃ ħ
èĤ ĥ
ĠA dd
Ġv ide
èľ Ĥ
èĬ ³
æĦŁ åıĹåĪ°
è§Ĩ ä¸º
èª ŀ
è¯ ŀ
ä¸» åĬŀ
èĻ Ł
AI æĬĢæľ¯
a im
åĵª éĩĮ
èĪŀ åı°
èĥ ¸
ä¼ł æī¿
åŁ¹ èĤ²
ar th
çŁ Ľ
ç»Ļ å®ļçļĦ
éĶĪ éĴ¢
ĠC o
math rm
è¯¾ åłĤ
éĩĩ è®¿
ra ft
ĠO ne
O T
å¾Ī å¿«
æĶ¯ åĩº
å¹¶ éĿŀ
çĥ ¹
8 9
æĤ ł
çľĭ èµ·æĿ¥
åı¯ è§ģ
dis play
ĠN e
æ¶µ çĽĸ
æ± Ĺ
Ġg e
æ¡ ¶
æ½ľ åĬĽ
åĪĩ å®ŀ
Ġact ually
ix ed
åĪĨ ç¦»
æī® æ¼Ķ
ä¹¦ ç±į
åįł æ¯Ķ
çŃ¾ è®¢
Ġperson al
æ ª
å°± è¦ģ
Ã ¡
çŃī äºİ
æıĲé«ĺ äºĨ
çļĦä¸Ģ éĥ¨åĪĨ
Ġdirect ly
å·¥ åķĨ
èĩ³ åħ³
åħ» æ®ĸ
g ers
äºº ç¾¤
åľ¨ ä¸Ģä¸ª
åĽ½ å¤ĸ
Ġ ãĢĬ
Ġadd ress
Ġed uc
æĺİ çĻ½
éĶĢ éĩı
Ġt akes
Ġres pect
t ic
Ġthe ory
ä¹Ł å°Ĩ
æĶ¾ åħ¥
- \
Ġneed ed
Ġbec ome
èĳ ±
Ġcol umn
æ¶Ĥ æĸĻ
an ced
æĽ´ æľī
â Ī
ç»ĵ è®º
Ġer ror
ĠEng lish
Ġve ctor
Ġmeas ure
Ġse ems
or g
èµ «
å¹¶ å°Ĩ
Ġfact or
å·¥ä½ľ ä¸Ń
ä¸į çĶ¨
æķ°åŃĹ åĮĸ
è¾ĥ ä½İ
e f
åİŁ å§ĭ
è¯Ń æ³ķ
end s
Ġtem perature
7 1
Ġe conom
å°ı è¡ĮæĺŁ
åĽŀ å½Ĵ
cri ption
æĸ¹ ç¨ĭ
åĿ Ĭ
åĽ½ æľī
ast ic
è¹ Ī
0 6
P U
é£İ æľº
Ġresp onse
o ber
åį ¢
å¤± è´¥
Ġhum an
é¥® æĸĻ
Ġconne ct
Ġ å¹´
åħ³ å¿ĥ
å¯Ĩ åĪĩ
åł µ
åı¸ æ³ķ
ç²¾ å½©
çĳ ľ
Ġanal y
æĸ¹ çļĦ
T e
ĠC ount
å®ī å¾½
è¶³å¤Ł çļĦ
è¡¥ è´´
åĩºçİ° äºĨ
èĴĻ åı¤
å¤ı å¤©
çµ ±
æ·· åĩĿ
éĻ¢ éķ¿
éĢł åŀĭ
Ġass oci
éľĢè¦ģ æ³¨æĦı
æĿ¡ ä¾ĭ
å®¡ æī¹
å±ı å¹ķ
çŃī æĸ¹å¼ı
ĠJ an
Ġother s
6 3
ä¿ ±ä¹Ĳ
ot al
æŁ ı
Ġ201 7
ç¼ĸ åĪ¶
å¯Ĩ çłģ
ud e
æŁĲ ä¸ª
ç«ŀ èµĽ
èĤĮ èĤī
å¹ ½
éĥ½ è¦ģ
å®Ĺ æķĻ
æī¶ è´«
äº ı
ĠIn tern
ç¿ °
èµĦ è´¨
åį° åĪ·
éĥ İ
éª Ĺ
J ava
ro ll
æŁ ´
èİ·å¾Ĺ äºĨ
è´µ å·ŀ
çļĦ ä»·æł¼
ĠA pr
é£İ æĻ¯
çĶµ æľº
l s
èĤ¡ æĿĥ
Ġoff er
é Į
Ġb ound
èĥ½ åĲ¦
åĲĦ èĩª
Ġre comm
å¸¦ çĿĢ
m ost
ĠM e
ç¤¾ä¼ļ çļĦ
7 4
Ġ ess
çº· çº·
éĢĤå½ĵ çļĦ
Ġimpro ve
è½¨ éģĵ
ç»ıæµİ åıĳå±ķ
Ġsol utions
çļĦ æł¸å¿ĥ
èĬ Ŀ
ful ly
ãĢĤ "
å¹³ çŃī
Ġse ason
æ¶Ī æ¯Ĵ
Ġimp act
Ġopt ions
åĪĽå»º ä¸Ģä¸ª
Ġc lose
éĢĶ å¾Ħ
åı¯æĮģç»Ń åıĳå±ķ
å± ĳ
æĺ Ĥ
é Ĳ
ĠG e
åİĺ ç±³
åĬł å¯Ĩ
æĦı å¤ĸ
} _{
Ġcol or
i res
å¼ ¥
æĻ Ĵ
Ġb enef
Ġst ory
çĸ« èĭĹ
éĶ Į
èŀį åħ¥
row n
Ġbu y
u ation
çĶ¨ æ°´
åº¦ åģĩ
ä»¥ ä¸º
åĲĮ æŃ¥
éĻĲ äºİ
çħ§ æĺİ
re g
èĤ ¾
çī© ä¸ļ
Ġc ases
Ġ2 3
æĶ¶ è´Ń
æ·± åĮĸ
Ġrelations hip
åĪ° åºķ
Ġbe gin
l ab
å»º éĢł
re es
æ£ ī
å´ ĩ
åĲĮåŃ¦ ä»¬
éĥ Ń
éħ ¯
f act
en c
Ġcomp on
åı¦ä¸Ģ æĸ¹éĿ¢
å¤ ¹
çĶµ æ°Ķ
æĪĳä»¬ åľ¨
Ġ ï¼Į
èµ ´
æħ¢ æħ¢
çķĮ éĿ¢
Ġprovid es
e qu
h tt
çİ° éĩĳ
Ġpo ly
å½ĵçĦ¶ åı¯ä»¥
st er
å°ı åŀĭ
Ġt reat
ä¼ Ĳ
åĲĪ æĪĲ
æµĵ åº¦
å°ı ç¼ĸ
åĲĦ çº§
èĢĥ å¯Ł
Ġc ity
å§Ķ æīĺ
} (
Ġvari able
å¸¸ å¸¸
æ¬£ èµı
å¸® æĪĳ
å°ı çº¢
Ġappro x
æĺ¯ åĽłä¸º
å®īåħ¨ çĶŁäº§
Ġd en
åħ¬ å¼ı
æĿŃ å·ŀ
Ġf ive
çĶµ è·¯
æķ´ æķ°
E M
åģļ æ³ķ
èĢ ķ
èģ ¯
éĻķ è¥¿
Ġcharact ers
Ġp ast
å¢ ĵ
çº¿ çļĦ
éĿĴ å°ĳå¹´
èį£ èªī
Ġdist ance
ä½ł éľĢè¦ģ
æĸĩåĮĸ åĴĮ
è¿ľ ç¨ĭ
Ġfil m
Ġf urther
ç¨ ±
éģ ¥
æ¶ ¯
] )
n ow
ĠD es
çļĦ è¿ĩç¨ĭä¸Ń
åľ° éĵģ
ig ure
è®¤ å®ļ
é£ŀ è¡Į
è ¤
æ¯ ģ
åĬł æĭ¿
å½¼ æŃ¤
Ġ æĺ¯
Ġm en
èĩªæ²» åĮº
ä¹Ł è®¸
å½ķ åıĸ
Ġhig her
Ġa ge
æĢĿ è·¯
åį° è±¡
Ġmem bers
ä¸įä»ħ ä»ħ
ä¸į éĶĪéĴ¢
èĥ Ģ
Ġchang es
åĨĻä¸Ģç¯ĩ åħ³äºİ
ip s
èĪŀ è¹Ī
} ^
Ġne cess
å±± è¥¿
èĥ½åĬĽ åĴĮ
ä½Ĩ ä¸į
Ġpr im
åħĪè¿Ľ çļĦ
æİ§ èĤ¡
Ġth ing
çĶµ åİĭ
olog ical
Ġw ays
æĪĳ åľ¨
Ġl ay
7 3
A D
in o
è½¦ ç«Ļ
** ãĢĤ
Ġre d
ĠC he
æĴ ¤
å½¢ åĬ¿
re m
ç¾ ½
åºŁ æ°´
æĬ ¼
åĪĨ è§£
æ¶Ī éĻ¤
ĠCh rist
Ġs ocial
åĩ Į
çŁĽ çĽ¾
éĿĴ æĺ¥
Ġus es
ä¸ĵ çĶ¨
âĶ Ģ
çļĦ ç»ĵæŀľ
æĪĳ è®¤ä¸º
è¥¿ éĥ¨
åľ° éľĩ
ä¸ĭ åĪĹ
åĿ ª
çĻ¾åĪĨ çĤ¹
Ġa ch
Ġet c
æĸĩ æ¡£
el lo
æ¡ ĳ
Ġcont in
æī§ æ³ķ
æķĻèĤ² éĥ¨
y pe
çĲĨ äºĭ
ĠC ar
æĤ Ł
çĶ» éĿ¢
é¢Ĺ ç²Ĵ
ç¾İ å¥½çļĦ
ä¼ļ çļĦ
å¤Ħ ç½ļ
éĢ £
çĶ· æĢ§
æĭ ¨
æĮ ¤
è¿ĩ çļĦ
èº« è¾¹
ĠG u
æĮĸ æİĺ
æľīåĪ© äºİ
0 7
è¡Ģ åİĭ
Ġest ab
åĲĮ äºĭ
ĠD is
Ġmod els
æ¸¸ æ³³
Ġse par
Ġgiv es
Ġf uture
ä¸¤ å¹´
çļĦéĩįè¦ģ æĢ§
çļĦ è¡Įä¸º
ä¸Ģ æµģ
ä¸į éľĢè¦ģ
å°ı åĮº
æĹ¶éĹ´ åĴĮ
éķ Ģ
è§£åĨ³ éĹ®é¢ĺ
çĶ· åŃĲ
Ġd r
Ġon ce
Ġdiffe rence
o in
Ġtra d
çŃī éĹ®é¢ĺ
åĴĮ æĬĢæľ¯
å¢ŀ éĢŁ
æĸ° åĮº
çļĦ æľºä¼ļ
us e
æĹł éĻĲ
åĩŃ åĢŁ
m p
çļĦ ä¸ĵä¸ļ
å¦ Ĩ
éŃ Ĥ
åĵª ä¸ª
åĩº å¸Ń
æ¤ ħ
æĪĳ æĺ¯
Ġbe aut
åħ» èĢģ
æłĩåĩĨ åĮĸ
au gh
æĹ¶éĹ´ çļĦ
åŁİå¸Ĥ çļĦ
èµ ļ
è¿Ľ ç¨ĭ
çĻ½ æĸĳ
b ack
è¾ ©
åħ¨ åĬĽ
Ġp ort
è§Ħ æł¼
æļ ĳ
éģĹ ä¼ł
iz ing
ç³ĸ æŀľ
éħį å¤ĩ
] .
ç½ĳ åıĭ
åıĺ æĽ´
, \
æĥħ èĬĤ
æĲħ æĭĮ
ĠE uro
æĮĩ åįĹ
tern al
Ġcommun ity
åħ³ éĹŃ
Ġcon cept
èĮ Ħ
åºı åĪĹ
èħ °
æĶ¶ åĪ°
éĺ² æ²»
8 00
is ing
Ġpre vious
çĲĨè§£ åĴĮ
ä¸ Ļ
è±¡ å¾ģ
ä¸į å¤Ł
Ġnet work
E n
ar ray
ä¸ª ä½ĵ
è¥¿ çıŃ
æĸ¯ çī¹
çļĦ ä¸Ń
æĹ º
ä¸ª çĻ¾åĪĨçĤ¹
æĹł çº¿
æµ· åįĹ
å¢ŀåĬł äºĨ
æŀ¶ æŀĦ
åĬ £
ä¸ľ æĸ¹
ä¸Ģ é¦ĸ
æıĲ åĪ°
ch an
åĲĪ çī©
Ġrel ated
è¥¿çıŃ çīĻ
ç¨İ åĬ¡
åĺ ´
æĹ¥ çĽĬ
èĩ³ äºİ
Ġoff ic
Ġz ero
g ing
Ġ u
ç¾İä¸½ çļĦ
æķ°æį® åĪĨæŀĲ
èŃ °
åģļ äºĨ
æ¿Ģ çĥĪ
åį §
é«ĺ è¾¾
ra ction
çļĦåŁºç¡Ģ ä¸Ĭ
è§Ĥ çľĭ
Ġh ol
æĺİ æĺŁ
ĠSy stem
æĪĺ æĸĹ
å®¢æĪ· çļĦ
display style
Ġw ind
æ¸ħ çĲĨ
ĠCom p
æľ¬ è´¨
ly ing
Ġsy n
6 1
ä¸Ń æľĢ
æĢ§ æł¼
ç³ Ĭ
å¸ ķ
ä½Ľ æķĻ
åı£ ç½©
å®¡ è®¡
åĪĨåĪ« ä¸º
t est
åŀ «
ir t
200 4
å¹² åĩĢ
ç¦ı å»º
æľŁ éĻĲ
åŁİ éķĩ
Ġtry ing
çĽ Ĺ
åº Ļ
åıĳåĬ¨ æľº
Ġ Î
åıĳ åĩº
éļĶ ç¦»
æ¶īåıĬ åĪ°
çĶ¨ åľ°
it or
ç¿ ¼
è´¢ å¯Į
åĩº åı°
æŃ¤ æĹ¶
åħ¨ æĸ°
ul es
è´¢ äº§
è¿Ļ å°Ĩ
äº§ä¸ļ éĵ¾
çļĦ è´¨éĩı
æĪĳä»¬ åºĶè¯¥
è½¬æį¢ ä¸º
è¿Ļ éĥ¨
è¾¾ æĪĲ
+ +
åĽŀ å¤į
Ġsh are
AP P
é¢ ĸ
åıĤ èµĽ
Ġen joy
A r
M y
i ation
Ġtyp es
äººä»¬ çļĦ
åı£ åĳ³
is on
ist er
ĠE d
ĠUs ing
ä¸ī å¤§
åģļ çļĦ
Ġequ ations
Ġide a
åŁ ĭ
Ġcont act
amb da
å®¶ æĹı
æĽ´ é«ĺ
Ġb ir
åİŁ æĿ¥
åħħ è¶³
Ġdistrib ution
Ġtra ining
Ġneg ative
Ċ ĊĠĠĠ
** ï¼Ī
çĶµ æµģ
ç²¾ åº¦
l ike
åĭ Ł
èħ º
Ġdef ined
ol l
am ed
C E
æķĻ ç»ĥ
å¯Ĩ å°ģ
äººåĬĽ èµĦæºĲ
æĮ ¡
i ans
W hen
ç§ ī
res h
ke y
um ents
æ®µ èĲ½
Ġm ind
æĮĩ æĮ¥
Ġc ult
æŁ ³
åħ ½
æīĢ è¿°
Ġact iv
é«ĺ åİĭ
ä»¥ä¸ĭ ç®Ģç§°
c hed
e ction
Ġe arly
æĶ¶ è´¹
çĥŃ æ°´
Ġeng ine
åĴĮ åıĳå±ķ
Ġcom es
Ġb i
èº« å¿ĥ
ä¾¿ æį·
æĬĢæľ¯ åĴĮ
çĩĥ çĥ§
Ġt arget
åľ¨ ä½¿çĶ¨
åĲ Ĳ
åĨħ å¿ĥ
ĠM ed
å¿« éĢĴ
è¶ħ çº§
ak en
åĶ® åĲİ
ä¿±ä¹Ĳ éĥ¨
Ġstep s
Ġne ar
æĲ ŀ
« çĹ
ä¹ĭ å¤Ħ
æ³¢ åĬ¨
Ġinst ead
å¤ļ å®¶
èĤ ©
Ġr ather
æ··åĩĿ åľŁ
d o
om s
åį± æľº
Ġcle ar
å¿ į
ĠĠ ĊĠ
Ġlike ly
åŁİ åĮº
è¿Ŀ åıį
æĬ Ľ
ç½ Ĳ
ä¸į å¥½
æĹ¥ åŃĲ
8 7
ç¾İ åĳ³
Ġiss ues
8 4
èı ¯
Ġcont ains
åıĳ çļĦ
S te
æĥ³ åĪ°
er c
Ġent ire
00 00
ĠO ct
ĠV al
Ġmat hemat
åĽ¾ä¹¦ é¦Ĩ
è®¾è®¡ å¸Ī
Ġcount ry
Ġd ocument
ch ange
çĪ ¬
éĩįè¦ģ çļĦæĺ¯
äºĪ ä»¥
éĤ£ éĩĮ
é¬ ¼
ĠM in
ge bra
^{ -
æĪª æŃ¢
ç¦ģ æŃ¢
5 000
B C
éĢ Ĭ
æĦŁ åħ´è¶£
å¹² æī°
ç¬¬ä¸ī æĸ¹
Ġexp ress
P I
ĠP ar
å½¢æĪĲ äºĨ
Ġre n
èį ¡
æ¶Ī åĮĸ
åį« æĺŁ
èĩ Ń
æĪĸ åħ¶ä»ĸ
åĨ¬ åŃ£
Ġincre ase
ä¸ľ åĮĹ
ç¸ ½
æĺ¥ èĬĤ
æĪĲç«ĭ äºİ
æľī çĤ¹
çī© ä½ĵ
è¾ĵ éĢģ
le ge
æĵ ħ
he ad
åĲĪ å¹¶
éĹ´ çļĦ
è¿ĺ åľ¨
çĮ Ľ
å¨ ĺ
Ġ ?
åĸľæ¬¢ çļĦ
Ġrequ est
Ġwrit ten
Ġens ure
å®ł çī©
ourn al
g o
åĨħ åŃĺ
åı¯èĥ½ æĢ§
æĭħ ä¿Ŀ
Ġtechn ology
ç© ·
åŁİ ä¹¡
åĴĮ å¹³
èĬ ¬
ä¸ľ åįĹ
Ġl ink
æĢ» éĥ¨
åİļ çļĦ
éī´ å®ļ
ĠSte p
Ġch all
çĩĥ æĸĻ
æ´» åĬĽ
Ġp ub
åı¯èĥ½ å¯¼èĩ´
Ġo ption
èī ³
ord in
çº½ çº¦
å¯¹ åħ¶
Ġexpl ain
ĠA m
å½¢ æĢģ
ĠThe n
çĪ ½
Ġt alk
Ġc y
äºº ä¸º
om an
æł¡ éķ¿
Ġtra vel
Ñ ı
åı¯ä»¥ æł¹æį®
æķ°æį® æĺ¾ç¤º
ĠWh ile
ä»ĸ è¯´
è®¾è®¡ çļĦ
mb ol
è¿Ļ ä¹Łæĺ¯
å»¶ éķ¿
è¡£ æľį
éľ į
åħĭ æľį
on y
ĠS im
Ġbu ilt
å¯ ¦
Ġt w
è¿Ļ æ¬¾
Ġh alf
å·² æľī
c ome
ft y
è´¦ æĪ·
è¥¿ åįĹ
Ġadd ition
} )
Ġbuild ing
è¢« ç§°ä¸º
9 2
el ta
å·´ é»İ
ä¹ĭ ä¸ĭ
æįŁ å®³
Ġg en
æ¶ Į
ĠH igh
åıĳå¸ĥ çļĦ
Ġint rodu
N ow
è®¾ æľī
æĹħ å®¢
ç»Ī ç«¯
Ġstart ed
g s
åĭ ĥ
æĮ º
200 3
äºĴ çĽ¸
Ġb al
Ġ201 6
è° Ĭ
ac ks
è¶ħ è¶Ĭ
Ġcond ition
çĽĪ åĪ©
D P
çļĦ å»ºè®®
åħ ©
éĢī çĶ¨
Ġcont rib
av or
Ġlim it
Ġs ong
åĽ½å®¶ çļĦ
ub e
å°½ å¿«
a ff
Ġapplic ation
S cript
åĬ© åĬĽ
æĹĹ ä¸ĭ
led ge
è½¦ çļĦ
åħĭ æĸ¯
Ġro w
t ed
-------- --------
ä¸» è§Ĵ
Ġsim ply
ĠN ational
** .
è¿Ļ å°±æĺ¯
ä¸İ åħ¶ä»ĸ
im ent
ĠR ep
å®¹ éĩı
çŁŃ æľŁ
Ġaut om
å¤§ äºİ
èĩª ä¿¡
æĸĩ çī©
id ge
å¥³ åŃ©
çĽ Ĩ
Ġs ource
æĺ¯ å¯¹
Ġm iss
Ġpat tern
è¡Ģ æ¶²
äº§çĶŁ äºĨ
åħ¶ ä¸ŃçļĦ
çĦ ¡
å§ »
it ch
OS S
Ñ ĭ
Ġgr oups
ĠM od
è·Ł è¸ª
çį İ
å¹³ æĹ¶
æĿĤ å¿Ĺ
æĸ° åħ´
ç¾ ħ
em pt
åĽŀ å¿Ĩ
æĬĬ æı¡
åĲĪä½ľ ä¼Ļä¼´
æ±¡æ°´ å¤ĦçĲĨ
æĺ¯ ä¸ª
d own
æĽ Ŀ
ĠP art
éļ¾ åº¦
ä½ı å®¿
Ġ ```
å¸Ĥåľº ä¸Ĭ
æ³ķå¾ĭ æ³ķè§Ħ
Ġsur face
Ã ³
ä¿ Ĭ
ç¼ĸ çłģ
ur ch
Ġart icle
M P
æ¿Ģ åħī
åĪł éĻ¤
æŃ¤ åīį
çµ Ħ
air s
Ġd ire
Ġinclud es
çĬ ¹
è¯Ħ å®¡
p a
ç¼º çĤ¹
ä¸ĵæ³¨ äºİ
p ot
Ġw ide
å¸Ī çĶŁ
å½» åºķ
ä¸Ģ çº¿
æĹ¥ åľ¨
åĲİ ç»Ń
in fty
Ġc ut
é¦ ¨
ĠB r
å¤ĸ åĽ½
éŁ §
p ose
æľ¬ äºº
éģ Ķ
æ°´ åĪĨ
Ġcle an
3 000
èģĮ ä½į
æĴ Ĵ
è¢ Ń
æ® ¿
åıĥ èĢĥ
C an
ist ics
Ġwe b
Ġresp ons
Ġpri v
èĤ¿ çĺ¤
åĬłæĭ¿ å¤§
l or
æĬ¥ èĢĥ
æĴ °
èģĬ å¤©
ï¼ī ï¼Ľ
ĠĠĠĠ Ġ
åĽ¢ ä½ĵ
Ġc ateg
èģ ª
Ġmethod s
çļĦ åıĺåĮĸ
Ġ{ \
av es
Ġc ou
th ough
ĠA ust
____ ____
ä¹Ł åı¯
çļĦ åħ³ç³»
ä¸Ģ çº§
æĹ¶ åħī
é«ĺ èĢĥ
ĠM ethod
åģľ è½¦
åĩĢ åĪ©æ¶¦
å¤§ åŃ¦çĶŁ
Ġstr ateg
Ġplay ers
Ġb ox
çĶµ ç¼Ĩ
çĲĨ çĶ±
ä»Ķ ç»Ĩ
åĽ Ĭ
æ¸ Ķ
æľŁ æľĽ
ç´§ å¯Ĩ
çļĦ åħ·ä½ĵ
è¿Ļ æĺ¯ä¸Ģ
èµ° åĲĳ
Ġadd itional
çļĦ æķĪæŀľ
åħ¬ äº¤
Ġst e
åİĤ åķĨ
å¤§ éĻĨ
if ul
ç²¾ ç¡®
ĠU se
ç®Ģ æ´ģ
ä»ĭç»į äºĨ
Ġwho le
ç½ĳ é¡µ
Ġaut hor
Ġpr in
éĢĤ éĩı
æĢ» é¢Ŀ
è´Ł æĭħ
Ġsome one
çĳľ ä¼½
æĥ ĳ
æ°Ķ è±¡
ä¼ĺ èī¯
çŃĸ åĪĴ
åī Ĭ
æľĪ çļĦ
èİ ²
oo p
éĺ² çģ«
å±Ĥ éĿ¢
æŃ§ è§Ĩ
èĤ ĸ
ç®¡çĲĨ åĴĮ
Ġhist ory
å¿ĥ æĥħ
æīĭ ç»Ń
æĺĵ äºİ
ic y
æīį æĺ¯
åĽ½å®¶ çº§
å®ĺ ç½ĳ
éĹ ¹
ad d
p ri
Ġan t
ä½ĵ ç§¯
åĲĮ å¿Ĺ
éħ ·
ä¸¤ äºº
Ġthough t
Ġdo ing
ä¹ĭ è·¯
s ub
if f
èĬĤ çľģ
çº³ åħ¥
ä¸¥éĩį çļĦ
æľ¬ ç«Ļ
ig ma
ä¸ ¢
æĻºèĥ½ å®¶å±ħ
Ġam ong
ä¸»ç®¡ éĥ¨éĹ¨
Ġw a
å¤ļ é¡¹
åı¯ä»¥ è¯´
äººæ°ĳ æ³ķéĻ¢
Ġref er
çļĦ åŃ¦çĶŁ
ç»Ĩ èıĮ
ä¸Ģ æī¹
å½± è§Ĩ
å·² æĪĲä¸º
èĢĥèĻĳ åĪ°
æ§ ½
åĴĮ æĸĩåĮĸ
ä¸Ń æıĲåıĸ
åħ¬ æŃ£
C C
ä¸Ĭå¸Ĥ åħ¬åı¸
ĠN ot
Ġproper ty
ä¸Ń åĮ»
çľĭ æĿ¥
è®° å¾Ĺ
pl it
æ© Ļ
åĢº åĬ¡
Ġfor ce
D F
è¦ģ æ³¨æĦı
å¥ Ī
èį Ĵ
èĥľ åĪ©
iel ds
ĠP er
çŀ ¬
æ¬¡ æķ°
ac y
çģ¾ å®³
æ±Ł è¥¿
Ġb ar
åĪ© äºļ
Ġc aus
é£ ĺ
è¯ µ
è§Ĥ å¿µ
åı ¹
æľī å®³
èĩ º
è¾ĥ é«ĺçļĦ
com es
pecial ly
ĠB y
éĢī æīĭ
å°½ åı¯èĥ½
Ġro le
w ise
Ġ201 0
an cial
å¤§ è§Ħæ¨¡
ĠS m
æĩ ī
éĿŀ æ³ķ
å¾Ī å®¹æĺĵ
c ount
ĠC al
æ¦Ĥ çİĩ
9 4
è¡ ĵ
ve c
Ġnum er
åĦ¿ åŃĲ
ram e
) =
Ġf ail
ĠA ug
éļĲ æĤ£
ic ult
åĪļ åĪļ
çļĦ çĶŁäº§
ĠA fter
æĵ ļ
c ks
æıĲä¾Ľ æĽ´
åĤ ³
åĪĿ æŃ¥
çºª å½ķ
S QL
Ġf all
åħ³ èģĶ
æŁĲ ç§į
åįł åľ°
it es
R E
Ġn ight
èº« ä¸Ĭ
éĢı éľ²
è¯¦ç»Ĩ çļĦ
Ġb o
æĶ¶ èİ·
åı¯ä»¥ è®©
èµ· åĪ°
åĽ¢éĺŁ æĪĲåĳĺ
å¹´è½» äºº
åº· å¤į
æľī åºı
æĮĩ çļĦæĺ¯
Ġreg ular
çļĦ çī¹çĤ¹
åĭ Ļ
Ġl ive
Ġ\ ,
åįģ ä¸ī
åħ ¹
Ġinte ger
is f
æĹł éľĢ
8 3
m ax
Q u
ĠC or
d f
ä¸Ģ æĸ¹éĿ¢
her s
éĿĴ å²Ľ
å©´ åĦ¿
éķ¿ æ±Ł
Ġmat ch
Ġth ird
å½¢ çļĦ
ens ity
ç¨³ å®ļçļĦ
Ġev ents
é¡¾ éĹ®
box ed
éĢļ çĶ¨
ä¾ĽåºĶ éĵ¾
çļĦ åĬŁèĥ½
çŃī åľ°
ç§¯æŀģ çļĦ
çĥ Ĥ
ĠSt ate
æľĢ å¤ļ
ĠSt ates
å¥¥ è¿Ĳ
o pp
ç® Ń
åĩºæĿ¥ çļĦ
Ġm agn
ä»£ è°¢
é¸¡ èĽĭ
om ial
Ġun it
æĺ¯åĲ¦ æľī
Ġst yle
è¿Ĳ ä½ľ
Ġcre ated
å°± æľī
æ°´ æ³¥
æĭĴ ç»Ŀ
è¯Ŀ é¢ĺ
i en
ä¿¡æģ¯ çļĦ
Ġcomp an
Ġobs erv
ĠC ity
çĻ» å½ķ
g a
æµ ©
ä¸ĭ åİ»
ĠS ol
çĪ ·
Ġnew s
C H
ĠS ci
æį® æĤī
æĢ» çļĦ
ä»¬ çļĦ
Ġare as
åŃĺåľ¨ çļĦ
il le
ac ed
èĲ½ åľ°
s pe
æ³ Į
Ġsh ows
éĸ Ģ
æĬĳ åĪ¶
Ġline ar
å µ
Ġse en
è®² è§£
å¼ ĺ
Ġ201 5
å¼Ģ æĭĵ
æķ°æį® éĽĨ
åĽŀ æĬ¥
é¹ ¿
mat rix
l im
Ġ q
å¤§ è¿ŀ
è¢« åĳĬ
Ġadd ed
æİ¥ åı£
** ï¼Į
èĩ £
ï¼Ī ï¼ī
Ġ" ""
é£Ł æĿĲ
è¶ĬæĿ¥è¶Ĭ å¤ļ
part ial
Ð ²
æĺ¯ ä»¥
æĿ¥ å®ŀçİ°
åıĸ ä»£
G oogle
å°± åľ¨
éĲ µ
ar ies
èĢĮ éĿŀ
çĻ «çĹ
ĠOut put
çĻ«çĹ «
éĶ Ĳ
å¤ª ç©º
çļĦ çĽ¸åħ³
t itle
è¿ĩ äºİ
Ġ- >
å®¹ åĻ¨
Ġad j
o on
çļĦ æĢ»
çĶŁæ´» æĸ¹å¼ı
éļ¾ é¢ĺ
å¸¸ è§Ħ
æ¸ħ åįķ
åĩº åİ»
Ġwe ather
ĠG od
èīºæľ¯ å®¶
Ġsequ ence
åľ° åĽ¾
ĠRe g
åı¯ä»¥å¸®åĬ© ä½ł
æ¹¿ åº¦
åĨ ¶
è¡¨ æł¼
é¥ ²
Ġsoft ware
çĽ¸ ç»ĵåĲĪ
çİ°ä»£ åĮĸ
å¤§ èĦĳ
Ġh ot
ç¾İ åľĭ
M S
åıĺ éĿ©
Ġstate ment
æľĢ æĸ°çļĦ
çº¿ ä¸ĭ
å¦Ĥä½ķ åľ¨
ä¸Ģ æ¬¾
è§£ çŃĶ
Ġs ense
åĪĨ æķ£
åĸ »
Ġw alk
èµ ¤
æ¼Ķ è®²
çĽ®çļĦ åľ°
ä¹Ł æ²¡æľī
å¹¿ä¸ľ çľģ
9 3
å¼ı çļĦ
ĠM ath
å§ ĳ
åĽŀ å®¶
å¥³ åŃĲ
u k
in ally
éŃ ı
Ġob tain
åĲĪçĲĨ çļĦ
è´§ çī©
Ġass um
Ġpop ulation
è¿Ļ æĦıåĳ³çĿĢ
å¹¿ æĴŃ
Ġget ting
Ġpur ch
èĦ Ĩ
n ers
Ð ¼
åĽ½ æ°ĳ
äº§ èĥ½
ç© Ĩ
ç²ī ä¸Ŀ
Ġpop ular
æ³ ª
å»¶ ä¼¸
p m
cl ass
åģ ·
çİ°åľ¨ çļĦ
å°ļ æľª
ä¸º å®¢æĪ·
Ġin dex
æĴŃ æĶ¾
æĸ¹ ä½į
çĽ® å½ķ
æļ ¨
_{ \
æī Ń
æĹ¥ ä¸ĬåįĪ
è¿Ļ ç±»
å¾ ŀ
æľĢ å°ı
b oard
æľ¬ ç½ĳç«Ļ
æľ ´
åĽ½ çļĦ
Ġsum m
ĠEuro pe
Ġmean ing
Ġopp ortun
al y
èħ Ĭ
æħ °
éģĹ äº§
Ġvis it
Ġse ction
ç¥ŀç»ı ç½ĳç»ľ
éĻ¶ çĵ·
Ġm illion
èĩªçĦ¶ çļĦ
Ġd ate
èĢĲ å¿ĥ
" }
ä¾µ çĬ¯
äºº æĸĩ
åıĳ æĶ¾
åĩº ç§Ł
åľº æ¯ĶèµĽ
äº§ä¸ļ åıĳå±ķ
ä¸į çŁ¥
èĮ ¨
è¯¢ éĹ®
çĶµåŃĲ åķĨåĬ¡
8 2
çĤ¹ çļĦ
éĴ Ļ
Ġper cent
Ġ201 4
åĲī æŀĹ
Ġmax imum
x y
Ġf it
æľº ç»Ħ
æĹ¥ æĬ¥
ç¡® è¯Ĭ
äºĶ å¹´
Ġproper ties
ä¹Ł å¾Ī
id th
éĶ ¡
èĦ± è´«
gr ound
ä¸Ģ å¼ł
éĺ² æ°´
æĿĳ æ°ĳ
äºº åĴĮ
çĶŁ æ¶¯
ac hes
av ing
äºī è®®
èĬĤ æĹ¥
å©ļ å§»
b on
ä¸Ģ åıª
åįķ åħĥ
å°ĳ æķ°
æĶ¶ èĹı
æķ´ æĶ¹
ç»¼ ä¸Ĭ
% ãĢģ
ä¸Ĭ ä¼ł
oun ter
Ġhe art
od es
ä¸ §
is es
è¾ Ī
æ¹ ĺ
Ġgener ate
åĬŀ åŃ¦
ç¢ Ĺ
èį£ èİ·
éĤ® ç®±
å¹³ éĿ¢
èº«ä½ĵ åģ¥åº·
ä¼ĺç§Ģ çļĦ
ä¾Ŀ æīĺ
Ġgo al
ibr ary
ä¹¦ æ³ķ
æī¿ åĮħ
å¸®åĬ© ä½ł
UR L
Ġpr ime
Ġmach ine
ag er
ç¬¬ åħŃ
çħ¤ çĤŃ
Ġt aking
æį® äºĨè§£
Ġde al
äº§åĵģ è´¨éĩı
ĠTr ans
Ġfriend s
. )
b um
** ,
un ch
çĶŁæĢģ ç³»ç»Ł
å¿ĹæĦ¿ èĢħ
um ber
æ¾³ å¤§åĪ©
èĺ Ń
Ġbeh av
Ġ æĪĳ
Ġde b
å¸ ħ
Ġprob ability
Ġfe ature
é¢ ĩ
åĨĽ äºĭ
Ġem ail
Ġexp ression
éŃħ åĬĽ
æĺ¾ å¾Ĺ
ä¸ĸçķĮ çļĦ
çĻ¾ åº¦
val ue
æĽ´ é«ĺçļĦ
ĠA b
Ġwrit ing
äºĭå®ŀ ä¸Ĭ
å» ·
å¤© ç©º
Ġex ec
ä½ĵ æ£Ģ
ç´ Ħ
èĴ ľ
æĸ°åĨł èĤºçĤİ
Ġd og
ill ed
è¥¿ åĮĹ
æī¿ åıĹ
éĵ ħ
å³ ¡
çīĽ å¥¶
åħļ çļĦ
Ġp ict
ra p
8 1
âĢ ķ
å³ ¶
Ġiss ue
æ³ Ĭ
æ°ĳ ä¸»
æĿ¿ åĿĹ
å½ĵ å¤©
ear ch
è¯į æ±ĩ
éĴ¢ éĵģ
åĢº åĪ¸
æ¯ı æĹ¥
ĠO ur
æł ª
è¿Ļ é¡¹
200 1
Ġh tt
ç¿»è¯ĳ æĪĲ
èħ¾ è®¯
Ġmom ent
ä¸ĵ é¢ĺ
èĻ ¾
æĽ ¹
Ġits elf
H T
çĶ± æŃ¤
ä¸Ģ é¡¹
ĠF eb
iz es
å¤Ħ çļĦ
åİ» éĻ¤
æİĴ åĪĹ
Ġall ows
20 22
æĶ» åĿļ
c ation
åİŁ æľ¬
an ation
æĹ¥ ä¸ĭåįĪ
Ġy et
art ment
} }{
é¦ĸ å¸Ń
ur b
ä»İ ä¸ļ
åŃ Ł
Ġl ines
es e
ç¯® çĲĥ
Ġ\ ]
èĢģ æĿ¿
åĩł ç§į
Ġindust ry
ç§ĳæĬĢ åĪĽæĸ°
è¾ħ å¯¼
çļĦ ç²¾ç¥ŀ
ç±» çļĦ
Re ferences
å¤§ å¸Ī
Ġl inks
è¯¾ é¢ĺ
n a
å¿ĥ èĦı
Ġyou ng
Ġcor resp
çĸ¾çĹħ çļĦ
Ġgovern ment
å¥³ åĦ¿
çĸĳ éĹ®
å¯¹è¯Ŀ åĨħå®¹
P l
at ter
åĬł åĿ¡
å»ºç«ĭ äºĨ
Ġprofess ional
b eta
æĽ´ å®¹æĺĵ
Ġ{ "
æİ¨ çĲĨ
Ġapp l
æĢ§ åĪ«
æľŁ åĪĬ
se qu
Ġcons ist
æĪĲ äº¤
um b
Ġsub ject
çĦĬ æİ¥
Ġe fficient
m u
å¸Ĥ æĶ¿åºľ
èĪ °
Ġ2 8
ad a
æłĳ ç«ĭ
Ġco ver
Ġcomput er
epend ent
Ġvide o
æĪĲ å¹´
æĽ´ å¤§çļĦ
Ġst ore
Ġthe ore
å¤§ åľ°
Ġmonth s
s el
åŃ¦ å®¶
ĠS w
éŁ µ
é¥ ª
ell ing
çĥ¹ é¥ª
æĽ´ å¿«
åĳ¨ å¹´
éħ ¶
ĊĠĠĠĠ ĠĠĠĠĠĠĠĠ
itt ed
å² Ń
Ġloc ated
lo ck
äºĭä¸ļ åįķä½į
å® ´
çĽ ²
åĪĨ æķ°
ä¿Ŀ åħ»
Ġto ok
ag ue
Ġm ention
åĽ½å®¶ åĴĮ
çĮ ľ
äºĶ ä¸ª
å®ĮæĪĲ äºĨ
æĹ© ä¸Ĭ
å¸ ½
ä¹Ł å°±
ag ing
ç¦ı åĪ©
Ġs ays
+ \
ä¸ļ åĨħ
å®īåħ¨ çļĦ
å© Ĩ
åľ¨ æľªæĿ¥
ä¸ī æĺ¯
ra g
äºĮ çº§
Ġdesign ed
ä¾Ľ ç»Ļ
æ°ĳ å®¿
Ġd raw
ä»Ģä¹Ī æĺ¯
9 1
æĸ° çĸĨ
200 2
Ġh old
è¯´ çļĦ
ĠS ince
å½±åĵį åĬĽ
Ġ201 2
å®¢ æľį
æĿĥ å¨ģ
åºĵ åŃĺ
A A
çļĦ ä¸»é¢ĺ
çļĦ è§Ħå®ļ
Ġt ax
Ġform at
Ġdiff icult
s y
æĪĳ å°Ĩ
æŁ¥ æī¾
åĮ» å¸Ī
ä»½ é¢Ŀ
r ong
å±ŀ æĢ§
== ==
è¥¿ äºļ
Ġreg ard
ir m
å®¢ è§Ĥ
æ¶¦ æ»ĳ
çļĦ å½¢å¼ı
ĠL a
åĸľ çĪ±
æĪĲåĬŁ çļĦ
æĢ» è£ģ
æ¯ķ ç«Ł
ä½ľ å®¶
a res
Ġf ast
çī© èµĦ
Ġdid n
åĮĸ åĴĮ
Ġh om
åľº åĲĪ
ç²¾ åĵģ
åĲ« ä¹ī
S e
Ġval id
æĺ¯ æľī
ut ed
ch ar
æ³¨æĦı åĬĽ
v ant
Ġv ia
Ġvari ables
åįĵ è¶Ĭ
èĩªåĬ¨ é©¾é©¶
æĶ¯ éĥ¨
ç£ ·
æĹĭ è½¬
è°ĥ çĶ¨
åĬ© æīĭ
åħ¬ åĬ¡
æĸ° çĶŁ
ad em
Ġs al
Ġa ction
çĶŁäº§ çļĦ
ĠSt ud
éĢļ é£İ
äºĮ æ°§åĮĸ
èĢĮ æĪĲ
è¿Ľ åº¦
y ear
æĪĳä»¬ è¦ģ
æĤ¨ éľĢè¦ģ
on al
åıĳ èĤ²
ĠP a
Ġapplic ations
éĢĢ ä¼ĳ
Ġpa rent
æĲº å¸¦
éĺ³ å¸Ĥ
b ased
ä¸į äºĨ
åı Ļ
re et
ä¸Ģ çīĩ
ä¼ļ éķ¿
Ġst ates
çģ« çģ¾
H ello
s ort
Ġm or
åħ¬ æ°ĳ
æĸ° åĬłåĿ¡
Ġ201 3
Ġfil es
Ġc amp
ä¸İ æŃ¤
ĠS er
æº ¢
Ġr at
ç» µ
al ign
å¤Ħ ç½®
å² ³
Ġcons um
Ġmat ter
ä¹Ļ çĥ¯
Ġk m
Ġt rack
çŁ¥è¯Ĩ åĴĮ
m it
Ġcon vert
) $$
c ity
è¿Ļ ä¸¤ä¸ª
å¹¶ æıĲä¾Ľ
çķ «
æłĳ èĦĤ
Ġtrans form
ç¾ ©
ĠE l
Ġch oose
re me
èİ İ
Ġexact ly
è¡Į é©¶
ä¸Ĭ æľī
æĥ §
å»º æĿĲ
éĽ ĩ
æ¾³å¤§åĪ© äºļ
æĿĲæĸĻ çļĦ
æĺ¯ æĪĳ
ç³ĸ å°¿
Ġnorm al
åº ŀ
Ġrec ogn
åħ¬åı¸ åľ¨
Ġ ut
çŃ ĭ
æĭ ³
æĽ ¸
æĺ¯ ä¸įæĺ¯
åĽŀ åºĶ
port s
ç§ ©
å¼º åĪ¶
è¥¿ æĸ¹
ĠN ow
äºĳ è®¡ç®Ĺ
b ar
c ast
åĴĮ åºĶçĶ¨
ä¸ªäºº çļĦ
Ù Ħ
çĨ Ķ
Ġcomm and
èĩªè¡Į è½¦
æĺ¯ æĪĳä»¬
æ¶Ī å¤±
ç¾İ è§Ĥ
äºº å¤§
Ġd u
èµ· äºĨ
èµĶ åģ¿
çļĦ åħī
åį ľ
ç«Ļ åľ¨
åıį å¤į
Ġblo ck
å¼º å¤§
æĢİä¹Ī æł·
å¡ ĺ
æ°´ åĪ©
Ġpart s
Ġs em
or der
Ġqu ite
Ġ201 1
p oint
çŃ Ĵ
un ic
æĿ¡ æ¬¾
Ġman agement
æ¬ ł
s er
éĢ ¾
å¤ļ å¹´çļĦ
ĠM ark
å¤ļæł· æĢ§
éħ µ
ä¸ī ç§į
Ġcl aim
é¹ ı
æŀ ª
å¿ Į
æ¡£ æ¡Ī
Ġg ames
æľĪ åºķ
å¹¿ è¥¿
con t
Ġprodu ction
\ \
Ñ Į
Ġag o
åŃ Ŀ
ç¥ Ń
æīĵ çł´
IS O
å° İ
è¿Ļ ä½į
æł¼ å±Ģ
çĹĽ èĭ¦
æ¯« ç±³
æī ĩ
Ġpred ict
ä¸į è¶ħè¿ĩ
éĥ¨ éķ¿
L L
Ġ Ø
ri ed
æįŁ åĿı
Ġris k
åıĳ è¾¾
Ġdis play
ĠEx ample
åĵģçīĮ çļĦ
Ġes pecially
æ°´ ä¸Ń
åį ¸
ĠS ch
ä½ł ä¼ļ
èģļ çĦ¦
Ġreturn s
Ġc ame
ä»¥ åħį
èħ »
Ġgrow th
å¤© ä¸ĭ
Ġrun ning
med i
ä¸Ģ å¸¦
éĶĢåĶ® é¢Ŀ
åŁºæľ¬ çļĦ
ĠS erv
çĹħ çļĦ
ç²¾ å¿ĥ
åĨ ¥
æľĢ åĪĿ
éħ ¬
æ´» è·ĥ
æ°ĳ ä¼Ĺ
å¯¼ åĲĳ
çİ¯å¢ĥ ä¸Ń
o ff
æĦŁ åĴĮ
Ġs ample
ç»Ļ äºĨ
ä¾Ŀ éĿł
Ġbec ame
ä¸į åıĺ
Ġus ually
åĩĨç¡® æĢ§
Ġ 2020
Ġa ud
æ° ®
éĺŁ çļĦ
ç»¼ä¸Ĭ æīĢè¿°
èĬ± åĽŃ
Ġm ath
åī ĩ
çİ° çĬ¶
ide red
ph i
Ġcompan ies
M OSS
æĿ¡ä»¶ ä¸ĭ
Ġac cept
ç§ĺ ä¹¦
an c
Ġl oss
æĹ¶éĹ´ åĨħ
f ile
ì Ŀ
å¼ Ħ
è¦ģ ç´ł
20 24
è¿Ľ èĢĮ
çº¦ ä¸º
çļĦ é£Łçī©
Ġa ff
æ¯ı åĳ¨
èĶ ¡
çī© æĸĻ
æľĢ ä¸º
æįŁ ä¼¤
è¿Ļ åı¥è¯Ŀ
çº ²
åĿĩ è¡¡
å¾ģ æ±Ĥ
è´µ çļĦ
ç¬¦ åı·
åįĥ ä¸ĩ
Ġsim pl
ç¨ĭåº¦ ä¸Ĭ
g ress
çĶ ¢
éħį ä»¶
Ġopt im
Ġhapp en
é¡ ŀ
èĲ Ŀ
qu ad
éªĮ æĶ¶
èµĦæºĲ çļĦ
å¹³ å®ī
ight s
éĿŀå¸¸ éĩįè¦ģ
ç»ĦæĪĲ éĥ¨åĪĨ
ä¼ ª
ĠS outh
äºĮ æ¬¡
è¯» ä¹¦
åĩºçİ° åľ¨
åºĶè¯¥ æĺ¯
èĪª å¤©
å¹³æĸ¹ åħ¬éĩĮ
l ambda
u x
â Ĺ
é¢ ¨
åĪĨæŀĲ åĴĮ
æķĳ æı´
Ġloc ation
çļĦ æĦŁè§ī
ĠS u
å ļ
å¦ ¥
æ¶² ä½ĵ
çŃī å¤ļç§į
çĮ İ
Ġc al
ĠC alcul
ĠP ark
æĦŁ çŁ¥
æŃ£ è§Ħ
Ġus ers
çĥŃ éĹ¨
Ġme chan
| -
åħ¬ ç¤º
æĪ¿ åŃĲ
Ġit ems
å¸¦ æľī
å¾® çĶŁçī©
å¥ĭ æĸĹ
æĻ ´
åĲĦ ä½į
çłĶ è®¨
pt ions
å¤ª å¤ļ
T om
å·¥ äºº
00 1
çķĮ çļĦ
imate ly
æłĩåĩĨ çļĦ
Ġbl ack
è¶Ĭ åįĹ
æĿ¡ä»¶ çļĦ
åĪ ¥
çħ§ é¡¾
åħħåĪĨ åıĳæĮ¥
åħĦ å¼Ł
çĻ¾ å§ĵ
ä¹ĺ å®¢
åľº åľ°
èµ° è¿Ľ
æ¨¡åŀĭ çļĦ
éģĭ åĭķ
ĠN orth
n et
Ġa x
Ġw omen
æ°ĳ éĹ´
åħ± äº§
åľ° è´¨
åıĤèĢĥ æĸĩçĮ®
èĳ¡èĲĦ éħĴ
ograph y
èĩ³åħ³ éĩįè¦ģ
æİ¥ çĿĢ
ä¸ľ äº¬
Ġocc ur
I s
Ġto wn
èĪ Ł
ens ive
Ġev al
å¹¿æ³Ľ çļĦ
ru g
Ġ ë
æĽ¿ æį¢
Ġc ross
åĽ¢ ç»ĵ
çĶŁæĢģ çİ¯å¢ĥ
èķ ´
å®ŀ ä¹ł
Ġbir th
åĿļ å®ļ
å¾Ĺ ä»¥
ä»¿ ä½Ľ
ç§© åºı
é¡ Į
é¢Ħ è®¢
ä¸į ä¹ħ
Ġ2 7
ĠW ill
æµª æ¼«
Ġcent er
' d
åĸ ®
éĤ£ æł·
Ġknow ledge
çļĦ åģ¥åº·
éĴ¢ ç®¡
å¥½ äºĨ
å½ĵ å¹´
åħ¬ æĸ¤
è§Ĩ è§Ĵ
ç¬¬ä¸Ģ æĹ¶éĹ´
Ġoff ers
åı· çłģ
å®ŀéĻħ æĥħåĨµ
æĺİæĺ¾ çļĦ
Ġpol it
éĩĩ éĽĨ
è¯Ħ éĢī
Ġg lobal
çĭ ®
word s
è¾½ å®ģ
o res
Ġ$ {
å¸Ī èĮĥ
è¯¸ å¤ļ
Ġs ides
math cal
P E
æ¸ ´
æ· ®
æº ¯
Ġâ Ī
æħĪ åĸĦ
åı¯ çĶ¨
è¿ĺ å°Ĩ
çĹ ķ
å®Ĺ æĹ¨
çĸ¼ çĹĽ
Ġe y
Ġar ch
çĽĳçĿ£ ç®¡çĲĨ
C N
è¿ Ń
ä¸į å¦Ĥ
æĮģ æľī
ç¿ Ĵ
Ġfact ors
æĶ¶ å½ķ
Ġsat isf
Ġ å¦Ĥæŀľ
Ġse em
Ġacc ording
ç¼ĸç¨ĭ è¯Ńè¨Ģ
at form
Ã Ń
ãĢĤ -
èĩ Ĥ
id ed
æ¸© é¦¨
ut h
ä½ł è®¤ä¸º
ĠP lease
em ent
æ£ ļ
æ° Ł
éĿŀ æ´²
æī¾ åĩº
åŃ¦ çļĦ
ä¸īä¸ī ä¸īä¸ī
Ġs ens
ä¸į åľ¨
æ¸Ĺ éĢı
çºº ç»ĩ
ç²¾ åĬĽ
å·´ è¥¿
æħ¢ æĢ§
è¯ Ī
æĪĳ è§īå¾Ĺ
tern ative
Ġcol lect
èĭ ¯
Ġs un
C R
ag ram
æ²³ æµģ
Ġpre c
å¢ĥ åĨħ
å·²ç»ı æĪĲä¸º
è¾¹ ç¼ĺ
ä½ĵ éĩį
å¸Ĥ å§Ķ
åī¯ ä¸»ä»»
çĽ¸åĲĮ çļĦ
av id
ä½ĵ åĪ¶
op s
ä¸´ æĹ¶
Ġcons idered
Ġb ott
åĪ° æĿ¥
é» ŀ
e v
åĨħ æ¶µ
è¿Ļ ä¸¤
åħ¥ åı£
æķ´ æ²»
er a
è¿ĺ æ²¡æľī
å¿ħ çĦ¶
èĮ Ĥ
u ary
çħ Į
C S
ç Ģ
åĪĨ æ³Į
æ¼Ķ åĶ±
Ġfollow s
k y
å» Ĭ
å¹¿æ³Ľ åºĶçĶ¨äºİ
Ġinter p
å¹´ åīį
åĮĸ åĲĪçī©
çľĭ æ³ķ
åĲ¬ åĪ°
Ġb ring
åķĨ å®¶
è½´ æī¿
Ġlo ad
Ġlat est
çļĦ åŃ¦ä¹ł
éĺ Ĳ
æľĢ æĹ©
éĽ» è¦ĸ
ro id
Ġav oid
åĽłä¸º å®ĥ
èĽĭ ç³ķ
éĢ Ŀ
å®ŀ åľ¨
æĢ»çļĦ æĿ¥è¯´
ä¸į ä½Ĩ
çĶŁ åĬ¨
åŃĲ å¥³
é»Ħ èī²
Ġal bum
Ġphys ical
Ġc red
ace book
å¥ī çĮ®
çļĦ ç®¡çĲĨ
ä¸Ń åħ±
çŃī æĸ¹éĿ¢çļĦ
åħ¨ å¹´
ĠH is
åĪĿ æľŁ
æĭĽ åķĨ
ç»ĺ çĶ»
qu e
æ±¡ æ³¥
è½¬åĮĸ ä¸º
Ġh ope
ĠC ons
ä»ħ ä»ħ
Ġcustom er
çĸ² åĬ³
åľ ĺ
Ġb and
ç§į åŃĲ
åĲĦ åĽ½
Ġwh ite
inu x
æĸ°èĥ½æºĲ æ±½è½¦
idd le
æĬ ļ
èª ª
ĠB rit
Ġmain tain
æ¬ º
åĲİ æŀľ
ä¼ģä¸ļ åĴĮ
}$ .
çŃī åĽłç´ł
éľ ¸
Ġg as
ob ile
éĻ Ģ
è¯´ æ³ķ
åįł æį®
a ur
å¯¹ æİ¥
å¼Ģ å¿ĥ
ä¸ī åįģ
Ġ$ {\
ĠF ind
æľª çŁ¥
éķľ å¤´
æĬ ¹
ç§° åı·
r ror
Ġmed ia
ä¸º æŃ¤
æł ĭ
æĸ° åįİ
ĠS ome
å¿ĥ çģµ
åĽł èĢĮ
çļĦ ç¤¾ä¼ļ
çĽ¸ åıį
ä¸ĩ å¹³æĸ¹ç±³
Ġhow ever
æĲŃ å»º
Ġest im
re w
il i
å¼¹ æĢ§
çº¦ ç¿°
ĠIn t
åĽŃ æŀĹ
é¾Ļ å¤´
Ġtyp ically
ä¸į å¤ª
å¯¼ å¸Ī
æĮĩ ç¤º
ove red
å¾® åįļ
ä¸Ģä½ĵ åĮĸ
çĲĨ è´¢
å¿ĥ éĩĮ
åģı å¥½
O r
çŃī å¤ļä¸ª
å¸¸ çĶ¨çļĦ
ist ance
çį ²
Ġdire ction
Ġb ooks
åı¯ä»¥ æıĲé«ĺ
éĿ¢ åĮħ
è¯ķ åĽ¾
Ġhel ps
èĵĿ èī²
m on
ä¸į ä¸Ģæł·
å½ĵ äºĭ
ç®¡çĲĨ çļĦ
æī ĳ
å°¼ äºļ
h t
u it
ãĢĤ **
è´ º
å±Ģ éĥ¨
Ġ\( \
äºĨ ä¸ĢäºĽ
è®° ä½ı
æĸ¯ åĿ¦
è¡¥ åģ¿
ond on
åĴĮ æĶ¯æĮģ
åģ¥ åħ¨
ä¼ļ å¯¼èĩ´
ä¿¡ ä»°
è¯¥ åħ¬åı¸
åī§ æĥħ
åıĳ è¨Ģ
Ġt aken
çĶµ ç½ĳ
ĠP ol
åı¯éĿł æĢ§
i j
ic les
è¿Ļ ä¹Ł
åħ Ķ
æĪĳ å¸Ĥ
æĶ¯æĮģ åĴĮ
å¡« åĨĻ
ww w
Ġt as
ä¸įæĸŃ åľ°
æ·± è¿ľ
z z
il es
ĠB ar
èĻ ¹
åıį æĢĿ
$$ \
åŀĭ åı·
æ¡¥ æ¢ģ
å¤į åĪ¶
æĥħ å½¢
Ġch oice
Ġup d
é¢ĳ ç¹ģ
Ġinte gers
( -
ĠS ub
æīĵ åĩ»
in put
æĲº æīĭ
Ġexam ples
åħ¨ æĸ°çļĦ
å½ĵ ä»£
èĻ ķ
cre te
Ġa ffect
åı¯ åľ¨
åįķ çĭ¬
ç¨İ æĶ¶
omet imes
' ]
çļĦ å¤ĸ
d ro
N ew
ĠN et
Ġins ide
Ġ ä¸Ń
Ġ ill
ä¸ ĺ
ï¼ļ ãĢĬ
å°ı äºİ
éĥ½ å¸Ĥ
Ġfin ancial
Ġvol ume
æĬ« éľ²
Ġan ything
Ġrem ov
ä¸ĭ äºĨ
ĠM ore
åºĨ ç¥Ŀ
å¥ ł
Ġinf lu
Ġcommun ic
B ut
è¿Ļ åı¯èĥ½
å½ĵ ä½ł
çº§ åĪ«
çĪĨ åıĳ
åĭĩ æ°Ķ
Ġmem ber
ie f
æŃĮ æīĭ
çĶµåŃĲ éĤ®ä»¶
çŃ¾ çº¦
Ġbeaut iful
l i
åī µ
åıĤåĬł äºĨ
D E
Ġ ðŁ
çļĦ é¦ĸ
Ġp ick
ur ation
ĠD ep
åĩºçİ° çļĦ
çĥĺ å¹²
clud e
ä¸ĢçĽ´ åľ¨
çĶµè§Ĩ åī§
çĥŃ éĩı
çļĦ ç¬¬ä¸Ģ
Ġdep end
Ġs ound
è¡ į
è¿ĩ äºĨ
çĥŃ çĪ±
èĩªèº« çļĦ
Ġpri or
ä¼ļ å¯¹
æİ¥ å¾ħ
å½¢ å®¹
Ġfun d
ä» ²
æľī ä¸ĢäºĽ
å¤§ éģĵ
å°ı éķĩ
åĲ¬ è¯´
her n
Ġro ot
Ð ´
ä¸Ĭ å¹´
æ² «
å¿ĥ ä¸Ń
ĠG erm
äº Ń
æĪĲ æķĪ
ĠG ener
çļĦ é¡¹çĽ®
Ġd imens
å¥½ åĥı
Ġinclud ed
Ġever ything
> >
äºĨè§£ åĪ°
éĢłæĪĲ çļĦ
Ġb log
ar ily
åĬŁ æķĪ
çļĦ ä¸ĸçķĮ
èĥ½ åľ¨
Ġh or
ĠS un
éľĢè¦ģ çļĦ
ĠR ed
å¹¿ éĺĶ
åĳ¨ æľ«
åı¯ä»¥å¸®åĬ© æĤ¨
åĴĮ å®īåħ¨
å¤ĩ æ¡Ī
Ġsh own
ce l
ren ch
w ith
å¹´ åĪĿ
æĢ» ç»Ł
äºĨ å¯¹
ç®¡çĲĨ ä½ĵç³»
Ġco ordin
å±±ä¸ľ çľģ
ï¼ļ -
åħ¨ æĸ¹ä½į
çĶŁäº§ çº¿
èĳĹ ä½ľ
ãĥ ¼
åĮ Ļ
åįķ ä¸Ģ
ä»ĸä»¬ åľ¨
å§ĵ åĲį
æĶ Ģ
é«ĺ å³°
Ġrec ent
æĢ Ĵ
clus ion
è Ł
Ġ2 6
ĠCount y
Ġal most
h am
ĠA c
ĠA rt
2 50
ro om
è´¢ ç»ı
v ision
è½¬ è®©
i et
u fact
æĸĩ èīº
ä¼ł è¾¾
ĠR o
åİ» äºĨ
åŁºç¡Ģ ä¸Ĭ
ach ing
åĤ¨ åŃĺ
å½ Ń
æŀ ļ
å¤ļ æķ°
è¶ħ å¸Ĥ
in ite
Ġan g
æĬ¥ èŃ¦
å¯¹ å¾ħ
Ġset s
Ġide as
ä¸Ģ ä½ĵçļĦ
åĴĮ åĪĨæŀĲ
å®¶ éĩĮ
å¼Ģ åħ³
èµĦ åĬ©
p ath
Ġw all
éĺ² èĮĥ
çĶ¨æĪ· ä½ĵéªĮ
ç«ŀ æĬĢ
199 9
Ġcost s
k g
å¸ «
æł· æľ¬
éĺŁ åĳĺ
Ġpartic ip
Ph one
Ġc apt
è¾¹ çķĮ
è³ĩ æĸĻ
ä¸Ģ ä»¶
Ġn amed
çĶµ ä¿¡
éĨ ī
ä¸Ĭæµ· å¸Ĥ
k n
ä¸Ģ éĥ¨
æľī æĹ¶åĢĻ
å®Įæķ´ çļĦ
Ġbas ic
T O
çĤ ®
åĪĽ å§ĭ
æºĲ äºİ
å®¢ äºº
ç»Ħç»ĩ çļĦ
n ov
ä¾ ¯
ct ors
ç¿ Ķ
è®² åº§
èĭı å·ŀ
Ġfoot ball
å¥³ å£«
Ġdown load
a ctions
åıĳ ä½ľ
ĠM on
Ġnecess ary
Ġh ost
æ´ Ĵ
æľĢ éĩįè¦ģçļĦ
è¡¨çİ° åĩº
è¿Ļ é¦ĸ
éĿ¢ åīį
ĠT ra
å¸®åĬ© æĤ¨
ç»ĵæĿŁ åĲİ
Ġoffic ial
, âĢĿ
çĲ ³
Ġe ff
ä¸ŃåĽ½ æĶ¿åºľ
mm et
çļĦ æµ·
ä»¥ åħ¶
am s
å·® è·Ŀ
è® Ĭ
éĴ ¥
åı¤ èĢģ
1 10
Ġb ed
er al
åĳ½ è¿Ĳ
Ġp ers
Ġm ole
çľĭ çĿĢ
è½¬ è½½
çģµ æĦŁ
æķĻ æĿĲ
ap an
é¸ Ń
ä»Ĭ æĹ¥
ag ed
æ¬§ çĽŁ
çĪ¸ çĪ¸
ĠApr il
åĿ ĳ
åıĺå¾Ĺ æĽ´åĬł
Ñģ ÑĤ
ĠW ar
çļĦ åİŁåĪĻ
ä¸ī åĪĨ
est ion
è¾¾ åĪ°äºĨ
åķ ı
è¾ĥ å¤§çļĦ
äºĨä¸Ģ ç§į
Ġpress ure
e es
o e
æ³ķ äºº
ĠM c
æµģ éĢļ
èĨ ¨
ç§ĺ å¯Ĩ
åĮĸ å¦Ĩ
å¸Ĥ æĶ¿
Ġmod ern
èŃ¦ å¯Ł
Ġf ul
èĬ ½
ç»© æķĪ
ĠMat hemat
çİĩ ä¸º
Ġgre ater
çĶŁ çĲĨ
åĵ ¦
Ġun its
åľ° ä¸Ĭ
ç¨ »
è§Ĩ éĩİ
Ġcl os
éĺ² èħĲ
èģļ éĽĨ
stit ute
Ġmess age
ç» ³
om in
ä¹Ĳ è§Ĥ
é«ĺéĢŁ åħ¬è·¯
? ?
L P
at ives
éģ £
æĺİ å¤©
ä½¿çĶ¨ äºĨ
åķĨ åºĹ
ä¹Ĳ åĽŃ
ç»¿ åĮĸ
åĩ ¸
æ°´ è´¨
Ġ20 00
Ġdetail ed
ç³ĸå°¿ çĹħ
éļ §
çĭ ¼
å½ĵåľ° çļĦ
ç²® é£Ł
éĻ Į
å» £
Ġprob ably
f l
çŃ¾ ç½²
æĪĳ ä¹Ł
è°ĥ åĳ³
é© °
è§£ æŀĲ
æľª ç»ı
äº¬ ä¸ľ
Ġout side
åĪĿ å§ĭ
å¥ §
çº¿ æĢ§
Ġrel ative
çĶŁåĳ½ çļĦ
Ġc at
è¢« è®¤ä¸º
Ġse cur
ä¿® è®¢
åĤ ħ
çº³ ç¨İ
Ġoper ations
æľīè¶£ çļĦ
äºº éĥ½
çĿĢ åĬĽ
ag s
Ġw ent
çº§ çļĦ
è¯· æ³¨æĦı
æĿĥ éĻĲ
çļĦäºº åĳĺ
ç¯ Ģ
æľīåħ³ éĥ¨éĹ¨
Ġeas ily
åĨĴ éĻ©
Ġdefin ition
or age
èĬ± è´¹
å¯Į æľī
æ±Łèĭı çľģ
Ġtool s
æĺ¯ å¦Ĥä½ķ
å¼ ¦
åİŁ åĪĽ
Ġn ames
ï¼ī **ï¼ļ
æŃ£ éĿ¢
èİ ĵ
ç¶ Ń
Ġelect ron
D A
çļĦ çĽ®çļĦ
æĺ¯ ä¸ºäºĨ
åİ ī
æ¯ ħ
ĠIn st
Ġcare er
Ġfr ont
M A
o ly
al le
å± Ī
åı° åĮĹ
å±Ģ éķ¿
æĺ¯ä¸Ģ ä½į
so le
å¦» åŃĲ
å¦Ĥ æľī
h ood
åĽĽ å¤§
åĢ¾ åĲĳ
æĽ´ å¤§
åĲ¬ èµ·æĿ¥
ä¸İæŃ¤ åĲĮæĹ¶
} _
åıĺ å½¢
ĠF irst
åł ª
Ġrece ived
è®¸åı¯ è¯ģ
Ġf ace
åĩĿ èģļ
è¦ģ æľī
ç§ĳ æĻ®
å¢ŀ åĢ¼
åıĹ çĲĨ
å¤ ķ
åħ³ èĬĤ
å¿½ è§Ĩ
A ll
éļ Ļ
å¾Ī å°ĳ
ä¼ł æŁĵ
ç§¯ åĪĨ
æŀģ ç«¯
Ġcustom ers
S U
è·¯ ä¸Ĭ
å± ¬
Ġgr ound
åİ¨ æĪ¿
( (
E E
ä¿¡ æīĺ
åįģ ä¸Ģ
ç¢ §
æ³¨æĦı äºĭé¡¹
ĠÐ ¿
le ment
æķ° åĢ¼
åı¯ä»¥ å°Ĩ
Ġcon vers
Ġexpect ed
Ġchar ge
ä»¥ æŃ¤
èĬ Ĵ
Ġst ay
Ġde ep
æĬķ è¯ī
Ġcurrent ly
çªĹ åı£
Ġpract ice
æĺ¨ å¤©
è´ ¾
çī© ç§į
å¿ĥ æĢģ
Ġ8 0
æĦī å¿«
f ort
æľŁ è´§
å½ĵ ä»Ĭ
Ġnot e
çļĦ åı¯
Ġd am
l a
x x
ĠA g
ĠĠĠĠ ĠĠ
end er
å¹¼åĦ¿ åĽŃ
æľī å¤ļ
Ġo p
åŃ¦ åĳĺ
é¸ ¿
åĻª éŁ³
é¢Ħ çº¦
äºī åıĸ
å¿«éĢŁ åıĳå±ķ
t ers
åķ ¦
è¯Ń åı¥
Ġstart ing
ĠAust ral
ĠP re
åħ´ å¥ĭ
åĤ¨ å¤ĩ
ä¾ ł
ĠJ u
h ib
Ġuse ful
åĽĽå·Ŀ çľģ
l in
ä¸Ń åľĭ
éħ ¿
éĽĨ åĲĪ
éĩĳèŀį æľºæŀĦ
T P
ç§ĳæĬĢ æľīéĻĲåħ¬åı¸
äºĨ å¾Īå¤ļ
ä¸ĭ æ»ĳ
il on
éķ¿ åŁİ
å±± åĮº
ä»¥ä¸ĭ æĺ¯ä¸Ģä¸ª
Ġc hem
Ġd ouble
éĥ ¡
åĪĹ åĩº
ä¸¾ æİª
} ")
åı¯ä»¥ æıĲä¾Ľ
åĽ¾ å½¢
Ġunderstand ing
Ġprote ct
è¿Ļ æľīåĬ©äºİ
å¼Ģ å·¥
Ġcon ver
Ġ9 0
ren g
right arrow
Ġeffect s
^ \
è£ ½
ç«ĭ æĸ¹
èı ©
Ġro ad
èģª æĺİ
åĴĮ ä½¿çĶ¨
Ġb all
ar a
æľĢ é«ĺçļĦ
ä¸įæĸŃ åıĳå±ķ
Ġplay ed
æłĩ è¯Ĩ
con st
èĽ ĩ
èº«ä»½ è¯ģ
ä¸º ä½ł
Ste p
S C
çļĦ æķ°éĩı
it ude
æ³ķ å®ļ
æĶ¾ ç½®
æ¸© å®¤
è¿Ŀ è§Ħ
N o
Ġt itle
åľ¨ æŁĲäºĽ
Ġis n
æĹ ¬
åı¤ åħ¸
ify ing
åŃ¤ çĭ¬
Ġparam eters
çļĦ æ²»çĸĹ
Ġreg ion
Ġmil es
Ġs ix
ĠR et
ak er
çģ¯ åħī
Ġinc or
è½¦ éĹ´
sw ers
Ġfrequ ency
ä»¥ å¾Ģ
åı¯ä»¥ éĢīæĭ©
è´ ¤
ç« Ń
ä¸» æµģ
çķ ľ
Ġset t
æīİ å®ŀ
ä¹Ł éľĢè¦ģ
Ġsy mbol
Ġpack age
çŀ¬ éĹ´
Ġeff ort
æľī æľĽ
éĻ¤ æŃ¤
æ³° åĽ½
Ġredu ce
A d
A t
å¼Ģ è®¾
çĬ ¬
Ġpre t
Ġrele ased
äº¤ åıī
Ġhe ight
Ġro t
çĶ³è¯· äºº
st ep
Ġd ynam
èĪ ī
ĠD ata
æ²» æĦĪ
Ġappro pri
ä¸Ģ è¾¹
çļĦ ä½įç½®
å¤§ æ¦Ĥ
æĥ ©
Ġ$ (
ä½ľä¸º ä¸Ģä¸ª
æ¯Ķ çī¹
å¹³ ç¨³
ail y
å®¶ çĶµ
Ġex c
éĶĢ åķĨ
ĠT est
åŃĲ åħ¬åı¸
è¿Ĳ ç®Ĺ
l ength
åĢŁ åĬ©
b in
ãĢģ âĢľ
B ob
ä¸ Ī
åĲİ æľŁ
æĬĵ ä½ı
èĥ½åĬĽ çļĦ
Ġlead ing
ä¸į æĺĵ
æµ ĩ
ç§» æ°ĳ
Ġacc om
åĴĮ æ²»çĸĹ
ä¸į å¼Ģ
Ġst ra
åĩĨ åĪĻ
Ġequ ival
b or
c hen
ä¹ĺ åĿĲ
am ples
åĬĽ åŃ¦
åĨħ å¤ĸ
æĻºèĥ½ æīĭæľº
ä¸ŃçļĦ åºĶçĶ¨
Ġ200 9
çļĦ ä¸ľè¥¿
åĵ Ń
éģ ®
åĵģ çļĦ
18 0
at ory
æ± °
è¢ ĸ
åĬł éĩį
æİĪ äºĪ
[ '
åľ° æĿ¿
ç»Ł çŃ¹
å¯¼ ä½ĵ
èĪª çıŃ
åĭĩ æķ¢
ĠF rom
èģĮ èĥ½
é¼ İ
Ġlong er
æ± º
åŃ¦æł¡ çļĦ
ty pe
çķª èĮĦ
åĴ Ĵ
ä¸į ç¡®å®ļ
ä¹Ĳ è¶£
ä½İ æ¸©
çĪ± å¿ĥ
éĥĳ å·ŀ
l n
Ġab ility
è¿İ æĿ¥
ä¼¦ æķ¦
æ²³åįĹ çľģ
á º
åĲĪ è§Ħ
å¤į å·¥
to p
ä¸º å¤§å®¶
é¥Ń åºĹ
Ġsecur ity
i ber
éħį éĢģ
éł ĺ
L ist
å¥½ å¤Ħ
ĠA ut
ĠP e
Ġhe at
äººåĳĺ çļĦ
Ġsc ri
åľ ĸ
Ġf avor
ä¼ł è¯´
ĠA f
åıį èĢĮ
åı¯ åĨįçĶŁ
ä¾¿ æĺ¯
èĹ ¤
å¼ķèµ· çļĦ
åĤ¬ åĮĸ
ĠG oogle
Ġrecomm end
äºĭ çī©
çľĭ è§ģ
ĠIntern ational
åĶ®åĲİ æľįåĬ¡
h ing
ol ute
ĠJ une
â Ĥ
è¡ Ķ
ä¸ĭ è·Į
Ġim ages
Ġmaterial s
å¹¶ å¯¹
æİĴ æ°´
åĲ¸ éĻĦ
Ġsc ient
å±ķç¤º äºĨ
Ġhapp y
å¸Ĥ éķĩ
Ġde ath
éĺ² çĸ«
pl ot
çĻ¾ ä¸ĩ
AP I
B e
N e
| |
æĺ¯ å¤ļå°ĳ
è¯Ħ ä¸º
è¦ģæ±Ĥ çļĦ
c irc
o es
å¤§ åŃ¸
é£ ¾
ç®Ģ åĮĸ
Ġapp ly
å° Ī
æĦıè¯Ĩ åĪ°
é«ĺ éĵģ
ĠCl ass
ä¾µ æĿĥ
Ġcorresp ond
çļĦ æīĢæľī
ç¬¬ ä¸ĥ
æ°ĳ çĶŁ
åı° çģ£
åĪ¶éĢł åķĨ
ä¸ªæĢ§ åĮĸçļĦ
çļĦ åŁİå¸Ĥ
ç² ¤
ac hed
ens ion
Ġc ook
å¼Ģåıĳ èĢħ
èĥĮ åĲİ
è¶ĬæĿ¥è¶Ĭ å¤ļçļĦ
çļĦ ä¸ĢäºĽ
in ter
ĠB u
Ġform er
ç¤¼ çī©
åŀĤ çĽ´
æŃ ·
ĠM arch
Ġ3 2
å¤ľ éĹ´
a el
er ve
it ation
ä¸Ĭ ä¸Ģ
id ay
Ġ200 6
hes is
çľŁ ç©º
] [
è§£ è¯»
å¸¸ åĬ¡
æ¢ ¨
åİ¦ éĹ¨
ãĢ Ķ
éķ¿ æ²Ļ
Ġv i
r ast
Ġw rong
è¯´ è¯Ŀ
å¯¼ èĪª
at ur
ou b
è° ľ
æ°ĳ èĲ¥
çłĶç©¶ ä¸Ńå¿ĥ
ap ter
éĺ ģ
åħ± è®¡
æ·± åıĹ
æħ ķ
Ġspe ct
çºª å¾ĭ
ãĢ ķ
Ġd ivid
åĭ ĺ
æĭħ å½ĵ
çī¹æ®Ĭ çļĦ
Ġassist ant
Ġassoci ated
o oth
åı¯ä»¥ æĺ¯
æ¼ ł
cre t
å« ©
æł ½
å±ķ ä¼ļ
çĽ´ å¾Ħ
Ġscri pt
I F
åľ¨ ç¾İåĽ½
Ġe p
èĥ ĸ
å°ģ éĹŃ
åºŁ æ°Ķ
éĻĨ ç»Ń
ä¸» æ¼Ķ
æĺ¯ä¸Ģ åĲį
ä»ĭ è´¨
æĪĳ å¾Ī
å¤ļ å¹´æĿ¥
ĠA ct
é»ĳ æ´ŀ
ä½ĵçİ° äºĨ
çĶ¨ çĶµ
Ġit em
éĴ ®
oci ety
ä¸Ĭ çº¿
ä¼ĺ å¼Ĥ
åħĭ åĬĽ
ç»§ æī¿
" ï¼Į
æķ° ä¸º
åħħæ»¡ äºĨ
æĿ ī
éĢ ¼
ï¼ļ ```
åħ¨ ç¨ĭ
åıĬ ä»¥ä¸Ĭ
Ġn ature
ce ler
O ut
n omial
çŃī å¤ļ
ç»ĵ å©ļ
Ġr ound
ĠA ir
çĽ® çļĦæĺ¯
pt ember
ãĥ »
äºº éĻħ
å¯ ¨
Ġan gle
çŃī çļĦ
å¯Į åĲ«
æĹ¶ä»£ çļĦ
ä¸ĵä¸ļ æĬĢæľ¯
ç½Ĺ é©¬
æ±¡æŁĵ çī©
åĪĨ åħ¬åı¸
å¤± ä¸ļ
ç¶ ²
T V
éľ ľ
æİĴ éĻ¤
ÂłÂł ÂłÂł
Ġl ooks
ä¹¦ éĿ¢
åĳĬ çŁ¥
Ġb oard
å°ı ç±³
å®īåħ¨ åĴĮ
ç¼º éĻ·
ä¸įå¾Ĺ ä¸į
ic a
ç²¾ ç»Ĩ
æĵįä½ľ ç³»ç»Ł
åĩĨç¡® åľ°
Ġbel ieve
åħ ĳ
æµ· æĭĶ
C A
è¡ ¬
Ġm ap
ä¸ĵ ç§ĳ
ĠJ ava
çİ© åħ·
æıĲä¾Ľ ä¸Ģä¸ª
èĲ¥ æĶ¶
éĵ¶ å±ĳ
è¾£ æ¤Ĵ
12 3
æĲ ı
åľ¨ ä¸Ģ
åįĹ éĥ¨
æ±ĩ çİĩ
åĪ¶ åĨ·
åľº çļĦ
æī« æıı
çĶ¨ äºº
ur ance
çºł çº·
éĩį çļĦ
å°ĳ çļĦ
ä¸¤ ä½į
ç©¿ çĿĢ
k i
æĪĳ éľĢè¦ģ
ä¸ĭ ä¸ĢæŃ¥
æŃ¥ è¡Į
æ´»åĬ¨ ä¸Ń
éľĢæ±Ĥ åĴĮ
Ġeffect ive
Ġlevel s
æ»¡æĦı åº¦
çļĦ ä¸įåĲĮ
pt y
Ġwon der
Ġeduc ation
åµ Į
ä¸º ä¸»é¢ĺ
or ph
æĬķ ç¥¨
åĩı éĢŁ
åİĨåı² ä¸Ĭ
Ġve h
n y
çłĶ åĪ¶
åĻª å£°
ï¼ ĳ
ãĢĤ (
å½ĵ ä¸ĭ
åĪĹ è½¦
iqu es
åĨ¥ æĥ³
m ark
ä¿ ±
è¿Ĳ è½¬
èĳ ¬
Ġ ä¸ª
Ġs n
il s
ä½ĵ åĨħ
ç»ıæµİ çļĦ
Ġacc ur
u el
Ġl ate
Ġl iving
æĢ» å±Ģ
åĬŀ äºĭ
æ¶² åİĭ
` ,
æľī è®¸å¤ļ
Ġ2 9
ç®Ģ ä»ĭ
B S
Ġhe ld
éļ§ éģĵ
ä¸Ńå°ı ä¼ģä¸ļ
åĴĮ å»ºè®®
ç»Ħ ä»¶
åĪĿ å¿ĥ
æķ£ çĥŃ
W ith
çļĦ ç¾İ
çļĦ æĥħæĦŁ
re ate
æľī åĬĽ
Ġthrough out
æľīä¸Ģ å®ļçļĦ
Ġext ra
f fe
å· ¢
ĠGr oup
è¡ ·
èµ· çĤ¹
å·² çŁ¥
h a
ot es
äº¤éĢļ è¿Ĳè¾ĵ
åĮ ł
æŃ ī
å¼ķ çĶ¨
Ġplay er
åıĳ å°Ħ
åĨħ èĴĻåı¤
æ¯ı æľĪ
äººå·¥æĻºèĥ½ çļĦ
ĠI I
æģ ¼
è¿Ļä¸Ģ çĤ¹
æ¯ĶèµĽ ä¸Ń
é Ĭ
å¼Ģ å¹ķ
è§£ æĶ¾
æ» ŀ
H E
ä»¥ æıĲé«ĺ
æĸ° å»º
Ġfe ed
çĪĨ çĤ¸
Ñ ĩ
æĦŁ åĬ¨
éĶħ çĤī
æŁ´ æ²¹
ä¸Ģ ç»Ħ
åĴĮ é«ĺ
èĤ ´
éŁ ¦
ä¾¿ äºİ
Ġact ual
ä¹ĭéĹ´çļĦ åħ³ç³»
æĪĳ åħ¬åı¸
ren cy
ç»ĦæĪĲ çļĦ
S O
å·¥ä½ľ èĢħ
åĪĽ ç«ĭ
Ġse c
æŃ¦ åĻ¨
Ġs low
çĽ¸åħ³ éĥ¨éĹ¨
Ġdeg ree
u ed
ä¸į å¤ļ
ç«ĭ è¶³
åıĳçĶŁ äºĨ
ä¼° è®¡
è°¨ æħİ
ï¼ ı
å°Ĩ æĪĲä¸º
Ġpro pos
æĬĢæľ¯ åĪĽæĸ°
Ġch o
Ġess ential
v is
ä¸į åıĹ
ur g
æ°´å¹³ çļĦ
ç¬Ķ è®°
Ġatt empt
ĠL ist
æīĢéľĢ çļĦ
ab ase
è®© ä»ĸä»¬
ard s
ä¾¿ å®ľ
èª į
Ġ200 8
åı¯ä»¥ çĶ¨äºİ
ç»Ħ å»º
åľ¨ åħ¨çĲĥ
ä¸¤ æ¬¡
min ist
O ne
P M
ä¸º ä¾ĭ
åıĳ èµ·
æĮĩ ä»¤
çĻ½çĻľé£İ æĤ£èĢħ
Ġc ause
åıĭ è°Ĭ
Ù ħ
Ġst ation
ĠL ondon
æľ¨ æĿĲ
ä¹Ł åı¯èĥ½
åİŁ åŃĲ
çĶ· åŃ©
éĻ· åħ¥
Ġach ieve
ĠTe chn
am ma
æĩ Ī
çĻĮ çĹĩ
à ¦
åľ¨ åħ¨åĽ½
è®¾è®¡ åĴĮ
è¡¥ åĬ©
P T
æ¯Ķ äºļ
çģ« è½¦
ä¸Ģæ¬¡ æĢ§
Ġfor ward
Ġn p
æī© å¼ł
Ġlar ger
çļĦ æ°Ķ
æľº åºĬ
ĠC O
æľįåĬ¡ ä¸ļ
ä¸¤ èĢħ
çļĦäºº çĶŁ
éĽ» å½±
ä½¿çĶ¨ å¯¿åĳ½
Ġres ources
ç¬¬äºĮ ä¸ª
èĨ ı
åĪĳ äºĭ
åħ Ĩ
çľ ī
ä»Ĭ åĲİ
åħ¬ å¯ĵ
åĴĮ å¯¹
æĹ¥å¸¸ çĶŁæ´»ä¸Ń
â ĸ
æīį ä¼ļ
éĻ¤æŃ¤ ä¹ĭå¤ĸ
è¿ŀ éĶģ
Ġread ing
æĺ¯ éĢļè¿ĩ
æĹł çĸĳ
ĠIn c
ç¿ ł
å¡ĳ éĢł
å¿ł è¯ļ
htt ps
Ġ é¥°
éĢ ¸
ĠP res
éĽķ å¡ĳ
å· ¾
ä¸º äºº
Ġpl atform
hen s
uc le
ä¸º ä½ķ
è¦ ĭ
çĶµ ç£ģ
ä¸įæĸŃ çļĦ
ä¸ºæĤ¨ æıĲä¾Ľ
ĠPh ys
ĠJan uary
an ch
çĪ µ
ä¹¡ éķĩ
Ġt ree
st ract
åįģ åħ«
åĽ¾ æ¡Ī
çª Ħ
çº¦ å®ļ
å½ķ åĪ¶
f ord
éĢ ¢
Ġh our
åıĹ çĽĬ
199 8
éĽ¶ ä»¶
A fter
Ġf ire
ou ch
éģ Ĭ
ce ed
åıĹ ä¼¤
åł ±
Ġconc ern
çļĦ æĸĩåĮĸ
ä»¥ä¸ĭ æĺ¯ä¸Ģ
ĠÐ ²
çļĦå¤§ å°ı
ä¸į èµ·
Ġre place
ç³» æķ°
Ġpre m
Ġoff ice
ç¼© çŁŃ
i ency
í ķ
åı¯ä»¥ ä¸º
Ġn ice
çľĭ åĩº
éĹ¨ ç¥¨
çħ İ
ä»Ĭå¤© çļĦ
ä¸Ĭä¸ĭ æĸĩ
æ¬§ åħĥ
å»¶ ç»Ń
ï¼ Ĳ
ome ga
ä¼ļ å½±åĵį
å°Ĩ ç»§ç»Ń
Ġpre vent
Ġrequ ires
åī© ä½Ļ
Ġbro ad
æ´ ½
ä½ĵ ä¼ļ
çĸ ¹
Ġte le
éĻĦ ä»¶
Ġhist or
åı¯ è¾¾
æĽ °
ä¸» äºº
èĥ º
å¿« æį·
ĊĠĠĠĠ Ġ
è¿Ļ å°±
ĠI N
sel ves
çļĦ åħ¬åı¸
Ġl oop
æł¡ åıĭ
åįĹ æĸ¹
ç¤¾ä¼ļ ä¸»ä¹ī
åįģ ä¹Ŀ
æµİ åįĹ
ĠJ apan
Ġtra in
çİī ç±³
Ġactiv ities
æ° £
ite ct
ä»ĺ åĩº
åı« åģļ
éŃĶ æ³ķ
ĠE m
åĮĹ éĥ¨
æĹ¥å¸¸ çĶŁæ´»
éģŃ éģĩ
ĠD ec
éĺ¿ å°Ķ
ä¾Ŀ æĹ§
å¾ħ éģĩ
. âĢĿ
çĶµ ç«Ļ
æī¶ æĮģ
ä»¥ä¸ĭåĩłä¸ª æĸ¹éĿ¢
å® ª
è®© ä»ĸ
é¢Ħ èŃ¦
çģ« éĶħ
è¿½ è¸ª
Ġdevelop ed
æµĻæ±Ł çľģ
è¿Ļ ä»½
âĢĿ ï¼ī
ç´ ļ
èĥ½å¤Ł åľ¨
éĥ½ æ²¡æľī
è£ ¤
ä»ª è¡¨
å¿ĥçĲĨ åģ¥åº·
æ·ĺ æ±°
Ġchall eng
D ata
an ish
å¢ĥ å¤ĸ
é¢Ħ æĬ¥
åİĨ ç¨ĭ
é ĳ
ä¸Ģ åĢĭ
å»ºè®¾ çļĦ
éĩĩçĶ¨ äºĨ
åĽ½ äº§
B M
æį ī
èĤ ¢
éĥ½ éľĢè¦ģ
é½Ĳ åħ¨
æļĤ æĹ¶
ç»ı è´¹
è£ ķ
åįģ äºĶ
w orks
ç²¾ å¯Ĩ
å¹´è½» çļĦ
å¤©çĦ¶ æ°Ķ
g ra
çļĦ æ´»åĬ¨
çļĦ è¡¨çİ°
åı¯ä»¥ çĶ¨
èµ· éĩį
åħī ä¼ı
ĠJ ust
èĳ Ľ
ĠK ing
éĢļå¸¸ ä¼ļ
Ġyour self
éĢīæĭ© åĲĪéĢĤçļĦ
æī© æķ£
Ġcompon ents
et ime
ä»» æĦı
æ¨ Ļ
éĨ Ľ
Ġ200 5
% %
G iven
ä¸Ģ éģĵ
Ġb ad
Al ice
å¾ģæ±Ĥ æĦıè§ģ
å¾Ĺ åĪĨ
çľĭ åĪ°äºĨ
èģĮ ç§°
çıŃ çº§
ç«ŀäºī å¯¹æīĭ
Ġvari ety
Ġhe av
èĢĲ ç£¨
Ġ200 7
A G
f unction
æĪ Ī
åľ¨ å®ŀéĻħ
çİ Ħ
åĩº åĶ®
å¾Ĺ åĩº
åĿ Ŀ
æĦŁ æģ©
æķ°æį® åĴĮ
çİĩ åħĪ
ç§ĳåŃ¦ éĻ¢
åĨł çĬ¶
Ġelect r
çļĦ çĶµå½±
åĪĨ æĪĲ
æľ¬ åľŁ
Ġpro of
åıĹ ä¼Ĺ
æĺ¾ çĦ¶
è´¦ åı·
åİ Į
æĽ´ æĶ¹
è¿ĩç¨ĭ ä¸ŃçļĦ
åĳ½ åĲį
äººæīį åŁ¹åħ»
ä»£ æĽ¿
éĩİ çĶŁ
æįĲ èµł
çļĦ æĢģåº¦
ä½ Ĳ
åŃ¦ æľŁ
æµģ çķħ
Ġcom ment
åİŁ æĿĲæĸĻ
åĩł çĤ¹
æĳĦ åĥı
Ġref lect
Ã ¶
or ation
ä½į æĸ¼
éļĲ èĹı
ç§ī æī¿
` ï¼Į
Ġo dd
ä½ľ çī©
ä¸ĩ ç¾İåħĥ
åįģ åĽĽ
Ġso on
å¼Ģåıĳ åĮº
æ²ī æ·Ģ
L C
Ġs le
ä½Ļ äºº
}$ ,
å½ĵäºĭ äºº
kn own
Ġ ri
he st
åĴĮ æķ°æį®
æľī åı¯èĥ½
å¥½ è¯Ħ
te x
ĠDe f
ç· ¨
åĴ ¸
Ġl iter
Ġcomp os
ç§ĳæĬĢ çļĦ
or ial
ä¸ļ ä¸»
éĶ Ĥ
U N
åĨħ åľ¨
æłĩ è®°
æľª èĥ½
çº³ ç±³
çĶŁ æĹ¥
æľĭåıĭ ä»¬
( [
Ġn ational
æ¢ ³
Ġwork ed
èĵ ¬
è¦ģ åľ¨
æ² ¸
ist ry
Ġ3 1
ç¼´ çº³
Ġview s
æĢ ¨
åĬł åī§
ç´ Ģ
ĠP ost
éĵ ĥ
äº¤ ä»ĺ
å¥³ äºº
ä»·åĢ¼ çļĦ
Ġco e
åı¯èĥ½ä¼ļ å¯¼èĩ´
å¼ ·
Ġp an
ç³»ç»Ł ä¸Ń
Ġm id
Ġal gebra
Ġex change
åįı åķĨ
Ġass ign
æ¾³ éĹ¨
Ġbl ue
çıį æĥľ
Ġbeh ind
i i
ä¸į åĪ©
Ġfin ite
çŃĽ éĢī
æł¡ åĮº
Ġproject s
k m
åı¯ è§Ĩ
é«ĺ æĸ°æĬĢæľ¯
å±Ĥ çļĦ
Ġconst ruct
ä¸º æŃ¢
Ġde cre
æĳ Ĭ
rac y
Ġcre ating
r s
Ġc am
å®ŀ åľ°
åŁŁ åĲį
Ġmov ing
Ġt er
éĹ ¸
çļĦé«ĺ åº¦
e ks
Ġin j
Ġdescrib ed
å¸ Ĩ
Ġd est
Ġg reen
å¤ª å¹³
P r
d om
çļĦ ä¸ŃåĽ½
å¦Ĥ åĲĮ
å°ı ç¨ĭåºı
åĪĽå§ĭ äºº
Ġsh ape
r ound
ä¸Ń èį¯
åŁº çĿ£
éĢĤ å®ľ
å¹³åı° çļĦ
com p
Ġrat io
æľº çĶµ
ĠSe ptember
Ġmem ory
Ġpie ce
Ġge omet
åĪ¶ æĪĲ
ç§ĳ å¹»
çº¿ æĿ¡
Ġcont ract
åĪĨåĪ« æĺ¯
Ġconf ig
ç´« å¤ĸ
Ġprim ary
Ġpriv ate
Ġbehav ior
ess ion
f ield
åı¸ æľº
ä¸ľ éĥ¨
åĩł å¤©
I ON
ĠCh ina
Ġlar gest
a e
ä¸Ģ éĥ¨åĪĨ
éĥ½ å¾Ī
^{ \
æĺ¯ å¾Ī
åĴĮ æĮĳæĪĺ
Ġconst ruction
çĶĺ èĤĥ
è¿Ļ å®¶
è¡Į ç¨ĭ
å¤ļ äºº
éĿ¢ ä¸Ĭ
è¿ĩåİ» çļĦ
} =
Ġa w
åĴĮ ä¸į
Ġre ference
èī ĩ
åıĭ å¥½
èĴ¸ æ±½
åľ¨ ä¸įåĲĮ
çĶ¨ èį¯
åīį è¿Ľ
Ġst reng
äº® çļĦ
Ġmin imum
éļ Ľ
èĮ ħ
Ġtreat ment
s igma
re ed
æī¹ è¯Ħ
çĺ ¦
Ġpub lished
æķĻèĤ² çļĦ
ãģ Ļ
è±ª åįİ
èĲĿ åįľ
æĪĳ éĻ¢
as ons
$$ .
com ing
d es
è®¤ åĲĮ
Ġwor th
åıĳçĶŁ çļĦ
Ġ vert
âĢ ĭ
åĮº åĪĨ
çĸ ¯
è°ĥ è¯ķ
è¶ħ å£°
é¹ ħ
ä¹ĥ èĩ³
ä½Ĩä¸į éĻĲäºİ
L e
æŁ ¯
ç¼ ¸
çĭ ±
åĤ ²
è¯ŃéŁ³ è¯ĨåĪ«
Ġparam eter
enc ies
m ission
Ġ Â·
ä¸Ģ è¡Į
åĴĮ å·¥ä½ľ
äºº ä¸İ
ä¼łç»Ł æĸĩåĮĸ
P A
f low
ä»¥ å¤ĸ
æ£Ģ å¯Ł
è½» è½»
å¿ĥçĲĨ åŃ¦
é«ĺæķĪ çļĦ
åı¯åĨįçĶŁ èĥ½æºĲ
Ġp ark
èĩª è§ī
ç¬ ¼
çķ ı
éĹ¨ çªĹ
åħļ å»º
æ¢ Ŀ
Ġstud ent
ĠE arth
éĢ² è¡Į
Ġdef ault
Ġs il
ĠA re
å¹¶ ä¸º
Ġsp aces
ĠAl so
V R
Ġ velo
Ġw atch
ä¸į è®º
ar ter
åĽŀ é¡¾
çĳ Ł
Ġcontin ue
} -
or ge
Ġman ufact
h o
ĠW est
pl ies
æĪ¿ äº§
åĮ»çĸĹ ä¿Ŀåģ¥
ce mber
æľĢ åħ·
äºı æįŁ
Ġpret ty
ä¸į æĥ³
ä½Ĩ æĪĳ
å¦Ĥæŀľ æĺ¯
ĠIn ter
20 23
åĪ¤ åĨ³
çļĦ ç»ĵæŀĦ
é«ĺ åĵģè´¨
Ġit er
åģĩ æľŁ
æ·±åľ³ å¸Ĥ
Ġcl ick
ä¸ļ çļĦ
å¹¶ ä¸İ
è§£ éĻ¤
Ġinterest ing
Ġdem on
Ġinvol ved
æĵħ éķ¿
k a
æ¶ Ľ
çĲĨ å·¥
éĵ Ń
ç¦ ½
Ġup on
è½¬ åĲĳ
è´¨éĩı åĴĮ
Ġpart y
çĳ °
Ġobject s
Ġw ood
åĬł æ²¹
æľ¬ åħ¬åı¸
Ġst aff
èģĶ éĤ¦
åĨħå®¹ çļĦ
èĭ¥ å¹²
Ġc m
ĠH er
ĠAug ust
æ³¨ åħ¥
æİ¢ æµĭ
å¼ µ
Ġf ixed
oc ol
ove mber
åľ¨ æĸ°
åħ¬ åħĥ
ve y
## ###
ĠD ist
ç½ĳç»ľ å®īåħ¨
199 7
æĳ© æĵ¦
r ate
å¸ ¶
èĥĮæĻ¯ ä¸ĭ
äºĨ è®¸å¤ļ
æī¿ è½½
Ġadj ust
Ġm ix
åı¯ä»¥ èĢĥèĻĳ
åĲį è¯į
åĩĨç¡® çļĦ
Ġder iv
s ource
ig en
Ġbe comes
åı· çº¿
Ġevery one
r ors
us ion
åĶ ¤
ĠS et
æĵ Ĭ
çĵ £
åŁºæľ¬ ä¸Ĭ
è¯Ĭ çĸĹ
Ġoper ation
æº¶ æ¶²
ĠSci ence
Ã ¤
çļĦ æķĻèĤ²
Ġcol lection
n o
éĤ Ħ
åĪĩ åī²
ĠChe ck
ou ra
Ġ1 000
ous ly
Ġsa fe
S c
æĹ ±
åľ¨ å¤§
è¿ĩ æķı
æĪĳä»¬ ä¼ļ
ä»İ å°ı
ĠE ach
è´Ŀ å°Ķ
Ġsk ills
æĬ ĸ
Ġdig ital
ele br
äºº å¿ĥ
ä¾ ¦
åĪĨ æĶ¯
åįĩ é«ĺ
å¨ ĥ
ä¸¾ æĬ¥
èĿ ¶
Ġquick ly
Ã ¼
Ġon es
æ¨¡ æĿ¿
èģĮ åĬ¡
Ġprodu ce
Ġph one
åĮħæĭ¬ ä½Ĩä¸įéĻĲäºİ
æī¿ è®¤
Ġdem and
r is
Ġf ields
çŃī æĬĢæľ¯
å¸Į èħĬ
Ġprovid ing
æĽĿ åħī
ä¿¡ å¿µ
æĹł æķ°
b ed
ä¸Ģ åĲĮ
åķ ¤
å°ı å¿ĥ
åıĹ åĪ°äºĨ
åĳĺå·¥ çļĦ
è¿ĩ æĿ¥
Ġc and
ĠS an
å»ºçŃĳ çī©
è®² è¯Ŀ
å³ »
Ġco ol
èĦļ æľ¬
We b
è¿Ń ä»£
Ġl ost
ç«ĭ æ³ķ
te e
æŀĹ ä¸ļ
ĠAn g
èŃ¦ æĸ¹
åħ¬åĬ¡ åĳĺ
å®ĥ åı¯ä»¥
Ġ5 00
ä¸Ńå¿ĥ çļĦ
äºĮæ°§åĮĸ ç¢³
d iv
t es
è¿ĩ å¤ļ
ä¹Ł ä¸º
ä¸įæĸŃ æıĲé«ĺ
æķ£ æŃ¥
æĭį åįĸ
æĦ Ľ
Ġg ain
ç»Ļ å¤§å®¶
Ġim medi
æĪı åī§
ens or
ä¿ĥ éĶĢ
éģĩ åĪ°äºĨ
Ġsmall er
çļĦ éŁ³ä¹Ĳ
Ġf a
id ity
ä¼ģä¸ļ åľ¨
æ¸¯ åı£
ĠOct ober
çļĦ éĢŁåº¦
ä½ł åľ¨
ä¸» å¯¼
åĮĹ æĸ¹
ell ow
ä¾Ŀ çħ§
Ġsc reen
æĺ Ń
éľ ŀ
åĲĦ çķĮ
Ġset ting
Ġann oun
ä¹ĭ æīĢä»¥
ĠH ar
Ġprogram s
å· ©
æĪĲ åŀĭ
çĶ· äºº
èĦ Ĭ
Ġcl osed
åĵª ç§į
Ġarg ument
ĠÂł ĠÂł
z h
æľ¬ å±Ĭ
åľĨ å½¢
æŀ ¢
åħ¥ éĢī
ä¹Łå°±æĺ¯ è¯´
we et
çĲĥ è¿·
é» ı
Ġcl ub
ç¥Ŀ ç¦ı
éĸĭ å§ĭ
ht ml
éĩį ç»Ħ
èĤ¡ ä»·
çīĽ èĤī
' '
ç»ıæµİ ç¤¾ä¼ļ
æĮī éĴ®
ç»ı éĶĢåķĨ
ĠD et
ä¸ªäºº ä¿¡æģ¯
åİļ åº¦
ip ment
Ġprogram ming
æŀ ¯
çŃī çĽ¸åħ³
ĠD r
æŀĹ åĮ¹
æ³¡ æ²«
Ġelect ric
é İ
çİ¯å¢ĥ æ±¡æŁĵ
âĶĢ âĶĢ
äºº æĢ§
Ġp air
æĪĳ å°±
ä¿® æŃ£
Ġsc en
I V
è¿Ļ æĹ¶
ä¼ł åªĴ
åĸľ å¥½
Ġsol d
Ġdec ision
Ġ !
çļĦ ä½ľåĵģ
æľī æľºä¼ļ
Ġd ensity
éĩĮ ç¨ĭ
éĴ ł
Ġr ules
åī¯ ä¹¦è®°
Ġind ependent
el t
ä¸»è¦ģ çĶ¨äºİ
Ġwant ed
s u
à ¥
åĪ° ä½į
Ġappropri ate
çļĦ æīĭ
ä¸ī æĺŁ
è± «
æĹ© é¤Ĳ
åºŁ å¼ĥ
é¢ĨåŁŁçļĦ åºĶçĶ¨
F i
ä¹Ł ä¸įä¼ļ
éľĢè¦ģ åľ¨
Ġdis e
å·§ åħĭåĬĽ
é©¬ ä¸Ĭ
æĽ´å¥½åľ° çĲĨè§£
åĴĮ åĪĽæĸ°
æľº åĬ¨
åįģ å¤§
æ½ Ń
æĲľç´¢ å¼ķæĵİ
z a
åįģ åħŃ
åŃ¦ä¹ł çļĦ
Ġpl ant
ç§ģ äºº
Ġrem ove
result s
al ysis
ãģ Ħ
ĠÐ ¸
Ġplay ing
Ġbr and
ä¸º ä¼ģä¸ļ
å¤ĩ ä»½
èĦ ¾
å©ļ ç¤¼
åĢ¼å¾Ĺ ä¸Ģ
çļĦ éĢļçŁ¥
è§ģ è¯ģ
Ġgo es
Ġhy pot
è ¬
ä¹ĭ æĹħ
æł¼ åħ°
15 00
åħ¶ä¸Ń åĮħæĭ¬
çľŁ è¯ļ
so ft
åº§ è°Ī
èĮ¶ åı¶
Ġsa ve
æĴ° åĨĻ
Ġstra ight
èĢģå¹´ äºº
çļĦ åħ¨
æĪĳ çľģ
åĮħ å®¹
Ġdri ve
$ -
i os
Ġr ule
çĻ¾ å¹´
Ġact ivity
çĩĥ æ°Ķ
m ar
çļĦ æ¦Ĥå¿µ
Ġext reme
k en
z y
â ĨĴ
ç§ĳ çĽ®
éĻ¢ å£«
æ¸¸æĪı çļĦ
è¿ĲåĬ¨ ä¼ļ
Ġem pty
ä»ĵ åºĵ
Ġestab lished
ĠF rench
èİ· å¥ĸ
åı£ ç¢ĳ
æĶ¯ æı´
Ġar ri
èµĭ äºĪ
Ġtrad itional
å¥ł å®ļ
ĠJu ly
ä¸ĭ ä¸Ģ
åīį æľŁ
å¸¸ çĶ¨
te red
è®° è½½
è´Ł èį·
ĠEx p
æµ· æ»©
ĠO ther
ĠO ff
Ġcomp ared
Ġsc ience
é¥° æ¼Ķ
èį· åħ°
Ġpoly nomial
E C
H z
çļĦ çĬ¶æĢģ
ä½ł å¯¹
æ³¨ æĺİ
ich ael
éĿŀå¸¸ æľī
åĿĩ ä¸º
è»Ĭ ç«Ļ
wh ich
am a
åįĬ å¯¼ä½ĵ
å¿ĺ è®°
ä¿¡ èªī
Ġrece ive
Ġf ram
çİ¯å¢ĥ åĴĮ
æģĲ æĥ§
åıĳ éħµ
Ġy es
åĪĹ åħ¥
Ex ternal
it able
ç»Ļ äºº
Ġintern ational
ic it
éĢī ä¸¾
åı£ èħĶ
å½¢æĪĲ çļĦ
é¹ °
Ġrequire ments
I G
çļĦ åıĳçĶŁ
è® ĵ
Ġh on
å¹¶ æľª
s ize
in ct
èĨ Ģ
çģµ éŃĤ
Ġtrans fer
Ġincre asing
is ions
Ġover all
æıı ç»ĺ
Ġsub t
Ġcell s
} }\
åĪ¶ èį¯
ĠB ro
Ġte ac
å·´ å·´
éĢĤåĲĪ èĩªå·±çļĦ
Ġeconom ic
Ġc opy
ä¸Ń çŃī
Ġus age
ä¸»è¦ģ çļĦ
åħ» æĪĲ
Ġim ag
ç¬¬äºĮ æ¬¡
è·ĳ æŃ¥
Ġeval u
åı Ķ
åľ¨ æł¡
E rror
` .
å¹´ ä»¥æĿ¥
è¨ ĺ
we b
è°· æŃĮ
çĽ¸å½ĵ äºİ
Ġdemon str
ä½ĵ çİ°åľ¨
num ber
æĹ¶éĹ´ ä¸º
Ġexp on
ĠInd ia
æ³Ħ éľ²
Ġm icro
ç© ´
ç©¶ ç«Ł
æ±ĩ æĬ¥
Ġask ed
æķ ²
Ġan im
åĩº èī²
ell ig
éĢĢ åĩº
Ġst ri
å¤ĦçĲĨ åĻ¨
Ġj o
I m
ĠA cc
èģĮ åľº
è¾¹ çļĦ
ä¸įä»ħ æĺ¯
éĺ¿ æĭī
ç¹ģ èį£
å¿½ çķ¥
in st
ä¸Ĭ çıŃ
Ġl en
è°ĥ æİ§
ç®¡çĲĨ åĬŀæ³ķ
åıª éľĢ
è¿ĻäºĽ éĹ®é¢ĺ
åıį å¯¹
ä¸Ģ åĳ¨
å·¥ ä¼ļ
åıĳå¸ĥ äºĨ
Ġoper ator
è´¯å½» èĲ½å®ŀ
åºĶ èģĺ
å¼Ģ éĢļ
å»ºçŃĳ éĿ¢ç§¯
Ġspec ies
Ġdev ice
å¸ Ĳ
le q
è¾ °
ĠS pe
us er
æīĢ å±ŀ
èģļ æ°¨
äº¤æĺĵ æīĢ
æĸ° æĹ¶ä»£
åħ¨ èº«
ä»Ĭ å¹´çļĦ
æ¿Ģ ç´ł
Ġhigh ly
èķ ¾
æŀĹåĮ¹ åħĭ
çļĦ å¤ļ
å®¶ ä¸Ń
ç½ ķ
åĩı èĤ¥
åĿĲ åľ¨
Ġcount ries
æ¯« æĹł
çŁ© éĺµ
c il
çļĦ éĥ¨åĪĨ
in c
ä¸º çĶ¨æĪ·
Ġre ach
éĽĨåĽ¢ åħ¬åı¸
éĨ ĭ
éĻĦ åĬł
éĻª ä¼´
åĨłçĬ¶ çĹħæ¯Ĵ
æº ĥ
åıĺ æļĸ
ĠD irect
åĨ³ å¿ĥ
å®³ æĢķ
Ġbas is
S ub
éĤ ĵ
Ġde cl
åŃĺ æ¬¾
å¯¼èĩ´ çļĦ
æ¸Ĳ æ¸Ĳ
ĠThere fore
éĢļ æĬ¥
éŁ³ æ¨Ĥ
èĩ´ çļĦ
Ġqu e
åİ¿ çº§
Ġne igh
Ġdef ine
è¾ī çħĮ
æīĢå¾Ĺ ç¨İ
å«Į çĸĳ
r andom
çľģ ä»½
ep s
çŁŃ è¯Ń
åį° åıĳ
è´ŁéĿ¢ å½±åĵį
å¾Īé«ĺ åħ´
é¥² æĸĻ
ĠR em
åĬłå¼º å¯¹
Ġs ales
éĴ¢ ç»ĵæŀĦ
äºº äºĭ
éĤ ª
Ġk it
èģĶåĲĪ åĽ½
éł Ń
ä¸į ç¬¦åĲĪ
ç§į æĹı
Ġst ress
æģ ¨
çªģ åıĳ
åħ¼ å®¹
Ġ Ñģ
åĲ ŀ
åĴĮ æ°´
åīį æ²¿
æĪĸèĢħ æĺ¯
æľīæīĢ ä¸įåĲĮ
åħ³ æĢĢ
åĽŀ æĿ¥
æī¾ åĪ°äºĨ
ĠV ol
èĻļæĭŁ çİ°å®ŀ
å¯ Ĥ
å¹´ èĩ³
åĶ® ä»·
Ðµ Ð½
N ame
ç¬Ķ è¯ķ
æļĤ åģľ
O C
éļı æĦı
S p
ä¸Ģ çĶŁ
å¹´ çº§
ĠCol lege
éĵ¶å±ĳ çĹħ
æĮ «
å¥½ å¥ĩ
ri e
æıĲä¾Ľ ä¸ĢäºĽ
ĠO f
åĽ° å¢ĥ
Ġ200 4
Ġinvest ig
d ers
å¤ ¸
æĢİä¹Ī åĬŀ
æ¶Īè´¹èĢħ çļĦ
ï¼Į `
ãĢĤ \
åĴ ³
èģ ·
ç»ĵ ç®Ĺ
ind ex
åįļ è§Ī
åħ¨éĿ¢ çļĦ
Ġvelo city
Ġf igure
ãĢĭ (
æ» ¥
å¤į èĭı
Ġpl aces
wo od
Ġgener ally
æķ° æİ§
å¥½ å¥½
ĠL aw
çĭ Ĳ
è·¨ è¶Ĭ
åĲ¸å¼ķ äºĨ
Ġ å°ıè¡ĮæĺŁ
å· ·
åĬł ä»¥
æİ¥ åĪ°
èĨ¨ èĥĢ
Ġwe eks
åķ¤ éħĴ
Ø ±
ï¼ Ĵ
è¿Ļ å¯¹
åı¯ä»¥ ä»İ
Ġg old
Ġst op
éĺ² å¾¡
ç§ĳåŃ¦ çłĶç©¶
Ġany one
Ġt our
åĪĨ çļĦ
Ġl ed
åħ¶ ä½Ļ
ist ory
ĠE qu
å¤ľ æĻļ
çĪ±å¥½ èĢħ
= '
æĤ Ħ
çª Ŀ
çĶŁ æĦı
çİ¯ æ¯Ķ
ĠF l
ru ary
æµıè§Ī åĻ¨
Ġ4 5
Ġim m
å¥ĸ é¡¹
èıľ åįķ
Ġfl u
åĺī å®¾
ĠAf ric
l en
âĢĿ ï¼Ľ
ĠF orm
ĠD ay
åħī çº¿
ffic iency
çļĩ å¸Ŀ
ret urn
Ġâ ī
æĮ¯ åħ´
åĢ¡ å¯¼
æĸ° äº§åĵģ
æľºæŀĦ çļĦ
çļĦå¤§ åŀĭ
åī© ä¸ĭ
B y
Ġa im
Ġre action
ĠA rm
è¿Ľè¡Į çļĦ
äº« æľī
Ġpre p
Ġtrans port
è°Ī åĪ¤
è¿Ļ åľº
åıĳçĶŁ åľ¨
Ġ< =
Ġinterest ed
D e
ä¸ Ľ
it ter
ed ia
ad r
åĪĽ åĬŀ
æĶ¾ å¿ĥ
è´Ł åĢº
åĽ¢éĺŁ åĲĪä½ľ
è¿½ æº¯
ĠCom put
Ġprin ci
èģļæ°¨ éħ¯
å¤§ æī¹
æĹĭ å¾ĭ
v ille
ï¼Ī ï¼īï¼Į
åħ¨ æ°ĳ
èĲ ¬
æ¨¡ åħ·
ãģ Ĺ
Ġent er
åľ¨ è¿Ļç§į
çĶµ ç«ŀ
é£İ åħī
ĠU p
Ġsc ale
è¿ĲèĲ¥ åķĨ
åĲĮæ¯Ķ ä¸ĭéĻį
æıĲ éĹ®
ĠG ra
å¤« å¦»
R es
Ġr ates
ç©º ä¸Ń
Ġen h
é©¬ åħĭ
åĿļ å®ŀ
ä¸įä»ħä»ħ æĺ¯
å¦ ¨
åĲĮ å¹´
ir ing
é¦ĸ æī¹
Ġrad ius
col or
id ing
ä¸ĵ è¾ĳ
åĲĳ ä¸Ĭ
éĤ£ ç§į
ĠJ ournal
åĨ ¯
çĽ¸ æľº
Ġ3 5
èıľ èĤ´
èĹ Ŀ
Ù Ĩ
re hens
å¸ĥ ç½®
æľīéĻĲ è´£ä»»
æĹ¥ æĻļ
Ġinst ance
Ġlim ited
Ġb ud
æĢ» éĩı
æİ¨ åĩºäºĨ
çĽĳ å¯Ł
åīį æĿ¥
ĠCh ar
æĺİç¡® çļĦ
æĲŃ è½½
ec ause
Ġgra v
ä¸º åŁºç¡Ģ
åŁºéĩĳ ä¼ļ
Ġpur pose
ï¼Į âĢĿ
an o
ç´ł åħ»
ç±³ çļĦ
Ġpl ot
Ġsc ore
åĪĨ è¾¨
å®ĮåĸĦ çļĦ
ĠDe cember
åĵģ å°Ŀ
å¹¿æ³Ľ åºĶçĶ¨
éĽ¶ éĥ¨ä»¶
Ġsign al
Ġprocess es
èĳ£äºĭ ä¼ļ
Ġcap ac
æŀģ åħ¶
åĬŁèĥ½ çļĦ
ä¸¥æł¼ çļĦ
Ġsit uation
Ġbe gan
å®ĥ åľ¨
ä¿¡æģ¯ æĬĢæľ¯
Ġnot hing
çĶ· å¥³
Ġwho se
Ġ< <
Ġm ount
Ġg ir
åħ¶ä»ĸ çļĦ
éľĢæ±Ĥ çļĦ
ĠK ey
Ġdis co
åŀĥåľ¾ åĪĨç±»
Ġcrit ical
h i
æĬ¥ ä»·
con ds
å·´ å£«
ç§¯æŀģ åıĤä¸İ
åŃ¦ éĩĳ
ä»ĸ äººçļĦ
æĹł ç¼Ŀ
ĠW indows
æ·± æ·±
ough t
å¹´ åľ¨
** **
çĲĨ æĢ§
åĳĬè¯ī è®°èĢħ
Ġmed ical
å®ī éĿĻ
æĢ» çĽĳ
åıį å°Ħ
è¿ľ ç¦»
ä»¶ äºĭ
éŁ³ é¢ĳ
äº® çĤ¹
Ġins p
Ġo il
Ġm ag
æĹ¥ åĨħ
éľ ī
å¹¶ åıĳ
å¤§å®¶ éĥ½
ric k
åĽº ä½ĵ
Ġpol icy
b u
éĥ Ĭ
æĪĲ çĤº
è½ ī
ĠN ovember
æĮĳ éĢī
att le
\ (
n es
ä¸Ģ å¥Ĺ
å±Ģ éĿ¢
åĭ ¿
å¥¹ ä»¬
è½½ ä½ĵ
Ġabs olute
åĲ ķ
æĪĳä»¬ å°±
act ive
äººå·¥æĻºèĥ½ åľ¨
æĬĢèĥ½ åĴĮ
Ġclass es
æķ°æį® è¿Ľè¡Į
çĸĹ æ³ķ
æ½ ĺ
æĥĬ åĸľ
ä¸ŃåĽ½æĶ¿åºľ ç½ĳ
D NA
åıĳå±ķ åĴĮ
ĠD on
ac he
èİ· æĤī
Ġrele vant
Ġquant um
â ī
Ġt ru
ar c
åıĺ åĬ¨
é¢ĳ éģĵ
ĠCent er
) }
æľī çĽĬ
Ġcom fort
ç®¡çĲĨ ç³»ç»Ł
åħ¬ä¼Ĺ åı·
o ph
Ġre v
ĠR uss
çº¦ æĿŁ
ĠJ un
u ra
çļĦ æĬķèµĦ
ä¸į å½ĵ
ä¸º æł¸å¿ĥ
æĪĳ è¦ģ
æĢ§ å¼º
ad es
ç¬¬ ä¹Ŀ
se e
ç»Ļ æĪĳä»¬
Ġle ave
èĲ¥ä¸ļ æĶ¶åħ¥
Ġintegr al
å¸¸ æĢģ
ä¸»è¦ģ æľī
199 6
Ġtri angle
f it
Ġ ãĢĤ
è§ Ģ
Ġ- --
èģĶ åĬ¨
æĢģ åĬ¿
ç©¿ è¶Ĭ
Ġ _
it ary
ä»İ ä¸Ń
å·¥ä½ľ åĴĮ
åıĤ å±ķ
è¨ ±
èª ¿
æĺ¥ å¤©
199 5
è© ¹
è¯ŀ çĶŁ
Ġcateg ory
æĪĲ äºº
ur l
ry pt
Ġph r
æ½® æµģ
å®ı è§Ĥ
éĢ£ çµĲ
F irst
ä»· æ¯Ķ
å¤į åį°
Ġcl oud
ç¼º å¤±
P V
åľ° åŁŁ
ro te
æ¬ Ĭ
Ġcon duct
æĹł æĦı
éª¨ å¹²
amp ions
åľ¨ åĽ½åĨħ
å¹¶ éĢļè¿ĩ
os ing
æķĻèĤ² åĴĮ
ç¿ ħ
Ġcomplete ly
Ġ æľ¬
Ġc elebr
è¡¨ å½°
ç¬¬ åħ«
æ°ĳ äºĭ
Ġv ill
ç¤¾ä¼ļ è´£ä»»
Ġform s
è£ Ķ
ä¸Ģå¸¦ ä¸Ģè·¯
b ash
ab y
Ġex cept
ä¼ł å¥ĩ
è¾ĥ å¤ļ
ä»ĭç»į ä¸Ģä¸ĭ
èº«ä½ĵ çļĦ
Ġequival ent
S ince
Ġs ometimes
è´Ł è½½
éĵĿ åĲĪéĩĳ
Ġindividual s
ä»ĸ æĺ¯
æ¨ ±
ard en
è±Ĩ èħĲ
Ġhand le
èķ ī
m ore
çļĦ çİ°è±¡
å¤§ åİ¦
åĸ Ĥ
ib ly
ãģ «
æĹ© å·²
Ġfe et
éĤ® æĶ¿
az ing
on ic
ä¸Ń å±±
æ² ª
æīĵ ç®Ĺ
åĭ ¾
Ġrec ently
Ġac celer
Ġgra du
Ġinterp ret
æĿ¥ è¿Ľè¡Į
æĹ¥ çĶµ
éģĵ çĲĨ
Ġact ive
Ġread y
ĠM us
è¿ĺ åİŁ
èı ĩ
åĪĩ æĪĲ
Ġtri ed
o ch
Ġd ed
åĢ¼ çļĦ
Ġlet ter
èı© èĲ¨
ç®¡çĲĨ å·¥ä½ľ
ä¸¤ å¤§
å¤´ çļĦ
Ġ+ =
è´§ è¿Ĳ
h aps
Ċ ĊĠĠ
è¿Ļ åº§
å¤ļ å½©
æĦı å¿Ĺ
ä¼ĺ éĽħ
ĠJ ul
åıįæĺł äºĨ
çº Į
å¢ŀ æ·»
ç«ĭ ä½ĵ
é½¿ è½®
èµ¢å¾Ĺ äºĨ
u ge
åħ¥ ä½ı
æļ´ éľ²
Ġhy dro
çļĦ æľĭåıĭ
çļĦ ä¼ĺåĬ¿
åī ¥
åħļ æĶ¯éĥ¨
åİĤ æĪ¿
å®ģ éĿĻ
Ġsa f
Ġsk in
ä¸į åı¯èĥ½
å¥½ åıĭ
é¢ĨåŁŁ ä¸Ń
i pe
ĠA M
if orm
é£İ åĳ³
ĠO ver
ç¢ º
åĪĽéĢł åĬĽ
St ring
åĵ º
åľ° è¯´
un t
çĻ½ éħĴ
å¾® è½¯
Ġcent ury
Ġparticular ly
åķĨ åľº
Ġgo als
æī¹ åıĳ
åĬ³ åĬ¡
æĭ¿ åĪ°
Ġprom pt
Ð ·
åľ¨ åĨħçļĦ
ä¸į éĢĤ
Ġan swers
åĳ Ģ
æĥħ å¢ĥ
åĻ¨ æ¢°
ĠTr ue
åĲĪ èĤ¥
ill ing
è·Ł çĿĢ
ç¡¬ åº¦
ç½ļ æ¬¾
Ð¾Ð ²
IN G
W indows
in f
åħ¨ ä¸ĸçķĮ
Ġprodu ced
Ġappl ied
O M
Ġt im
re ci
ĠS upp
åĽ° æī°
å®Ī æĬ¤
æĮ¯ åĬ¨
Ġs aw
ä½ľ æĸĩ
ut ive
ä½ł æĺ¯
è£ħ éħį
æİĴ æŁ¥
çķĻ åľ¨
æľīåħ³ è§Ħå®ļ
Ġem ot
æł ĸ
æľĪ åĪĿ
ãĥ ³
å¦ĩ å¥³
E L
çĽ´ è§Ĥ
å¾® ç¬ĳ
ash ing
ĠBrit ish
" ãĢĤ
ä» ĩ
ç© į
éħĴ ç²¾
ä¸ĸçķĮ æĿ¯
çļĦåīį æıĲ
Ġappear s
Ġre lease
am ent
æİ¢ éĻ©
çķĻ åŃ¦
å¹ «
ä¾ ¨
éľĢè¦ģ èĢĥèĻĳ
éĩįè¦ģ ä½ľçĶ¨
ult i
Ġro ck
ä¸Ģæ®µ æĹ¶éĹ´
æĺŁ çĲĥ
çĶµè§Ĩ åı°
F C
é §
çļĦ æĶ¯æĮģ
çļĦ åĬĽéĩı
å¹´ å¼Ģå§ĭ
åħĥ ä»¶
ä¼ģä¸ļ å®¶
åĢĴ åħ¥
Ġdom ain
Ġ ir
ä¸Ĭ åİ»
Ġcom ing
ĠN one
æ¸ħ åįİ
D es
æľĪ èĩ³
Ġqu al
ä¸ºå®¢æĪ· æıĲä¾Ľ
Ġt en
çº ±
æīĭ å·¥
æŃ¥ ä¼Ĳ
é» ¨
ĊĠĠĠĠ ĠĠĠĠĠĠĠĠĠĠĠĠĠĠĠĠ
çļĦ ç»ıèĲ¥
çģ« ç®Ń
ç§ĺä¹¦ éķ¿
å¸Ĥ åĮº
åĪ© æģ¯
åįķ çº¯
æĺŁ çº§
åĪĿ ä¸Ń
å¸ĮæľĽ èĥ½
ä¸Ģå®ļ ä¼ļ
åľĨ æ»¡
çĦ¦ çĤ¹
D S
Ġf alse
ä¸į å¿ĺ
ĠF in
åħ¶ åľ¨
ul ations
è¥¿ èĹı
Ġexce ll
æĬ ¬
å°Ĩ æĿ¥
ven ue
Ġtheore m
åĪ ®
æīĭ è¡¨
çŃī å·¥ä½ľ
ind er
Ġget s
ä»İèĢĮ æıĲé«ĺ
æĲº ç¨ĭ
ÑĢ Ð°
Ġcirc le
b ody
åĲ ģ
æ¸ £
Ġpl us
ãĤ Ĵ
å¹ħ åº¦
ĠAmeric a
Ġbenef its
æķĻ å®¤
pl ain
è§ģ åĪ°
olog ies
æĤł ä¹ħ
Ġre pl
Ġpro gress
å±Ģ éĻĲ
åħĥç´ł çļĦ
ĠH ome
ç§ĳåŃ¦ æĬĢæľ¯
è¿Ļç§į æĥħåĨµ
åĩıå°ĳ äºĨ
åħħåĪĨ åĪ©çĶ¨
ãĢį ï¼Į
æĬĳ éĥģ
Ġful ly
i ences
çļĦ çĶ¨æĪ·
ä¸į ä½ı
è¿Ľ æĶ»
åŃĲ åĴĮ
ä¼ł åĬ¨
åĲĳ éĩı
éĿ¢ä¸´ çļĦ
åħ¥ åŃ¦
Ġal ign
ĠF e
iz ations
åįł æľī
è¡¡ éĩı
å¿ĥçĲĨ åĴ¨è¯¢
] ]
å®¢ æĪ¿
æ² Ĵ
Ġth us
åıĬ åħ¶ä»ĸ
æŀģ å¤§çļĦ
æĿ¿ çļĦ
ari o
Ġt re
åĩ ĳ
ä¸Ĭ æĺł
il ing
ĠT V
æĤ Ķ
ä»Ģä¹Ī æł·çļĦ
p re
à ®
åĴĮ çĲĨè§£
un k
} }$
Ġ ~
åĻ¨ ä»¶
çī¹åĪ« æĺ¯åľ¨
ines e
æ¯ıä¸ªäºº éĥ½
åĩºçīĪ ç¤¾
è¿Ļ æľ¬ä¹¦
åı¯ä»¥ è¢«
æľį çĶ¨
äººä»¬ å¯¹
Ġmention ed
7 00
ä¼ļ åĩºçİ°
Ġv ac
åĨľ äº§åĵģ
ç¼ĸåĨĻ ä¸Ģä¸ª
æľ¬ æĿ¥
å±± æ°´
Ġexist ing
æ±Ł åįĹ
æī¿ åĬŀ
å¾ģ æĶ¶
çĶŁæĪĲ ä¸Ģæ®µ
ä¸ ¸
im in
æ°´ éĩı
if ically
çĥŃ çļĦ
èĢģ åĮĸ
åģı è§ģ
æĬ½ è±¡
Ġide al
åĴ ª
è¿Ļ ä¸įä»ħ
Ġst orage
æĬķ æĶ¾
æ¼Ķ å¥ı
äºĨè§£ ä¸Ģä¸ĭ
è§Ĵèī² ä¿¡æģ¯
Ġincre ased
æ¹ĸåįĹ çľģ
æĸ Į
åľ¨ è¿Ľè¡Į
æĸĩ æĹħ
ip al
Ġdes cription
åĢº æĿĥ
G DP
ra int
ol ds
åĬ© çĲĨ
ip ly
Ġapprox imately
Ġ upp
Ġs ell
æĢ ĸ
ç®¡ æİ§
ä¾Ľ çĶµ
æİ¥ ç§į
æĭħ å¿§
Ġcol l
åŃ¸ ç¿Ĵ
ĠAss oci
S ON
è½ ¿
èĪ ¶
ç¦ ħ
199 0
ç»ıåİĨ äºĨ
è½¬åŀĭ åįĩçº§
Ġident ify
Ġsort ed
Ġtas ks
N ote
æĺ¯ ä»İ
å¤ĸ çķĮ
åıĤä¸İ èĢħ
Ġed ge
åıĥèĢĥ è³ĩæĸĻ
è¦ģ æĥ³
å»ºè®¾ é¡¹çĽ®
Ġapp e
è¿ľ è¿ľ
ä¸ļåĬ¡ çļĦ
Ġcomplex ity
v ar
Ġd aily
æĹ¥ å¿Ĺ
ĠA N
èĢĥ éªĮ
æ£ ķ
ĠFeb ruary
Ġin nov
Ġe arn
ol ic
Ġst ream
è¯· ä½ł
å¯Ĩ éĽĨ
çļĦ ç»ıæµİ
Ġc e
ter m
æĬ¤ æłı
çĶ» å®¶
æı´ åĬ©
æľī ä»»ä½ķ
ar an
èĥ½ èĢĹ
ï¼ļ "
æ¨¡ ä»¿
è§£åĨ³ äºĨ
èĴ¸ åıĳ
t em
æ°§ æ°Ķ
åıĹæ¬¢è¿İ çļĦ
` ãĢĤ
Ġ Ï
è¿Ľ çĲĥ
é²ľ æĺİ
Ġcent ral
å¤ļåħĥ åĮĸ
æ¸´ æľĽ
l ib
çļĦ ä»»åĬ¡
æ¶ ¤
è¯Ń æĸĩ
çľŁ æĺ¯
è« ĸ
å·© åĽº
l t
åį Ķ
æĸ¹ éĴĪ
æīĭ åĬ¨
ç¢° æĴŀ
Ġsumm ary
Ġopportun ity
oun cil
é¦ĸ éĥ½
è¯Ħ åĪĨ
åĩł åįģ
è¿İ æİ¥
å°¤åħ¶ æĺ¯åľ¨
éĿ¢ä¸´ çĿĢ
ä¸İ åħ¶
ç®¡çĲĨ å±Ģ
åĲ¬ åıĸ
éĴ¢ çĲ´
åħ³ç³» çļĦ
Ġtechn iques
åħļå§Ķ ä¹¦è®°
ä¸Ģ åº¦
ä¸Ģ åº§
Ġw ar
Ġl ibrary
pp er
åįĥ ç±³
å´ ©
Ġeas ier
f ig
çļĦ èīºæľ¯
é«ĺ åħ´
éĢļè¿ĩ å¯¹
ĠG o
ä¸ĸçķĮ åĲĦåľ°
ĠTh anks
ç»¼åĲĪ æĢ§
çĨŁ ç»ĥ
line ar
Ġback ground
éģį åİĨ
Ġsit es
Ġh it
è¿Ľ åĩºåı£
Ġ200 3
è´¢æĶ¿ éĥ¨
P a
U s
å¤§ æĪĺ
å¸Ĥ çļĦ
el i
é¢ĺ æĿĲ
od ing
ĠO pen
ä¿ĥ ä½¿
ç»ıéªĮ åĴĮ
åľ¨ å¤ĦçĲĨ
ĠA PI
åīį åĲİ
åºĶçĶ¨ ä¸Ń
ä»¥åıĬ å¯¹
ç¥ŀ å¥ĩ
èı Ĭ
ä¿ĥè¿Ľ äºĨ
æĺĨ æĺİ
3 60
æĢ ¡
Ġto ld
åħ» çĶŁ
Ġthink ing
) /
Â ²
en ge
çŃī ä¿¡æģ¯
è£ ¹
æ¸ħ éĻ¤
Ġro ll
ĠS um
åĨħ ç½®
å¤ĩ åıĹ
è¯ģ å®ŀ
é¡¹çĽ® å»ºè®¾
çļĦäºº æīį
ç´¢ å¼ķ
è¡Įä¸º çļĦ
éĻĦ å±ŀ
Tr ans
{ {
âĢ ī
çĶ¨ å¿ĥ
å¹´ èµ·
Ġre verse
Ġst ar
ç¼ ł
Ġpro ve
Ġas pect
å·¥ä½ľ æķĪçİĩ
ri al
æİ¨ è¡Į
æĪĺ èĥľ
çĶŁæ´» ä¸ŃçļĦ
ĠIn te
è®¾å¤ĩ åĴĮ
æĹ Ń
æĸ° ä¸Ģä»£
$$ ,
å·²ç»ı åľ¨
åĿļ åĨ³
Ġexp and
éĺĲ è¿°
i Phone
n d
åĲĮ è¡Į
ers hip
æ°ĳ èŃ¦
Java Script
ro s
pp ed
Ġmeet ing
in i
éĩį å»º
Ġst ock
æīĭ æ³ķ
èİ ŀ
éĹ¨ åı£
Ġch ann
æĹħ ç¨ĭ
ë ĭ
æľī ä¸ª
å¥ ¢
åıĬ çĽ¸åħ³
Ġsc al
Ġpr ices
æ²Ī éĺ³
å¼ĺ æī¬
ä¸į è§ģ
Ġb ank
æıĲ åĪ°çļĦ
ol f
éĿŀå¸¸ å¥½
16 0
A dd
ig inal
Ġ\ ).
ä½Ĩ ä»ĸ
é»ĳ æļĹ
æĪĳä»¬çļĦ çĶŁæ´»
è½® èĥİ
Ġpict ure
M od
æķ° åĪĹ
è¿Ļæł· åı¯ä»¥
æĶ¹åıĺ äºĨ
ç¼ĵ æħ¢
ä¼ĺè´¨ çļĦ
éº» çĥ¦
Ġw ave
us ed
æĬ¥ è¡¨
æī§ ä¸ļ
Ġsc hem
ç»Ŀ ç¼ĺ
è·¨ å¢ĥ
çļĦ å¤©
æĺ¯ è¦ģ
åĨį åĬłä¸Ĭ
ç¢ Į
() ;
ĠBl ack
çİ ²
ur t
ä»İ æĿ¥
èĪ Į
Ġhig hest
åľ¨ åĮĹäº¬
Ġp ages
ä¹ĭ æĹ¥èµ·
ul ate
æ¿Ģ æĥħ
Ġcomm it
æľīéĻĲè´£ä»» åħ¬åı¸
se mb
Ġex erc
cl es
è§¦ æĳ¸
æģĲ æĢĸ
Ġ æķ°æį®
âĦĥ ï¼Į
Ġ æĪĸ
æĿ¥ è®²
æĢ§ ä»·æ¯Ķ
if orn
æ¡ Ĳ
è¾ĥ å°ı
Ġcap ital
tr ans
ãĢ ī
åľ¨ æĪĳ
çĶŁäº§ ä¼ģä¸ļ
é¡¶ çº§
åĢ¾ åĲ¬
çļĦ åĲĪä½ľ
ä¸Ģ æĶ¯
Ġs ources
ĠT ime
å¼Ģ åŃ¦
å¾Ĺ çŁ¥
åºĶçĶ¨ çļĦ
Ù Ĭ
à ¹
Ġm is
æĭ ĺ
çĶŁäº§ ç»ıèĲ¥
æŃĮ è¯į
Ġimplement ation
Ġc ru
ĠP at
lic k
å®ģ æ³¢
ä¸»æĮģ äºº
èĦ±è´« æĶ»åĿļ
4 000
Y es
ä¸Ń ä½¿çĶ¨
ç¾İ æ´²
è¾ĥ å¥½çļĦ
å®¡ ç¾İ
çĩ Ł
ãĢ Ī
om b
ĠH ouse
å½±åĵį åĪ°
Ġadv ant
æŁĶ è½¯
Ġmathemat ical
ĊĠĠĠĠĠĠĠĠĠĠĠĠ ĠĠĠ
C ont
Ù Ī
ol ar
Ġup date
Ġent ry
RO M
éĻĮ çĶŁ
æĢ§ å¥½
çĶµ æ¢¯
æµ· å²¸
èªī ä¸º
Ġlab el
ĠWill iam
c s
Ġc os
åĨ Ģ
çľĭ äºĨ
éĮ Ħ
å¦ ®
å¸Ĥ éķ¿
ä¸ĢèĪ¬ æĿ¥è¯´
}\ )
çŁ¿ å±±
Ġ ä¸İ
er ia
åĩł ä½ķ
æĭī æĸ¯
æ¦Ĥ æĭ¬
T S
Ġin form
æµ· æĬ¥
å¥³ çĶŁ
å¹¿æ³Ľ çļĦåºĶçĶ¨
éĽĨä¸Ń åľ¨
åĳĪçİ° åĩº
Ġcou ple
i able
ä¹Ł è¢«
æĹł æķĪ
ab ilities
Ġgiv ing
Ġser ver
Ġdescrib e
éľĢè¦ģæ³¨æĦı çļĦæĺ¯
e ch
æĺİ å¹´
æĤ¨ å¥½
å¤´ åıĳ
éĽĨåĽ¢ æľīéĻĲåħ¬åı¸
æłĳ æľ¨
åĩĢ æ°´
Ġfind ing
å½¢å¼ı çļĦ
å±ķçİ° äºĨ
Ġdat abase
çĶ¨äºº åįķä½į
at ically
ä»ĸ åĢĳ
èĲ Į
èĭ į
åĲĦ éĥ¨éĹ¨
åıª éľĢè¦ģ
Ġfil ter
éĺ» æŃ¢
æ°ı åº¦
Ġvis ual
O L
Â Ń
äºº äºº
è¦ ª
Ġl ov
ac ing
ĠTh us
Ġcomp ar
éĻĪ è¿°
å§Ĩ æĸ¯
åľ¨ åħ¶
Ġw arm
Ġb orn
èĻļ åģĩ
æ¼ı æ´ŀ
ä¿¡ èµĸ
res ents
æİ¨ åĩºçļĦ
çĥŃ çĤ¹
æ´Ĺ è¡£
ç¥ĸ åĽ½
å¯¹ çİ¯å¢ĥ
Ġl ives
åĬł è½½
åīį æıĲ
èĪ¹ èĪ¶
on ds
çĽ ¼
ä¸ĭ ä¸Ģä¸ª
å¤ĸ äº¤
æķĻ åłĤ
Ġadd ing
æĻĤ éĸĵ
Ġmov ie
Ġ ä¸º
ç¼ĸ åı·
ï¿½ ï¿½
Ġmot ion
Ġcorrespond ing
æĪ ²
åĴĮ ä¼ģä¸ļ
æĿ ı
çĮ ´
çĨ Ļ
Ġtr ust
iforn ia
an cy
Ġto wards
é¢ ł
ĠH am
æĺ¯ä¸Ģ æ¬¾
éĿł è¿ĳ
Y our
Ġs on
ä¸į åĬ¨
åİ ķ
å¤ļ åĲį
ut ing
æį¢ çĥŃ
ä¸Ń çº§
è¾ĥ å¼ºçļĦ
Ġch ance
å¼ł ä¸ī
é©¬ æĿ¥
æĹ© åľ¨
é¾Ļ æ±Ł
çļĦ æĦıæĢĿ
æĽ´ åħ·
Ġv s
äººå·¥æĻºèĥ½ åľ¨åĮ»çĸĹ
èŃ¦ åĳĬ
çļĦ ä¸ī
æľŁ åĨħ
äº¤ å¾Ģ
æĬ¤ å£«
ä¸»è¦ģ åĮħæĭ¬
åĩı æİĴ
å¾® ä¼ģä¸ļ
èµĦæºĲ åĴĮ
éĺ¿éĩĮ å·´å·´
A meric
P lease
åĴĮ å°ı
ol low
è®¡ éĩı
æ°´ åĴĮ
Ġf air
è´ ª
Ġl if
æ¯Ķ éĩį
çº¿ ç´¢
å¸® æī¶
ĠRe c
åįłåľ° éĿ¢ç§¯
p ite
çļĦ è§Ĵèī²
éĹ´ æİ¥
æĶ¿ åĬ¡
éĿŀå¸¸ éĩįè¦ģçļĦ
y ond
ç» ĳ
Ġpro ced
åĸ Ĭ
åĽ½éĻħ åĮĸ
ne ct
å¤§åŃ¦ çļĦ
ä¼ĺåħĪ çº§
id a
åħ·æľī èī¯å¥½çļĦ
å®¢æĪ· ç«¯
ä½Ļ é¢Ŀ
ç£ ħ
æĽ² çº¿
ä¼´ éļıçĿĢ
Ġcred it
Ð ¹
å¸ ĺ
å¯¹ æĬĹ
åħ± è¯Ĩ
Ġpl ane
Ġro b
è®¸å¤ļ äºº
Ġdet ect
3 50
est s
æ¨¡ ç³Ĭ
åĿĩ åı¯
èįī åİŁ
m ap
ä¼ ŀ
Ġs light
çī ²
ä¸ļ çķĮ
æŃ ĩ
ä¸» åľº
è§Ĥ èµı
Ġsupp ly
Ġexpl icit
çİĽ ä¸½
Ġcontinu ous
åĨ¶ éĩĳ
æĪĲ åĵģ
éĥ¨ éĺŁ
å°Ĩ æĺ¯
è¿Ľè¡Į è°ĥæķ´
ä¸ĩ äº¿åħĥ
The se
å¼Ģå±ķ äºĨ
Ġcar ry
Ġchang ed
Ġsaf ety
éļ ¶
äº² èĩª
Ġspec ified
Ġblo od
Ġconnect ed
æĪĸ ä¸į
å®Į ç¾İçļĦ
çİ¯å¢ĥ ä¸ĭ
çļĦå¿ĥ æĢģ
b ig
çļĦ èĩªçĦ¶
Ġs end
åĴĮ å¤§
çŃī è¡Įä¸ļ
Ġn ove
Ġpro t
çŁ¥è¯Ĩ çļĦ
An swer
irt ual
Ġvi ol
O ur
çļĦ æłĩåĩĨ
å°½ åĬĽ
éĻįä½İ äºĨ
ä¸į åģľ
æĪĳ å¯¹
å®¶ ä¹¡
æĶ¶ åıĸ
ruct ure
Ġgu ess
b ject
å¸Ĥåľº éľĢæ±Ĥ
é«ĺè´¨éĩı åıĳå±ķ
c ode
çļĦ æĮĩå¯¼
åĴĮ ä¼ĺåĮĸ
Ġf ine
è¡¨ æĥħ
å½ĵ æĪĳä»¬
æ¯ı ä¸Ģä½į
ç»Ī æŃ¢
ish ing
ĠCom ple
Ġsyn t
Ġf ix
Ġp ow
çİ «
æ¸ Ŀ
çĹħ åĽł
Ġ3 6
Ġd ark
çŃī çī¹çĤ¹
è®© èĩªå·±
ber g
æĽ¾ åľ¨
é£Łåĵģ å®īåħ¨
åĢŁ æ¬¾
alle l
Ġ è¾ĵåĩº
åĩº èī²çļĦ
æĦŁ åºĶ
ä¸ŃåĽ½ äººæ°ĳ
è£ Ļ
åĲĥ é¥Ń
Ġarch itect
S im
y p
æ¸¯ æ¾³
Ġsuccess ful
çļĦ åĵģçīĮ
åĬ¨ æ¼«
ce ption
çĿ Ĳ
è§Ĥ æµĭ
å¦Ĥæŀľ æ²¡æľī
ç®Ģ åİĨ
è·µ è¡Į
æ´¾ éģ£
é«ĺ è¡Ģåİĭ
ï¼ī **
çĥ ·
ä»İ æľª
åıĺ é¢ĳ
çĽĳ ä¼ļ
éĩįåºĨ å¸Ĥ
P H
ri er
çļĦä¸Ģ åĪĩ
å¼Ģåıĳ çļĦ
çĳŀ å£«
æıĴ åħ¥
åľ¨ æľ¬
å¤ĸ åĩº
ren ces
ç§ĭ åŃ£
I R
çļĦ è§Ĵåº¦
Ġad apt
ãĤ ĭ
çļĦ æľīæķĪ
åĴ ½
ä¾ £
å®ļ ä»·
æ³ķ åħ°
å¹³ éĿĻ
è¯į è¯Ń
Ġf raction
ol a
é¢Ĩ åıĸ
å¼ķ åĬĽ
ç¦» å¿ĥ
å¸ĮæľĽ è¿ĻäºĽ
æĽ´å¥½åľ° äºĨè§£
Ġcar bon
å®ĺæĸ¹ ç½ĳç«Ļ
çĶµåĬ¨ æ±½è½¦
Ġconne ction
) -
Ġ à¤
çļĦ ç©ºéĹ´
Ġb ul
è°ĥ åº¦
æĶ¹ ç¼ĸ
Ġper m
å»ºè®® æĤ¨
æĹħæ¸¸ ä¸ļ
Ġatt ention
æº¶ è§£
å¤ĸéĥ¨ éĢ£çµĲ
Ġallow ed
Ġdiv is
çļĦ æ¯Ķä¾ĭ
ĠN ote
âĢĿï¼Į âĢľ
ĠV er
Ġrem ember
Ġexper t
Ġrep resents
éł ħ
I A
çļĦ èĬ±
åĴĮ ä¸ªäºº
æĺ¯ä¸Ģ é¡¹
æĸĩåĮĸ éģĹäº§
ç»ĵæŀĦ åĴĮ
å¹³åĿĩ åĢ¼
LE CT
W rite
çĶ¨ è½¦
ç®¡çĲĨ äººåĳĺ
åĨį åº¦
d ict
j s
en ing
éĺ² å®Ī
äºĶ éĩĳ
é¾ į
äº§ä¸ļ çļĦ
c ase
D B
é« ĵ
è®© åŃ¦çĶŁ
æ¸ħ æ°´
æł¹æį® èĩªå·±çļĦ
æ¬¢ ä¹Ĳ
Ġleg al
ä¸º æĪĳä»¬
å®¶ åĽŃ
èĪ ±
å¤´ éĥ¨
éģŃ åıĹ
Ġbal ance
çļĦ åĽ½å®¶
es tern
ä¸º æĪĳ
æĬ Ħ
åı¯ è¡Į
é¢Ŀ å¤ĸ
pr ing
æ·±åĪ» çļĦ
Ġdev ices
çĥ¦ æģ¼
icro soft
D o
F rom
Ġs us
it i
å¹¶ äºİ
ĠH el
Ġsp ent
éĢļå¸¸ æĺ¯
ç§Ł éĩĳ
' .
ä¸Ģ äºº
ä¸Ģ è½®
éĻ ³
Ġe arl
åĸ ī
ãģ ª
ĠÐ ½
åı¯è§Ĩ åĮĸ
M e
Ġ id
as c
ro x
st ate
æķ° åįģ
èģ ĸ
ä¸Ģä¸ª æľĪ
çłĶç©¶ äººåĳĺ
Ġequ ipment
Ġrem ains
å¤ ·
åı¯ çĶ¨äºİ
çĶŁ èĤ²
æİ ©
å®ŀ è®Ń
ol es
æ¤ İ
Ġthem selves
rough t
S ee
Ġre pe
åħ± é¸£
æŀĦ éĢł
å®ĮæĪĲ ä»»åĬ¡
ç¼º å°ĳ
ç¬Ķ èĢħ
æľīä¸Ģ å¤©
çī¹ ç§į
æĶ¾ å¤§
éĤ£ å°±æĺ¯
ĠG reat
ç¦» ä¸įå¼Ģ
èĲ½ åľ¨
Ġev idence
ĠAn swer
åĳ¼ åĲģ
æĦī æĤ¦
éĳ «
\ ,
] ;
çļĦ é¢ľèī²
Ġst d
ĠP ort
åĥ §
æ³¨æĦı åĪ°
k ing
çĶ ¸
ä¸į åıĬ
åħ³ çĪ±
å¹¶ è¿Ľè¡Į
éĩĮ æĸ¯
è£ Ŀ
æİ§åĪ¶ ç³»ç»Ł
åĽ¢éĺŁ çļĦ
éĢłæĪĲ äºĨ
åĪĽéĢł åĩº
ĠWh y
re ak
åı¯ è°ĵ
æ³ķ æ²»
è¯· æıĲä¾Ľ
ap ers
ord s
çĻ» éĻĨ
æľīæīĢ å¸®åĬ©
æ¯Ķçī¹ å¸ģ
Ġw rote
å¹³ åĩ¡
æł· åĵģ
è¯¥ é¡¹çĽ®
ä¿® è¡Į
Ġbegin ning
p ass
é¦ĸ ä¸ª
199 4
åıĳ çĥŃ
ĠS ing
çĶµ éĺ»
ĠM ac
éĻį éĽ¨
èª ĵ
éĩĩåıĸ æİªæĸ½
åĮº åĨħ
ä»İ æŃ¤
ĠG et
Ġsp ir
ĠĊ ĠĊ
éĶĻè¯¯ çļĦ
æľ¯ è¯Ń
è´¨ çĸĳ
se c
æ°Ķ æ°Ľ
ĠU K
åĮĹäº¬ æĹ¶éĹ´
æ´¾ åĩº
æ¶¨ å¹ħ
çļĦ å¼Ģ
å®ļ å¾ĭ
åĲĦ æĸ¹
æľįåĬ¡ ä¸Ńå¿ĥ
ition ally
äº² åŃĲ
Ġcomm er
çħ¤ çŁ¿
Ġdeg rees
åĪ¶ çļĦ
éĴ ī
ç®¡çĲĨ éĥ¨éĹ¨
é«ĺåº¦ éĩįè§Ĩ
Ġemploy ees
Ġstreng th
Ġ âĢ¦
æĹ¶ æľº
if ies
ĠP ower
æ¨ £
åĸĦ äºİ
é»Ħ æ²³
ä¹ĭ éĻħ
åŃĲ éĩĮ
é¢Ĩå¯¼ å°ıç»Ħ
æĿ ł
ra b
éĿĴ çĿĲ
åıĤèĢĥ èµĦæĸĻ
Ġgl ass
å¹½ é»ĺ
H S
æĸ ¥
æł Ī
æĢ§ ä¸İ
ĠD avid
äºĮ æīĭ
å¿ħ éľĢ
åĨ· éĿĻ
ĠWe b
Ġmiss ing
Ġm iddle
åĪĨ åī²
Ġn ucle
ot ed
èĮ «
æ¦ Ħ
Ġserv ed
Ġf resh
æŁ ł
ĠE lect
è§Ĥ åħī
æŀģ ä¸º
Ġcomp rehens
çĨ ¬
æıĲåįĩ äºĨ
ãĢį ãĢĤ
åĪĨå¸ĥ å¼ı
ĠDes ign
å°ı åŃ©
å·² è¢«
åĪĽæĸ° çļĦ
ä¸įéĶĻ çļĦ
ä¸Ģ åı¥
el come
åīį éĿ¢
æĺİ æľĿ
ĠM or
å¹³åı° ä¸Ĭ
æĶ¿çŃĸ çļĦ
Ġstr ings
Ġt ren
å¾Ĺ äºĨ
éĴ¢ æĿ¿
199 3
æĬµ æĬĹ
é£ Ľ
ä¸» å¼ł
ĠF ree
æĿĥ åĬĽ
åĴĮ æĹ¶éĹ´
åĴĮ åŃ¦ä¹ł
åħĥ çļĦ
åįĥ çĵ¦
Ð ¿
å¤§ æ¡¥
æĪĳ åĴĮ
Ġgener ated
Ġexpl anation
Ġpurch ase
ä¸Ī å¤«
å¢ŀ å¤ļ
d frac
çļĦ æĢ§èĥ½
éĻ ¸
ç¾İ å®¹
æ¡ ©
ĠH T
èĲ½ åĲİ
é¦Ļ èķī
åħ±åĲĮ åĬªåĬĽ
æ© Ħ
u i
æĪĳä»¬ å¯¹
çĴ °
ç¹ģ æ®ĸ
tt ers
é»ĳèī² ç´ł
C he
ç®Ĺ æĺ¯
å¼ºçĥĪ çļĦ
ï ¹
ä¹ ¾
åĲĮ æł·çļĦ
åĲĪ çº¦
åıĪ æľī
çĽ®åīį çļĦ
åĲ¯ åıĳ
ç£¨ æįŁ
è®¤è¯Ĩ åĪ°
Ġaccur ate
b ut
r an
çĶ¨ äºĨ
ä¸ĭ åįĬå¹´
å¾Ĺ ä¸»
åħ¬åħ± äº¤éĢļ
c her
r d
ä¸į åĲ«
æĥ ¨
å¢ŀ å¤§
çłĶç©¶ åĳĺ
å¹² é¢Ħ
urn s
opp ing
Ġmor ning
Ġbud get
m ail
å®ŀ ä¾ĭ
é¢Ŀ å¤ĸçļĦ
æıĲåĩº çļĦ
å·¨ å¤´
Ġ ä¸Ģ
æµģ æ°´
Ġse conds
åĪĴ åĪĨ
æĪ¿ ä»·
ç»ıæµİ å¢ŀéķ¿
èģļ åĲĪ
Ġcomb ination
åĬ ĥ
äº§ åĢ¼
èĤ łéģĵ
å®¢ è¿Ĳ
æ¹ Ľ
Ġsub s
land s
åĬł æ·±
ĠP M
ĠJ e
æ°¸ ä¹ħ
çļĦ ä¸¤
å® °
åĨ Ī
åħ¥ æīĭ
èĢĥ åı¤
æ£ µ
Ġse g
Ġcl ar
è®²è¿° äºĨ
f lo
çļĦ æ¸¸æĪı
çĶ º
åĻ¨ å®ĺ
ĠL ear
Ġhelp ful
çī©çĲĨ åŃ¦
Ġ ä»İ
çļĦ æľĢ
åı¯ éĢļè¿ĩ
Ġg ave
åŀĭ çļĦ
çİĩ åĴĮ
Ġres id
å»¶ è¿Ł
è¸ ¢
åĨ° ç®±
Ġhand s
ä¿¡æģ¯ åĴĮ
æ¸ħ æĸ°
çļĦäºº å·¥
çģ« æĺŁ
Ġfa ith
T E
T ime
æĦ ģ
am ental
æĶ¹ ä¸º
çī¹åĪ« çļĦ
æĿ¥ è®¡ç®Ĺ
å¹³ æĿ¿
æŃ¤ ç±»
Ġincre ases
M M
al t
Ġm obile
ce ll
ç§į ç§į
çĭ Ń
çİ¯ä¿Ŀ çļĦ
çļĦ å»ºè®¾
æĸĩ æ¡Ī
ol ve
æĪĸ ç¼º
è¢ ģ
æĢİ æł·çļĦ
Ġass ess
åĨ¬ å¤©
How ever
d at
al ax
ou te
å¼Ģ äºĨ
åĲį åı«
å½±åĵį äºĨ
çłĶç©¶ åĴĮ
çīĩ æ®µ
è¿Ŀ çº¦
iction ary
è¾ ¦
Ġcon cent
æł· åŃĲ
çª ĥ
ĠEng ine
æª ¬
æĸ¯ æĭī
åı¯ä»¥å¸®åĬ© æĪĳä»¬
åĲ¸å¼ķ åĬĽ
Ġmet al
Ġrest aur
éķĢ éĶĮ
ä½ł è§īå¾Ĺ
èĲ §
éħį æĸ¹
é¾ Ł
Ġpolit ical
a ign
o ke
ç³» çµ±
çľĭ ä¼¼
ç»Ĩ èħ»
ç¦» å©ļ
åĨľ èį¯
çŁ³ å¢¨
ä¸¥ è°¨
åħ¨çĲĥ åıĺæļĸ
çļĦéĩįè¦ģ ç»ĦæĪĲéĥ¨åĪĨ
è¡¨è¾¾ å¼ı
Ġcompon ent
ä¼ļ è¢«
çŃī äºº
ĠI D
ç² ¹
æµģ è¡ĮçļĦ
åħįçĸ« åĬĽ
o pt
s m
çļĦ å¸®åĬ©
ic ks
ä¼ļ å±ķ
éģ Ĥ
è§Ħ ç«ł
åį³ ä¾¿
ç¨³ æŃ¥
ĠInd ian
ä¸ĩäºº æ¬¡
Ġhtt p
æĪĳ å¸ĮæľĽ
åĪĨ ä¼ļ
ac ci
åħī æĺİ
è¡Ģ ç³ĸ
åĬ³ åĬ¨åĬĽ
æıŃ ç¤º
ĠCal ifornia
A m
è¾ Ł
æ°´ æºĲ
çı Ĭ
çļĦçĶŁæ´» æĸ¹å¼ı
P R
åľ¨ ä¸Ń
å®¶ æĶ¿
åĲĳ åīį
æĮĩ å¼ķ
çļĦäºº ä»¬
è³ ª
Ġsum mer
è¡Į èµ°
åı£ è¯Ń
ä½İ ç¢³
oc al
our ney
ãģ §
èĸ ¯
å¤ļ äºĨ
åº¦ è¿ĩ
æ°Ķ æģ¯
èº« é«ĺ
Ġsm ooth
There fore
ä¸Ĭ çº§
ç³ Ł
Ġst age
åĦ Ĵ
Â ®
åĲİ éĿ¢
èĢĮ åĩº
èĭ± å¯¸
äºĨä¸Ģ ç³»åĪĹ
AT E
ĠLe ague
æ®ĭ çĸ¾
é¥± åĴĮ
çļĦ åĩºçİ°
çļĦ åŃĺåľ¨
æľ¬ ç½ĳ
åı¯èĥ½ åľ¨
èµ° åĩº
ree k
ĠCh inese
ï¼ħ ï¼Į
äºĭåĬ¡ æīĢ
ĠEurope an
å¢ ħ
é¢ģ åıĳ
le an
ä¸» è§Ĥ
Ġat om
ç»´ åº¦
åıĪ æĺ¯
pos ition
angu ages
å°Ĩ ä»¥ä¸ĭ
åĻ¨ æĿĲ
åģļ åĩºäºĨ
æŀģ å¤§
ber t
åĢĻ éĢī
åı² ä¸Ĭ
ĠK e
è¯Ĺ äºº
Ġint ers
æĪĳä»¬åı¯ä»¥ ä½¿çĶ¨
åĬ³åĬ¨ åĲĪåĲĮ
ĠCalcul ate
Ġ ult
å¦ ĸ
Ġk ids
orm al
ãģ ¯
Ġ7 0
ĠHe alth
Ġschool s
èŁ ¹
Ġ Ø§
ä¸Ń æīĢ
ç« £
ĠE ast
å®ĺ åĳĺ
A b
æ¶ ¡
Ġex ists
rom e
av as
æ§ Ľ
æĺ¯éĿŀå¸¸ éĩįè¦ģçļĦ
1 30
ä¸º ä¸Ńå¿ĥ
æĿ¥ è§£åĨ³
ib on
Ġcl ients
Ġstud ies
u racy
éĿ ĸ
éģĵ çļĦ
ç»ıæµİ åŃ¦
å·® åĪ«
åĮ»çĸĹ æľºæŀĦ
æģĴ å¤§
åį ī
å¯¹ æĪĳ
éĹ¨ åºĹ
çĥŃ çĥĪ
äºĴ èģĶ
ism s
Ġpat ients
è¢«è®¤ä¸º æĺ¯
ä¸Ģ æľ¬
ic o
ä¸» æľº
çĪ± åĽ½
çģ« å±±
æĢĢ çĸĳ
Ġchem ical
æĺ ı
ä¸į å¿ħè¦ģçļĦ
çŃ¾ è¯ģ
Ġph ase
èĪĴ æľį
èŀº æĹĭ
P ost
f il
ç¨ £
èµĦ æ·±
èĬ ¦
æ°Ķ çļĦ
ĠL ab
ä¹¦ åĨĻ
ãģ ¾
èŃ ·
åį´ æĺ¯
Ġdep ending
æ¢³ çĲĨ
b and
è¦ģ çĤ¹
æ± Ľ
æľįåĬ¡ äºİ
è¾ĥ å¥½
åĤ Ļ
ru it
åĢŁ éī´
imens ional
Ġt ouch
ä¸Ń ä»ĭ
Ġf arm
ä¸į åºĶ
Ġp le
åı¯ æł¹æį®
æĻ ķ
ç¡ Ŀ
å¤© åľ°
Ġ= >
äºĶ å¤§
æ¿Ģ æ´»
å®¶ çĶ¨
æį ŀ
éĴ ĵ
ric s
éĺĢ éĹ¨
èĢ¶ ç¨£
C ol
çļĦ éķ¿
é¡ ½
ä½ł æľī
æĹł åħ³
Ġpl ans
è¯» åıĸ
åıĳçİ° äºĨ
æ¼« çĶ»
æľºåĻ¨åŃ¦ä¹ł ç®Ĺæ³ķ
è¿Ļéĥ¨ çĶµå½±
çļĦ éĤ£
ä¸į å®ľ
ĠS ep
æ²»çĸĹ æĸ¹æ¡Ī
æĴŃ åĩº
è®¡ç®Ĺæľº ç§ĳåŃ¦
åħ±äº§ åħļ
ä¸º ä¸»è¦ģ
åľº ä¸Ĭ
ĠN ov
å¿ħé¡» è¦ģ
Ġdec ided
Ġer rors
æ¹ĸåĮĹ çľģ
Ġbott om
åľ Ĵ
ä¸Ģ å¯¹
åŀ Ĵ
åı¯èĥ½ æľī
åħ± èµ¢
æ²¡æľī ä»»ä½ķ
ĠY ear
ç¥¨ æĪ¿
æĨ ¾
ä¸į åĩº
å²ģ æľĪ
Ġselect ed
Tr ue
CE O
æ©Ħ æ¦Ħ
å¹´ ä»½
é¥® çĶ¨
Ġhigh light
çŃĶæ¡Ī æĺ¯
Ġestab lish
çİ« çĳ°
ibon acci
çļĦ è¯Ńè¨Ģ
æłĩ æ³¨
å±± å¸Ĥ
æīĵ åĮħ
Th at
æĩ Ĵ
æ²ī æµ¸
sp ace
V al
äºº æ¬¡
Ġl ik
çĽ®æłĩ åĴĮ
çıŃ ä¸»ä»»
éĨ «
çĶŁçī© åŃ¦
åľĭ å®¶
çµ Ĥ
Ġfavor ite
æŁł æª¬
d elta
æİ¥ åħ¥
éŁ ¿
ä¸ľ èİŀ
åĵĪ å°Ķ
ĠDep artment
åķı é¡Į
) **
Ġf irm
å¹´ ä¸ŃåĽ½
Ġh arm
åĲİ èĢħ
çĻ½ å¤©
Ġins urance
Ġpattern s
çłĶè®¨ ä¼ļ
ĠPres ident
b an
èĢĮ æĿ¥
ĠC am
å·¥ä½ľ å®¤
éĢł ä»·
åŃĹ åħ¸
Ġapp reci
åĿļ å®Ī
é»ĳ é¾Ļæ±Ł
åİ ¢
æ°´ çĶµ
and as
è¯· åĳĬè¯īæĪĳ
ä¸ĵä¸ļ äººå£«
åģ¥åº· é¥®é£Ł
Ġstruct ures
Ġtransl ation
ĠPa ul
] :
åĬ «
re p
åħ¬ ä¸»
èĢħ åĴĮ
ad o
ĠG reen
ru ctions
Ġcur ve
Ġprocess ing
å¹« åĬ©
" >
å¹´ åĨħ
èĪ Ī
å¯¼ åħ¥
çĭĹ çĭĹ
åĩ ¶
Ġb atter
åĳ Ĩ
Ġn ode
é£İ éĽ¨
åħ± å»º
æĤ£ æľī
Ġthere fore
Ġpre fer
æ²Ļ æ»©
çī¹èī² çļĦ
Ġperform ed
Ġa ward
ä¸Ń éĥ¨
æ¯Ķ åĸ»
ri ef
éĹ¨ æ§Ľ
çºª å§Ķ
éĹ» åĲį
Ġem erg
Ġ200 2
åºŁ çī©
åĮħåĲ« äºĨ
æĬĵ å¥½
htt p
æĮģ ä¹ħ
iv il
å·¥ç¨ĭ æĬĢæľ¯
Ġmov ed
æ´»æĢ§ çĤŃ
i ance
m as
Ġ âĢ¢
ä¸į åŃĺåľ¨
æıĲ èµ·
ot ic
ä½ł æľĢè¿ĳ
åĮ»éĻ¢ çļĦ
æĮĤ çīĮ
Ġorgan ization
å¯¹åºĶ çļĦ
Ġstrateg y
åĬ Ŀ
å¤§ æ¥¼
if ier
fe rent
åıĳå¸ĥ ä¼ļ
ä¸įåı¯ æĪĸç¼º
app end
æļ´ éĽ¨
å¥¥è¿Ĳ ä¼ļ
çļĦ åħ¶ä»ĸ
Ġl ack
æīĭ ä¸Ń
ĠF alse
åģļ ä»Ģä¹Ī
åĥı æĺ¯
æ³ ¼
ä½ľ é£İ
ĠS QL
ĠA v
åºĹ éĵº
å®ĮæĪĲ åĲİ
èĢĲ çĶ¨
D elta
us iness
ĠC our
ĠB el
æĮī æĹ¶
èĢĲ èħĲèļĢ
Ġexper ien
ç²Ĵ åŃĲ
æ§ ĭ
Ġpie ces
Ġmathemat ics
Ġf ather
ä½į æķ°
Ġj ud
de ed
C M
Ġ æľĪ
é¥ ¿
éĢīæĭ© ä¸Ģä¸ª
In t
è¯¯ å·®
éĩİçĶŁ åĬ¨çī©
å¼ §
äºļ é©¬
çıŃ åŃĲ
æģ¶ æĦı
åľ°çĲĨ ä½įç½®
åĲ ¾
Ġr out
ĠG l
Ġk il
èµļ éĴ±
åĮĸå¦Ĩ åĵģ
l st
æĦŁ åĨĴ
ĠAn alysis
éĢĢ å½¹
æº¶ åīĤ
? "
w ide
æł ħ
Ġe fficiency
éĩı åĮĸ
ĠR el
ä¿ĿæĬ¤ çİ¯å¢ĥ
ail s
de red
Ġatt ack
ĠPl ay
å¤į ä¹ł
è£ħ æľº
çĶŁäº§ åĴĮ
æĸĩæľ¬ ä¸Ń
Ġcomple ted
Ġplan ning
Ġenc oura
Ġsepar ate
h y
å¤ļ åĲĥ
ä½ĵ æ¸©
ä¹Ł éĿŀå¸¸
æµ· ä¸Ĭ
éĢĤ éĩıçļĦ
æ±ī è¯Ń
æĪĲç«ĭ äºĨ
R ed
åĴ ¬
æŃ£ å¦Ĥ
ç»ĵæŀĦ çļĦ
ĠPh il
B l
ä¸Ģ åįĬ
æĪĳ æĹłæ³ķ
ä¹ĭ åľ°
å¤ĩ çĶ¨
Ġ3 00
åįļ å®¢
å¿Ļ ç¢Į
ä»ĵ åĤ¨
åĵº ä¹³
çļĦ ä»·åĢ¼
çļĦ åĲįåŃĹ
um er
çľĭ å¾ħ
åİŁ åĳĬ
å¸Ĥåľº èĲ¥éĶĢ
Ġsh all
æĵ Ķ
Ġsy mmet
ĠPro gram
ellig ence
â ħ
æĿ¥ ä¿¡
æ± ª
Ġdo i
åģĩ æĹ¥
æĿ¥èĩª äºİ
èĥ¡ èĲĿåįľ
é©¬æĿ¥ è¥¿äºļ
r um
æĪ ¶
èĢĮ å·²
å¥ĸ éĩĳ
ä»ĺ æ¬¾
èī° éļ¾
Ġw oman
Ġre ve
åı¯ä»¥ åĩıå°ĳ
ä½Ĩ è¿Ļ
è¯´ éģĵ
Ġr ank
Ġad minist
æľīäºĽ äºº
ç«Ł çĦ¶
plic ation
avas cript
åı Ľ
ä¸į ä¸Ĭ
æ°´ å¤ĦçĲĨ
10 1
å¤į åħ´
ç®Ģ è¦ģ
çĶŁæĪĲ çļĦ
åħ³æ³¨ çļĦ
ĠPro blem
æĿ¥æºĲ äºİ
Ġtri p
éİ ®
g y
å¾Ī é«ĺçļĦ
æ¸¸ è§Ī
ãģ ¨
Ġmet ers
ä¼Ł å¤§
sy ch
Ġsle ep
çļĦ åı¯èĥ½æĢ§
Ġb inary
å°Ĩ ä¸º
æķĻ ä¼ļ
æĺ¯ä¸Ģ éĥ¨
èģĮä¸ļ æķĻèĤ²
èĶ ĵ
çĶ² éĨĽ
Ġfil ms
å®¿ èĪį
çĻ¼ å±ķ
ä¾µçĬ¯ äºĨ
è¡Įä¸ļ ä¸Ń
æĺ¥ åŃ£
Ġsol id
Ġopp os
sort ed
ä½į çļĦ
ä¸ī çº§
éľĢè¦ģ è¿Ľè¡Į
äºĮ ç»´
ä¸¥ å³»
èĤī ç±»
æĿ¥çľĭ çľĭ
æ¾³ æ´²
éĢĻ äºĽ
æ²³åĮĹ çľģ
çļĦ è´£ä»»
Ġc ounter
å¹¶ æł¹æį®
å®ī éĺ²
å®ĥä»¬ åľ¨
æ´Ĺ æ¶¤
oy al
æĬµ è¾¾
çĽ¸äºĴ ä½ľçĶ¨
äºº çĶŁçļĦ
ul ated
åĽĽ åŃ£
çļĦä¸Ģ é¡¹
Ġspe ak
èıľ åĵģ
Ġtra de
æĬĺ æī£
stand ing
Ġanaly ze
in ner
Ġd oll
åľ° åįĢ
éļı ä¹ĭ
å°¤ ä¸º
ĠGener al
è¿Ļ æĿ¡
æĿ¥ æıĲé«ĺ
æĸ° æĿĲæĸĻ
è¥¿ åħ°
å¤ĦçĲĨ ä¸İ
çļĦä¸Ģ æ®µ
Ġ[ ]
Ġdist inct
Ġtop ic
é©¾é©¶ åĳĺ
Ġremain ing
ä¸Ģ æĿ¯
ĠB est
å¹¿ å·ŀå¸Ĥ
ç®Ģ çŁŃ
ĠAn n
è¿Ļæĺ¯ åĽłä¸º
Ġass ume
ä½łåı¯ä»¥ ä½¿çĶ¨
æ»´ æ»´
æłĩå¿Ĺ çĿĢ
rel ated
æĺ¯ å°Ĩ
åĴĮ çĽ®æłĩ
å¤§ å¥ĸ
è¿ĩ æ¸¡
ç»ı çºª
éļ ¨
æ¯Ķ åĪĨ
æŀģ éĻĲ
ç»Ĩ åĪĨ
Ġcult ure
Ġ å¯¹
åĲĪ è®¡
ĠB ay
å¦Ĥæŀľ æĪĳä»¬
æ¸© æ³ī
å®¤ å¤ĸ
æĢĢ åŃķ
ĠRes earch
Ġcontain ing
er ry
ot a
åģ¥åº· åĴĮ
ang er
è¡¨è¾¾ äºĨ
é¸¡ èĤī
åĴ ±
Ġp ull
åįĹ åĮĹ
åħĭ çļĦ
éĿĻ çĶµ
æ¾ Ħ
ĠEng land
æĺ¯ åı¯ä»¥
Ġc up
åŀ ¢
ĠH ol
è¿ĻäºĽ éĥ½æĺ¯
åĽĽ å¹´
Ġcalcul ated
ĠÂ »
Ġexcell ent
c ar
m ain
v est
æĭ ¾
åĬ¨ è¯į
el ine
åģļ å¾Ĺ
å®¢æĪ· æľįåĬ¡
Ġsur round
æĪĳ åĢĳ
ĠM et
éĿŀå¸¸ æĦŁè°¢
åıĪ ç§°
è¿ĻéĩĮ çļĦ
æĪĺçķ¥ åĲĪä½ľ
ç´«å¤ĸ çº¿
å¤įåį° ä»¶
Ġc ore
ĠS ur
çĶµ è§£
ä½Ĩ å®ĥ
Ġ3 4
ä¸įæĸŃ æıĲåįĩ
Ġcol lab
ĠUn der
é«ĺçŃī æķĻèĤ²
Ġparent s
Ġcommer cial
m osp
è¿Ļ æĺ¯ä¸Ģç§į
ĠP ri
ĊĠĠĠĠ ĠĠĠĠ
Ġinvest ment
æĹłäºº æľº
9 00
i as
i ers
åĴĮ ç»´æĬ¤
Ġd ro
åĽ½ çİĭ
åĲĪ ä¼Ļ
ç¾İåĽ½ çļĦ
æĹ¢ çĦ¶
Ġorig in
Ġinvol ves
åĴĮ æĥħæĦŁ
le vel
ç½ ¢
å¸Ĥ çº§
èī ĺ
å¼Ģ æºĲ
çª ĳ
Ġsp read
} .
Ľ èµ·
çļĦ å£°éŁ³
ä¸į å¤§
éĹ ·
åī ĸ
æĪĳä»¬ ä¹Ł
ç´ į
éħ ª
å¤ĸ èµĦ
èĪ Ĩ
14 0
ew ork
æĹ¢ æľī
Ġtest ing
çļĦè¯Ŀ é¢ĺ
Ġdefin ite
ffe e
st ain
é«ĺ ç§ĳæĬĢ
è¿Ľ åĮĸ
åģļ èµ·
è¥¿ åĵ¥
å¸Ī èµĦ
ä»¥ä¸ĭ çļĦ
çĸ«æĥħ å½±åĵį
D C
d en
Ġ è®¡ç®Ĺ
om orph
ĠF inal
æ¯ı äºº
åĮ» æĬ¤
å®Į æ¯ķ
é¢Ħ å¤ĦçĲĨ
å®¡ åĪ¤
Ġac qu
ĠÃ ·
çļĦ èĢģ
è½ §
æľįåĬ¡ å¹³åı°
éĢīæĭ© äºĨ
çĢ ĳ
æĪĳ ä¸į
é¦Ļ æ°Ķ
åĬ¡ å¿ħ
ĠRe ad
Ġgu ide
ç¡®è¯Ĭ çĹħä¾ĭ
) `
Ġ ing
å¯¹ äººç±»
ent ence
å®ŀ è´¨
åİ» ä¸ĸ
çļ®èĤ¤ çĹħ
éĵħ ç¬Ķ
çļĦ ç¡®
ä¸Ģ å¼Ģå§ĭ
æ³ »
ĠM ost
åĸĦ èī¯
è© ±
äºļé©¬ éĢĬ
çļĦ æĪĲç»©
å¼ Ĭ
ï¼Ī ï¼Į
çŁŃ ä¿¡
Ġinst it
æ¶Ĥ å±Ĥ
Ġphys ics
Out put
in ity
Ġd ream
Ġh ous
æĦŁ çļĦ
çĽ´ çº¿
åĭ ĭ
ç§ĳåŃ¦ çļĦ
è¯ļ å®ŀ
å¢¨ è¥¿åĵ¥
ĠMathemat ics
u a
ä¸Ĭ å¸Ŀ
æĪĲ è¯Ń
ph as
Ġam azing
HT ML
ä¸º åĩĨ
ä½ĵ è´¨
è¢« è§Ĩä¸º
åį³ æĹ¶
çľ¼ éķľ
199 2
_ \
çļĦ æĸ¹åĲĳ
çŃī åĬŁèĥ½
ĠE v
Ġm i
å¹´ ä»¥ä¸Ĭ
éĽ ¢
çĥ «
ä¼ĺ è¶Ĭ
lo cation
éĿĴ æµ·
æ·±åħ¥ çļĦ
Ġinf inite
èĩº çģ£
T ype
b orn
åį ĳ
ä¸º ä¸ŃåĽ½
ä¼ļ ä½¿
è¿ľ çļĦ
è© ¦
Ġdise ase
Ġb rown
ä¸ļ æĢģ
åĿ İ
æĦı æĦ¿
ç¾İ æĻ¯
os en
ä»¥ä¸ĭ æŃ¥éª¤
åĽłæŃ¤ åľ¨
éģŃ åĪ°
ĠCan ada
æ°¯ åĮĸ
N BA
S M
Ġ å¤§
èĢ į
èµ Ĳ
å°± ä¸į
ĠH all
æī§ çħ§
ä¸½ çļĦ
L inux
S D
Ġc ast
Ġcol ors
åİŁåĽł æĺ¯
éģĹ åĿĢ
èī¾ ç±³
æĩĤ å¾Ĺ
in y
åı¯ åĪĨä¸º
Ġcomp ute
Ġresult ing
ç«£ å·¥
åħ¬ ç§¯
è¿Ľ åıĸ
åıĺ æĪĲäºĨ
å¦Ĥæŀľ æľī
ex ample
t d
á ĥ
Ġe at
çĶµ çº¿
Ġal though
æ¯Ķå¦Ĥ è¯´
over n
âĳ ł
ç¡« éħ¸
Ġdat as
B u
N ot
âĢĿ .
è½ °
åħ¨ åİ¿
Ġbe yond
æİĴ è¡Į
æĸ¯ åį¡
Ġdifferent ial
æĴ¤ éĶĢ
it z
Ġcl ient
åı¦ ä¸Ģç§į
å¤ı å¤©çļĦ
ç©ºæ°Ķ è´¨éĩı
çĿ¡ è§ī
çŁ¥åĲį åº¦
åĶ¯ä¸Ģ çļĦ
æľī å¤ļå°ĳ
ou l
Ġd oc
Ġ1 50
ĠSt reet
Ġfollow ed
âĳ ¡
h old
æĺ¯ æĪĳåĽ½
èģļ ä¼ļ
for ce
Ġ __
Ġ åĩ½æķ°
Ġs av
ä¸Ĭ ç½ĳ
éª Ħ
os h
ä¹¦ çĶ»
æĻ¯ èī²
ä»»åĬ¡ çļĦ
åħħåĪĨ çļĦ
å¸ĪèĮĥ å¤§åŃ¦
6 000
T A
æĪĳ æ²¡æľī
é«ĺ å±Ĥ
é¡¹çĽ® ç®¡çĲĨ
æ¸© æŁĶ
ag raph
Ġ20 21
çŁ¿ çī©è´¨
N G
O W
ä¸Ģ çŃīå¥ĸ
or row
ä¸» èĲ¥
åĪ« äººçļĦ
äºĶ ä¸Ģ
Ġqu ery
èµ° äºĨ
äººæ°ĳ ç¾¤ä¼Ĺ
è¯¯ è§£
å¤įæĿĤ æĢ§
åİĭç¼© æľº
s im
æĹ¶ ç©º
å°Ĩ ä»¥
çĽ¸ ç»§
Ġal ternative
é» ĥ
ĠPro v
éĢĶ ä¸Ń
Ġreport ed
åĲĪæ³ķ æĿĥçĽĬ
è¶ħå£° æ³¢
Ġo x
çĶ¨ ä½ľ
åĵ Ģ
å®ī ç½®
ä¸ĩ è¾Ĩ
ain t
å»ºè®¾ å·¥ç¨ĭ
Ġright s
Ġdep th
å½° æĺ¾
æĦ ¤
äº§ çī©
æĢ» æĬķèµĦ
åıĸ åĩº
ie ved
æļ´ åĬĽ
Ġimmedi ately
åĴĮ å¤ĦçĲĨ
å¤į åıĳ
ĠG old
oo st
åİĭ åĻ¨
Ġwind ow
A çº§
\ ).
ed s
å¹´ ä¸ĬåįĬå¹´
ĠT op
å»º äºİ
ä½¿çĶ¨ èĢħ
çĥŃ å¸¦
èĨ ³
Ġask ing
g l
} +
Ġm other
ä½Ĩ ä¹Ł
åĽ¾ è¡¨
åħ¸ ç¤¼
Ġmod e
è¿½ ç©¶
æĢ¥ æĢ§
å« ģ
Ġveh icle
eps ilon
Ġ ^
Ġn ut
Ġ( -
æĪĳä»¬ å°Ĩåľ¨
å°ĳ éĩı
åħī åŃ¦
Ġcons ult
çĶ² æĸ¹
ĠServ ice
g u
t ical
Ġf lex
åĩº éĹ¨
æľĪ çĲĥ
è¯´ æĺ¯
æĶ¶ ç¼©
è¶£ åĳ³
ç½ĳç«Ļ çļĦ
Ġac id
å®īå¾½ çľģ
Ġobtain ed
M AT
Ġs ale
çĪ Ń
Ġv ary
è¶Ĭ å¤§
çŁ³ å¤´
åĩ» è´¥
å°¼ æĸ¯
èĶ ½
ä¸¾åĬŀ çļĦ
Ġut il
w ind
æµ· åħ³
é© ³
å¸Ĥåľº ä»½é¢Ŀ
æ© ĺ
èľ ¡
ĠSe e
Ġt rees
in te
åĪ ¹
Ġf em
åĨħ åľ°
åĮº éĹ´
éĢļè¿ĩ ä¸Ĭè¿°
é©¬ æĭī
æİ§åĪ¶ åĻ¨
çıł å®Ŀ
æĪĲå¹´ äºº
æį §
æĬĢæľ¯ ä¸İ
å¼º åĬ²
æ°ĳ åĽ½
è¢« èªīä¸º
å°ĳ å¥³
ĠÐ ¾
ÑĤ Ðµ
åİ»å¹´ åĲĮæľŁ
Ġmove ment
Ġflo or
E O
Ġt ick
æ°´ åºĵ
åĪĨæŀĲ å¸Ī
çļĩ å®¶
Ġhtt ps
ĠGerm an
an cing
ä½ľ æĪĺ
æľº ç¥¨
èĤ ļ
åºĶ åľ¨
æķĪ åĬĽ
èº ģ
è®© äººä»¬
è®® é¢ĺ
Ġsu stain
ä¹° äºĨ
åī¯ æĢ»ç»ıçĲĨ
æįķ æįī
è¿ĩæ»¤ åĻ¨
ä¸Ļ çĥ¯
ampions hip
r un
çļĦ å¤©æ°Ķ
å° ¸
æł ĵ
ĠC ur
åĢ¼ ä¸º
éĢģ åĪ°
æĮĳæĪĺ åĴĮ
çĩĥ æ²¹
d ent
Ġ ;
çļĦ æ¸©åº¦
ä»¥ éģ¿åħį
ç²¾ èĭ±
äººå·¥æĻºèĥ½ æĬĢæľ¯çļĦ
ä¹ĭä¸Ģ çļĦ
äººéĻħ åħ³ç³»
b a
ä¸Ģ åĿĹ
åĲĪ èµĦ
éĥ½ è¢«
ĠL ine
åįģ åŃĹ
Ġwant s
è© ķ
Ġann ual
ä¸ļåĨħ äººå£«
S A
i ant
Ġm er
et ch
Ġl anguages
ĠCh urch
Ġinter val
Ġsur pr
d y
y stem
å¸ ĸ
åıĳ æĶ¹
ç¥ Ī
çĽ´ èĩ³
ä¸į æĩĪ
ä¸Ĭ è¯¾
Ġe th
Ġ1 20
è¯¥ å¦Ĥä½ķ
åŃĺåľ¨ çĿĢ
åº ¸
Ġc ert
äºº åĿĩ
Ġf ig
åı¯ çĪ±
ag o
è¶Ĭ é«ĺ
ĠSh ow
Ġcand id
c ap
ent y
æıĲ åĪ°äºĨ
å¹¶ å°Ĩåħ¶
éĢī è´Ń
ĠR ad
ĠSp anish
å¥ĳ æľº
C L
æķ ·
ä¸ª åĪ«
çİ¯ æ°§
æĬĬ å®ĥ
è¼ ĥ
å¯¹æĸ¹ çļĦ
Ġt al
æĸ° åŁİ
åīį åĪĹ
Ġsub st
åĪĽéĢł äºĨ
R I
S um
åĴĮ èµĦæºĲ
ä¸ª å°ıæĹ¶
éĽ Ģ
qu are
å¾Ī éĩįè¦ģ
æ¯ı ä¸Ģæ¬¡
æµĵ éĥģ
æĳĨ èĦ±
çļĦ æĿĲæĸĻ
Ġa part
ä¸Ģ åı°
äºº æ°Ķ
å¯¹ ç§°
éĢļ è¡Į
æĬĢ è¡ĵ
ä¿¡ è´·
è§Ĵ èĲ½
æĿĳ åºĦ
èĥĮ åĲİçļĦ
ä¸ĢçĽ´ æĺ¯
çį »
xy gen
ĠSu per
è ł
om as
åĩº èµĦ
æĶ¾ å°Ħ
åįģ ä¸ĥ
çĽ®æłĩ æĺ¯
å»ºçŃĳ å·¥ç¨ĭ
æ±¤ å§Ĩ
éĩĩè®¿ æĹ¶
Ġkit chen
H ER
Ġ ##
åľ¨ éĢīæĭ©
æĸ° è½¦
äºĭ å®ľ
æµ· é²ľ
é¥® æ°´
Ġcolumn s
: ",
çļĦ æĪĲåĬŁ
å® ®
æľī æĿĥ
ä¸Ń åĮ»èį¯
åĽ½ éĺ²
ĠD iv
æ¯ı ä½į
ĠE ven
èĬ± åįī
éļ¾ å¿ĺ
Ġcorrect ly
çºł æŃ£
U T
y a
åĬ¨ åĳĺ
ĠS k
é¤ ¨
Ġsay ing
åĩº åħ·
æĦı åĽ¾
Ġatt ract
val ues
çĭ® åŃĲ
æ²Ĵ æľī
h ouse
Ð ±
ç» İ
åĴĮ è¡Įä¸º
æŀ £
åĬŁ å¤«
ang ing
ãģ Į
çĿ£ ä¿ĥ
az on
åĽŀçŃĶ éĹ®é¢ĺ
æ²¿ æµ·
ç¼´ è´¹
å§¿ åĬ¿
æĸ°åįİ ç¤¾
å«Įçĸĳ äºº
æ¸ ¬
od ay
å¢ŀ è¿Ľ
ĠW ork
åĬ³åĬ¨ èĢħ
- >
C I
N et
ç» ¸
æŃ Ĳ
åĩº äºİ
è° ¦
éĴ¢ æĿĲ
ç£ Ĭ
åİĭåĬĽ åĴĮ
å´ Ķ
Ġcommunic ation
æŀ¢ çº½
f ree
Ġb ath
åı¯ä»¥ å®ŀçİ°
èĤĮ èĤ¤
çģŃ çģ«
ĠAustral ia
åĨħ å¿ĥçļĦ
ĠIn stitute
çł´ äº§
Ġgu id
ĠUS D
è¯± åıĳ
Ġearl ier
D is
Ġm ys
åĬĽ äºī
çĽ¸ å¯¹äºİ
æĬĢæľ¯ çļĦåıĳå±ķ
çİĭ åŃĲ
app ing
åĭĩ äºİ
Ġhy per
ipp ing
R L
çī º
å¹´ éĹ´
if ferent
è¿ĳ åľ°
å°Ķ æĸ¯
Ġqu adr
ï¼ļ ï¼Ī
çģ ¿
å¸¦ å¤´
æ¸¸æĪı ä¸Ń
çŁŃ æļĤ
Ġpart ial
ash ion
ä¸Ģ æľŁ
Ġre asons
åĽł åħ¶
å§ ļ
èµ· æºĲ
è¯Ħ å®ļ
å¡« åħħ
Ġdirect ory
osp ital
ashing ton
\ ),
æ¿Ģ åĬ¨
åº§ ä½į
éĻķè¥¿ çľģ
åĽ½å®¶åĴĮ åľ°åĮº
åħ¬ç§¯ éĩĳ
çļĦ å°±æĺ¯
ç» Ĵ
æķ ŀ
ĠT w
æľĢ å¤ļçļĦ
éķ¿ è¾¾
éĩĳ å±±
çİ© æ³ķ
Ġreg ist
Ġpower ful
è« ĭ
æī ģ
æĪĳ åĸľæ¬¢
ä¸ĭ æ¸¸
ä¾Ľ æ°´
è§ģ éĿ¢
å¤ĦçĲĨ çļĦ
å·ŀ çļĦ
äº® çĽ¸
èģĺ çĶ¨
å°Ĭ æķ¬
Ġtest s
le g
é«ĺ èģĮ
çĤİ çĹĩ
åĿĲ æłĩ
æģĴ æĺŁ
è½¨éģĵ äº¤éĢļ
çīº çī²
Û Į
åĴĮ æĸ°
æķĻèĤ² æķĻåŃ¦
äº§ä¸ļ åĮĸ
ãģ Ł
çµ ¦
æ´ĭ èĳ±
æĳ© æīĺ
Ġrepresent ation
éŃ ļ
åĩĨç¡® æĢ§åĴĮ
å¥¶ èĮ¶
in n
æĸ¹ å½¢
è¡¨ è¿°
ĠR iver
éħĴåºĹ çļĦ
() :
æīĢè°ĵ çļĦ
w idth
Ø ª
åĴĮ éľĢæ±Ĥ
Ġb row
å£ ¶
è¢« è¯Ħä¸º
åĲĦç§į åĲĦ
ĠÐ º
éĴĪå¯¹ æĢ§
Ġalgorithm s
r ont
t an
Ġc ash
å· «
å°Ĩ å¯¹
æµģ å¤±
æł· å¼ı
æµĭ å®ļ
Ġother wise
å¼ºè°ĥ äºĨ
Ġlog ic
è¡Ķ æİ¥
w hat
çļĦ æľī
æĺ¯ å¤ļ
åĴĮ ä¸Ģä¸ª
ed eral
pl anation
èįī èİĵ
Ġstart s
çĵ¶ é¢Ī
å¼Ģ éĩĩ
ä½ł è¦ģ
åıĺ éĢŁ
ç»ıæµİ æķĪçĽĬ
èĭ± éĩĮ
ä¾Ŀ æ¬¡
åı¶ çīĩ
Ġsm art
å¹¸ è¿Ĳ
Ġser ve
Ġprec ise
Ġn orth
ra ctions
å¿ĥ è¡Ģç®¡
å¤© æĸĩ
äºĮ çŃīå¥ĸ
èģĶ ç»ľ
ç©º çĻ½
åĨĽ éĺŁ
è¿Ļç§į æĸ¹æ³ķ
éĶħ ä¸Ń
Ġadv anced
éĢıæĺİ åº¦
ä¸Ģ æĹ¥
ç² ¥
æĿ¿ æĿĲ
æĿİ æĺİ
Ġra ce
çĨĬ çĮ«
Ġhor iz
P e
i ra
ä¸į å¿ħ
åĪĨ å·¥
im ation
å·¥ä½ľ ç»ıéªĮ
å®¡ è®®
è² ł
ç¨ĭåº¦ çļĦ
æĸ°åŀĭ åĨłçĬ¶çĹħæ¯Ĵ
Ġill ust
Ñ ħ
åľ¨ å¤ĸ
æĶ¿åºľ ä¿¡æģ¯
èĴ ĭ
eg a
æ²¿ çĿĢ
)$ .
å¯Ĵ åĨ·
Ġrecord s
Ġstat us
Ġcamp aign
Ġcoordin ates
ç«ĭæĸ¹ ç±³
k er
ä»¥ æ»¡è¶³
åĲİ åĨį
åħ¥ å¢ĥ
æħ ¨
æĶ¿åºľ çļĦ
æĺ¾ç¤º å±ı
æĭį çħ§
æī£ éĻ¤
Ġ ê
Ġl ic
æīĢ æľª
æĥħ çļĦ
Ġex hib
Ġse lection
å¸¦ ç»Ļ
ĠV is
åī¯ ä½ľçĶ¨
å¤įæĿĤ åº¦
Ġmin im
è§Ĩé¢ĳ ç½ĳç«Ļ
Ġinc ome
Ġpresent ed
éĦ Ĥ
å¼¯ æĽ²
S P
c an
ä»ĸ è¿ĺ
åĬ¡ å®ŀ
èģ ²
un der
Ġst y
çĶŁæ´» è´¨éĩı
ĠJ ames
å¯¼èĩ´ äºĨ
Ġrun s
æµģåĬ¨ æĢ§
. ;
S he
ra ys
Ġpro port
å¼Ģå§ĭ äºĨ
ç»Ī èº«
åľĭ éļĽ
æĦıä¹ī çļĦ
ĠZ bl
ĠCl oud
å£® å¤§
j avascript
çļĦ æľĢå¤§
åį ¿
ä¸º åħ¶
åīį è¡Į
éĴ ¾
è½» æĺĵ
Ġcont roll
è© ŀ
æĬµ æĬ¼
ä¸Ńå°ı åŃ¦
æķ¸ æĵļ
C PU
O H
åĮ Ĩ
å°Ĩ åĨĽ
ç»Ł æ²»
ä¼ĺ ç¾İ
åıª æıĲä¾Ľ
å¥¹ åľ¨
å¤±åİ» äºĨ
Ġlay er
r ho
ic ed
å°± åĮ»
æĪĳä»¬ æľī
ç«ĭ åľº
å¸Ī åĤħ
è¡¨çİ° ä¸º
èģĮä¸ļ çĶŁæ¶¯
Ġbusiness es
çī¢ è®°
W i
p ack
çº ¬
åħĪ éĶĭ
Ġne ut
ï¼ħ ãĢĤ
ä¸¢ å¤±
éĤ®ç®± åľ°åĿĢ
) ]
Ġd oub
æ°´ ä¸Ĭ
ä¸ĩ çī©
æĪĺ æľ¯
ç®Ģ çº¦
åĿĩ æľī
åĩıå°ĳ å¯¹
éĩįè¦ģçļĦ ä½ľçĶ¨
ç§ĭ å¤©
éļĲç§ģ ä¿ĿæĬ¤
ĠAr ch
G ener
Ġt end
çľ ¾
ä»ĸ å¯¹
åĲĳ ç¤¾ä¼ļ
çľģ å¸Ĥ
æ¶ī å«Į
æļĸ æ°Ķ
Ġmarket ing
åĩĮ æĻ¨
Ġax is
t able
ä¸Ģ æĸ¹
Ġw ish
æŁ ¿
æŃ¤ åĲİ
ä¸¥ èĤĥ
åĪĩ æį¢
ä¼Ł å¤§çļĦ
ä¸ ĳ
åŃ µ
åºĶ åĬĽ
ĠP al
è¢« åĬ¨
éĻ¤ ä»¥
åºķ éĥ¨
çľŁå®ŀ æĢ§
y o
çļĦ åĪĽæĸ°
æŀ ķ
il ies
å±ķ æľĽ
ab et
æĢ» éĿ¢ç§¯
Ġconst raint
ĠCl ub
åĩŃ è¯ģ
a o
Ġw idth
Ġp al
st e
æľĢ æľī
ĠP ress
çłģ å¤´
åľ°çĲĥ çļĦ
Ġrad io
Ġcapac ity
Ġ æł¹æį®
æĺ¯ å¤§
æĺ¯ çĽ®åīį
è¦ ı
æľĢ éĢĤåĲĪ
è¿Ľè¡Į åĪĨç±»
Ġform ed
ĠĊ Ċ
é¦ĸåħĪ è¦ģ
éģĹ æĨ¾
Ġsit u
éĻĦè¿ĳ çļĦ
åħħè¶³ çļĦ
Ġextreme ly
ä¸Ģä¸ª æĸ°çļĦ
ä½Ĩ çĶ±äºİ
æ£Ģ ç´¢
Ġ< -
èģĶåĲĪ ä¼ļ
Ġrespect ively
augh ter
çļĦ æķĻåŃ¦
äºº å¯¹
Ġd ry
èī² ç´ł
æĢ» æķ°
éĤ£ å°±
å¦Ĥä½ķ ä½¿çĶ¨
Ġco ffee
Ġgu aran
ä¼ļè®¡ å¸Ī
éĢ¾ æľŁ
! "
d imensional
y ing
èį Ĩ
æħ Į
erv ation
å¥ĩ è¿¹
éĢĤåºĶ æĢ§
æŃ£ ä¹ī
åĬ© æĶ»
éĢī æĭĶ
æ¸© åĴĮ
åĲĥ äºĨ
éĢļå¸¸ åľ¨
Ġpar allel
æĤ¬ æµ®
ä½© æĪ´
å± ¯
æĥ ķ
åĲĮ æĻĤ
å¸® å¿Ļ
ph one
æĶ¿çŃĸ åĴĮ
ç¤¼ åĵģ
çģ¾ éļ¾
çļĦ åĲį
åħ Ĵ
åıĳ åħī
æīĢ ç¤º
10 5
Ġun ivers
åħ¨åĽ½ åĲĦåľ°
ï¼Į "
è¾ĥ å°ĳ
Ġdo or
æĸĩç«ł ä¸Ń
å´ İ
ĠUs er
ĠSystem s
S et
äº ¨
ĠĠ ĊĠĠĠĠ
ä»¥ åĨħ
æ¯ ¯
éĿ¢ ç²ī
ç¡® å®ļçļĦ
Ġal one
ĠD el
æĢ» æī¿åĮħ
åĸľ åī§
Ġ6 4
èį£ èĢĢ
ex p
æīĢåľ¨ åľ°
åŃķ å¦ĩ
çļĦ æĥħ
å½ĵ æĹ¥
éľĢè¦ģ æł¹æį®
æ¸¸ ä¹Ĳ
ä¸¤ å¤©
å·¥ç¨ĭ å»ºè®¾
å®ŀè·µ ä¸Ń
Ġexper im
Ġsur v
çĥŃæ°´ åĻ¨
Ġupp er
Ġa ctions
10 8
èŃ ĺ
éĥ¨éĹ¨ çļĦ
Ġcol lege
Ġpost ed
èĪªç©º åħ¬åı¸
E d
F A
P art
ar p
æĪĳ çĽ¸ä¿¡
åĳ µ
ä½ľ äºĨ
å¸¸ è¯Ĩ
ĠH ot
å±± èĦī
çłĶç©¶ çļĦ
P er
re f
åĴĮ æĸ¹æ³ķ
æĹ¶ æ®µ
ĠT wo
ä¹ĭ ä¸Ĭ
am in
å£« å°¼
du le
é¥®é£Ł ä¹łæĥ¯
éł Ĳ
å¸Ŀ åĽ½
éĩıåŃĲ è®¡ç®Ĺ
è¾ĸ å¸Ĥ
Ġdam age
Ġchalleng es
G e
è¿Ļ ä½¿å¾Ĺ
Ġg ram
Ġ( )
ĠP DF
ĠB as
ä¸ĵä¸ļ åĮĸ
èĥ½å¤Ł å¸®åĬ©
Ġ19 99
vers ed
Ġgrow ing
åħ¬å®ī å±Ģ
ĠSm ith
ä¸į é«ĺ
éĥ½ å°Ĩ
é¢Ĩ è¢ĸ
Ġr ing
æĴ ¼
çĽ¸åħ³ è´Łè´£äºº
éĿŀå¸¸ éĢĤåĲĪ
Ġapp oint
ĠSt at
ĠSt and
ect or
Ġthan ks
å¼ķèµ· äºĨ
è£ģ åĪ¤
Ġcard s
S H
ç² ª
ult s
ç¿ ģ
åĨ· åĨ»
çµ ®
éĢĴ å½Ĵ
Ġcommon ly
æŃ· åı²
ĠAssoci ation
t age
æµ ĳ
é«ĺ æĢ§èĥ½
ĠL og
è¾ĵåħ¥ çļĦ
è¿ª å£«å°¼
çļĦå¥½ å¤Ħ
c n
åĴĮ ä¸Ń
è¡ «
èĥ½ ä¸įèĥ½
éķ¿ å®ī
å¤ĸ æ±ĩ
åıĺ ä¸º
Ġha ir
å¾· éĩĮ
æĹ© æĹ¥
çĶµåŃĲ äº§åĵģ
å´ Ľèµ·
èļ ģ
èĥ¡ æ¤Ĵ
ç»ĺ åĪ¶
Ġlaw s
v in
Ã ł
ä¼ļ äº§çĶŁ
ä¸Ĭ åĳ¨
æ°´ èµĦæºĲ
è¾¾ æłĩ
åİĨåı² çļĦ
å¤® è§Ĩ
Ġcalcul ation
Ġtechn ical
åģľè½¦ åľº
1 200
è¡ Ľ
å± ¡
ĠM art
ĠD i
ĠN umber
Ġle tters
æīĢä»¥ åľ¨
Ġem phas
æ¼Ĥ äº®
SU V
F L
éĹ ¯
éķ ģ
é£İ çĶµ
è¶³ ä»¥
éļĶ çĥŃ
è¨Ń è¨Ī
Ġfund amental
O P
b f
as ure
ä¹Ł ä¸įèĥ½
ĠA lex
åĲĪä½ľ ç¤¾
é¦Ļ åĳ³
æ»ĳ éĽª
é¢ģ å¥ĸ
è´ ©
å¼Ģ è½¦
ä¸¤ ä¾§
åĪ« å¢ħ
çļĦä¸Ģ æ¬¡
å®¶ å±ŀ
ä¹ĭ ç¾İ
çĽ¸ éģĩ
åŀĭ æĿĲ
æ³¨ éĩĬ
ç¼ĸ è¯ĳ
æ¥ µ
Ġappro aches
Ġref ers
Ġfin ally
åĢ¼å¾Ĺä¸Ģ æıĲ
E X
Ġf aster
å± ł
å¤§ ä½¿
ä¹Ł ä¸įæĺ¯
ĠS en
å¾Ĺ å¤ļ
å¹¶ è´Ń
åīį ç«¯
ĠM any
Ġv oice
lo c
å¤´ çĹĽ
ĠAn y
å®½ åº¦
æľºåĬ¨ è½¦
åľ¨ æĪĳä»¬
æıĲ åıĬ
éĩĳ åĪļ
est ival
åıĤ çħ§
åįģ è¶³
çĥŃ çº¿
å®¡ çĲĨ
199 1
sq l
çģµæ´» æĢ§
Ġintern et
ç¾½ æ¯Ľ
Americ an
2 20
ä¹ĭ ä¸º
è¯· ç»Ļ
ĠG ood
å¿« çļĦ
12 5
èĩªçĦ¶ èµĦæºĲ
ä»¥ä¸Ĭ æĺ¯
èŃ¦ æĥķ
ä¸ĭéĿ¢ çļĦ
Ġteam s
Ġnet works
ä¸į åĲĪæł¼
çİ° æľīçļĦ
æ³ķ è¯Ń
åĨĽ äºº
çľ¼ åīį
Ġspec ifically
å¤§ è¡Ĺ
éĿ¢ æĿ¿
id ation
åģļ ä¸Ģä¸ª
ä¸ľ é£İ
é¢Ħ æ¡Ī
Ġcomp are
Ġ6 5
åķĨä¸ļ æ¨¡å¼ı
çıł æµ·
Ġintern al
on ym
è¯ ł
ä»¥ éĢĤåºĶ
æĮ £
åĸľ æĤ¦
Ġext ract
èĪĴéĢĤ çļĦ
Ġslight ly
ä¸Ģ å±Ĥ
Ġat mosp
åģ¥åº· çĬ¶åĨµ
Ġsp end
Ġman age
åī§ éĻ¢
pr ime
æ¬§ ç¾İ
Ġser ious
Ġregard ing
çļĦ ä¼łç»Ł
å·¥ åľ°
ä¸İ ä¸ŃåĽ½
åħ¨ èĩªåĬ¨
ç»Ĩ èĩ´
æľªæĿ¥ åıĳå±ķ
åĲ¸ çĥŁ
ipp ed
æĭ¨ æīĵ
ĠPar is
Ã ¨
Ġ å¯¹äºİ
ä¸İ ä¼ļ
æĺİ äºĨ
æµģ æĦŁ
æ¨¡ èĮĥ
åħī æ»ĳ
Ġpl aced
Ġcl imate
ç²ī æľ«
ç´¯ ç§¯
æĹ¶æľŁ çļĦ
ĠPl an
Ġd ied
åľ° å½¢
Ġhe ar
æĸ¯ ç§ĳ
æł¹æį® ç»Ļå®ļçļĦ
å½Ĵ å±ŀ
éĺµ å®¹
æģĭ çĪ±
Ġsignificant ly
ä¸įç®¡ æĺ¯
Ġbound ary
è¿ĳåľ° å°ıè¡ĮæĺŁ
ä¸Ģ é¢Ĺ
ä¸į äºĪ
Ġin equ
as y
pl ing
æĿĥ çļĦ
èĤ¡ å¸Ĥ
ä»į åľ¨
æĦ¿ æľĽ
ä¹Ļ æĸ¹
è¿ģ ç§»
o per
Ġ è¿Ļ
çļĦ æľĢä½³
å¤§ èĩ´
çĶŁ æķĪ
Ġh ab
æ²¡ æĥ³åĪ°
å±Ĭ åħ¨åĽ½
Ġlist ed
æŃ£å¸¸ çļĦ
Ġphr ase
D R
ä¸į ä½İäºİ
èĩª å¾ĭ
us ing
Ġcompet ition
b our
Ġ rac
Ġs ports
ä¸Ń è¶ħ
ĠM r
ç«ĭ åĪ»
ç»Ļ ä»ĸ
æİĴ åĩº
ĠIt s
Ġreturn ed
Ġpres ence
G r
x i
al ing
ä¸Ĭ éĹ¨
è° ħ
éķ¿ è¿ľ
Ġst ories
ä½Ĩ åħ¶
æľį é¥°
éĢļè¿ĩ è¿ĻäºĽ
Ġident ity
por ary
åĮºåĿĹéĵ¾ æĬĢæľ¯
==== ====
w rit
Î ±
çļĦ åĢ¼
äºº éĹ´
Ġf ab
é«ĺ æ¸ħ
Ġst uff
ĠD an
ä¸ľåįĹ äºļ
I L
åľ¨ è¯¥
æ² ¥
ä½ł æľīæ²¡æľī
çĹ Ĵ
æīĭ åĨĮ
ä»ħ ä¸º
è°Ī åĪ°
Ġatt rib
Ġpass ed
åĩº è¡Ģ
éĩı åĴĮ
Ġfor ces
ĠM ag
çŁ³ åĮĸ
Ġrepresent ed
éĽĩ ä¸»
éĿ¢ éĥ¨
è°ĥ è§£
å®¶åºŃ æĪĲåĳĺ
æ²Ļ æ¼ł
æ°¸ æģĴ
å¡ŀ å°Ķ
ç¯® æĿ¿
w ell
ing u
ic on
è¿Ļ å¯¹äºİ
åıĳ æİĺ
Ġh uge
æĸ° é¢ĸ
åĽł çĤº
çĽ¸ å¤Ħ
ç»Ħ éķ¿
å¤´ èĦĳ
åĪĽæĸ° åĴĮ
ãģ ¦
åī¯ æĢ»è£ģ
Ġlist s
u ce
ä¸º æľŁ
è° £
å¹¶ ä½¿çĶ¨
èĭ ĳ
çŁŃ è§Ĩé¢ĳ
clus ive
Ġpain t
f ind
æľī åĬĽçļĦ
æŀ «
æ³ķ å®ĺ
éħ °
ĠM ake
éĴ ©
èº ²
åĮ» ä¿Ŀ
æĹ¶éĹ´ ç®¡çĲĨ
ç³»ç»Ł åĴĮ
çľģ å§Ķ
åł ¤
åģĩ å¦Ĥ
èĭı å®ģ
Ġdep ends
Ġopen ed
Ġdeterm ined
C P
Ġre ct
Ġon to
è¿ĺ æ²¡
åİĨ ç»ı
å¡ Į
act er
ä½Ĩæĺ¯ åľ¨
æ³¨åĨĮ èµĦæľ¬
æ¸ħæĻ° çļĦ
Ġsec ure
Ġ iron
åĩº ä¸Ģä¸ª
åĮĸ çŁ³
ç¥ ¸
å»ºè®¾ åĴĮ
ä»į æľī
é¹ ¤
æ·»åĬł åīĤ
æĺ¨ æĹ¥
d ocument
çļĦ çĪ±
en ed
es h
åı¯ä»¥ ä½¿
um ps
è£ ¡
éĢļè¿ĩ äºĨ
ĠE du
In put
æĬĹ ä½ĵ
æĻºæħ§ åŁİå¸Ĥ
Ġflo at
Ġderiv ative
åľ¨ å·¥ä½ľ
æ² §
éĺ² çĪĨ
ç²¾ çĽĬ
Ġun iform
æĢ§èĥ½ åĴĮ
å¤ªéĺ³ ç³»
Ġdi am
å¤ļæł· åĮĸ
Ġmole c
åĴĮ ä¸ŃåĽ½
æľĪ ä¸Ń
å°ı æľĭåıĭ
å¤ĸ ç§ĳ
åıĪ èĥ½
å¾® éĩı
èµ° è®¿
å½© èī²
Ġproper ly
ä¾Ŀèµĸ äºİ
å¤ªå¹³ æ´ĭ
çļĦåīįæıĲ ä¸ĭ
u zz
ä¸Ģ åħ±
Ġs plit
æĺ¯ åŁºäºİ
åĬ¨ èĥ½
ĠP ublic
10 9
ry st
åī¯ éĻ¢éķ¿
èĨ Ŀ
èľ Ģ
Ġfam ous
è¾Ľ èĭ¦
åı¤èĢģ çļĦ
F acebook
å½± éŁ¿
ant ic
çľŁ çĽ¸
ä¸¾ è¡ĮçļĦ
æĬĹ çĸ«
çľŁå®ŀ çļĦ
F F
å¹´ åĲİ
é¡ ·
å·²ç»ı è¢«
ä»¥ä¸Ĭ å°±æĺ¯
ric es
è´µ åı¸
æ¶µçĽĸ äºĨ
Ġintrodu ced
åµĮ åħ¥
A ut
åľ¨ è¿ĩåİ»
Ġm ist
il ib
æľĪ äº®
ä¸ī ç»´
èº« ä¸º
å®¢ åİħ
åŃĹ çļĦ
Ġbut ton
éĩĳèŀį æľįåĬ¡
Ġexpl ore
198 8
Ġpa id
éŁ§ æĢ§
m itted
Ġth ous
åĮĸ è§£
æķ° éĩıçļĦ
å¦Ĥæŀľ ä¸į
çĪ± ä½ł
åıĮ éĩį
æĹĹ èĪ°
ĠOn ce
åĽºå®ļ èµĦäº§
æ·ĺ å®Ŀ
ä¸» åĬĽ
ç¼ Ģ
ang es
Ġcol le
æĬĺ åıł
Ġve ctors
Ġopportun ities
æŃ£ å½ĵ
å¥ĸ åŃ¦éĩĳ
çĥ¤ ç®±
âĹ ı
l ation
m ary
ľ ħ
çļĦ çĲĨå¿µ
åľ¨ è¿ĻäºĽ
æĪĳ çŁ¥éģĵ
åŁ Ķ
å¤Ħ åĪĨ
è§£åĨ³ éĹ®é¢ĺçļĦ
éĢļå¸¸ éľĢè¦ģ
è·Ł éļı
ÑĢ Ðµ
çĮª èĤī
SE LECT
Ġs and
Ġp p
èĩª åŃ¦
æĹ¥ åĪ¶
ĠC up
æĹł æľº
çº¿ åŁİå¸Ĥ
éĽĨ ç¾¤
æ¸ħ æľĿ
ç¥ŀ è¯Ŀ
æĪĲä¸º ä¸Ģä¸ª
ä¸Ģå®ļ ç¨ĭåº¦ä¸Ĭ
å´ ĸ
Ġcomb ined
idd en
M ar
æĮ ª
ĠW ashington
è¯ķ åīĤ
19 80
åİĭ æľº
ans ion
ç¨³ åģ¥
ä½ľåĵģ çļĦ
åĪĹè¡¨ ä¸Ń
è¿Ŀæ³ķ è¡Įä¸º
Ġprofess ion
augh t
V D
l ar
ä»¥ èī²
æ³ķ çļĦ
ĠT ype
ĠB oard
è®© æĤ¨
âĢĻ ï¼Į
æ¯ķä¸ļ äºİ
åŃ¦çĶŁçļĦ åŃ¦ä¹ł
åŁĥ åıĬ
Ġscient ific
æĳĦåĥı å¤´
ä½ £
ä¸į çŃī
ĠC r
ĠM ax
è®© åŃ©åŃĲ
ĠL im
å¸® ä½ł
ä»ĺ è´¹
æĻļ é¤Ĳ
ç»¼åĲĪ èĢĥèĻĳ
æĳĦ æ°ıåº¦
æĪªèĩ³ çĽ®åīį
çĽ² çĽ®
çļĦäººå·¥ æĻºèĥ½
Ġ 00
åĴĮ çİ¯å¢ĥ
åĩ °
è¡Į æĥħ
ä¸ĭ å±ŀ
æķĻ ç¨ĭ
ĠF acebook
åİŁ æľī
æĳ Ķ
è¡Įä¸ļ åįıä¼ļ
çŀ »
Ġinstall ed
Ġbro ther
Ġded ic
Ġmys elf
å®ļ åĲĳ
ĠM al
ri an
Ð ³
çĶµ èĥ½
åĽł åŃĲ
åŀĭ ä¼ģä¸ļ
çĭ Ģ
è§ģ çļĦ
å¾® æ³¢
çĨ ±
app rox
und red
or ry
ä¸Ń èı¯
ĠC ouncil
æº ĸ
ist or
æ°ĳ æĶ¿
çŁ¥ åĲįçļĦ
æĻºèĥ½ åĪ¶éĢł
æŀĹ èĤ¯
ä¹Łæĺ¯ ä¸Ģä¸ª
Th anks
ä¸ĢçĽ´ ä»¥æĿ¥
åľ£ è¯ŀ
Ġperform ing
Ġmed ic
Ġdel iver
çĶµåĬ¨ è½¦
Ġchang ing
] }
Ã §
æīĢ èĥ½
å¹¶ ä»¥
è¡ĮæĶ¿ åĮº
Ġpartic les
åı¯éĿł çļĦ
åģ¶ å°Ķ
he dule
Ġs lo
åľ¨ åĽ½éĻħ
Ġb rought
çī¹ æĸ¯æĭī
ĠM ary
ä½İ çļĦ
æ¬¾ å¼ı
åĿĩ ç³»
Ġj oin
åįķä½į çļĦ
çĶ· çĶŁ
åħ° å·ŀ
åħ¸åŀĭ çļĦ
ä¸īä¸īä¸īä¸ī ä¸īä¸īä¸īä¸ī
Ġdivid ed
p ublic
æĿ¥ å¸®åĬ©
å°± è¯Ĭ
åĪ© çļĦ
æıĲä¾Ľ åķĨ
çİĩ çļĦ
ä¹Ĳ åĻ¨
å½±åĵį çļĦ
iz er
èµ° åĬ¿
ĠRo ad
ä¸į å®¹æĺĵ
ri um
è·¯ åı£
ä½ľä¸º ä¸ĢåĲį
çī©è´¨ çļĦ
Ġadv ice
èĸª éħ¬
Ġtele vision
è´ ®
æ·± åĳ¼åĲ¸
æ¢ Ń
è§ģ è§£
è¶ħ åĩº
äº§ä¸ļ åĽŃ
èĩªçĦ¶ çģ¾å®³
åħ·ä½ĵ æĥħåĨµ
Ġdiffe rences
éķ¿æľŁ çļĦ
ĠDe velop
Ġ å°ı
æŁ Ħ
ç»Ļ èĩªå·±
åħ³éĶ® åľ¨äºİ
ç´§ åĩĳ
ĠQ ue
å¡« æĬ¥
ä¸įå°ĳ äºİ
Ġhol ds
è¡į çĶŁ
M at
Ġs outh
ä¸į å®¹
è¿ĩ é«ĺ
æĪĳä»¬ å¿ħé¡»
è·¯ æ®µ
çĽ¸åħ³ èµĦæºĲ
è² ¬
èĸĦ èĨľ
ç»´çĶŁç´ł C
æľī æ¯Ĵ
ĠM il
åĸ Ģ
æŀģ åħ·
du ction
çģ¯ åħ·
çĭ¬ç«ĭ çļĦ
Ġcle arly
Ġhapp ens
{ (
åľ¨ åĵªéĩĮ
ä¸ª èĭ¹æŀľ
æ¸ Ĭ
å°Ĩ è¢«
åīį ä¸ī
ä¸ŃåĽ½ äºº
åķĨ ä¼ļ
åįĹ æĺĮ
åĪĹ ä¸º
éĢīæĭ© çļĦ
Ġ4 8
ç´§ ç´§
Ġ7 5
æİ¨åĬ¨ äºĨ
ãĤ ¹
æ´ª æ°´
M B
s k
åľ¨ ä¸Ĭæµ·
æľ¬ çĿĢ
ĠF ound
ĠH y
ĠH and
çĲĥ åľº
åħĪ è¡Į
ç«Ļ å¼ı
åĽº éĨĩ
çĸ«æĥħ æľŁéĹ´
æ·· ä¹±
Ġfeel ing
çļĦ åŃ©åŃĲ
re al
Ġf ill
å¹¶ ç¡®ä¿Ŀ
å¤© ä½¿
Ġcon ven
èµ· æŃ¥
å¼ķ äºº
pect ive
Ġsupp l
æ·Ģ ç²ī
ĠC ode
åŁº åĩĨ
ĠD em
è§Ĩ åĬĽ
çº¢ å¤ĸ
å±Ĭ æĹ¶
æ¹¿ åľ°
Ġdec imal
çį ¨
Ġhealth y
éĦ ī
åľ° å¤Ħ
æĥ Ł
Ġe g
éĴ Ľ
ç»Ļ æĤ¨
æŀģ å¤§åľ°
rent ly
ä¹° åįĸ
Ġmod ule
æ´ģ åĩĢ
Ġest imate
Ġrespons ible
Ġmagn etic
åĬŀäºĭ å¤Ħ
çĸ¯ çĭĤ
æĹłæĦı ä¾µçĬ¯äºĨ
f riend
j son
çĽ £
åĲĮ ç±»
å¼Ģ ä¸ļ
åı£ åı·
å¤į äº§
ä¹ī è¯į
æ³¢ çī¹
Ġmay be
Ġallow ing
åĩ ¹
æ±Ĥ èģĮ
ĠL ake
åħĭ æĭī
Ġacc uracy
çĮ« åĴª
èĵĦ çĶµæ±ł
f ess
çļĦ æĹ¶ä»£
Ġp en
è½ ©
ĠT otal
ĠP C
æīĭ æĮĩ
Ġle aves
åĨį åĪ°
Ġ[ '
Ġpart ners
åĮ»çĸĹ æľįåĬ¡
Ġmeas ures
Ġcirc uit
åľ¨ äºĨ
åľ¨ ä»ĸ
ĠS ociety
ä½į å±ħ
ĠM ichael
and er
åİŁ æĿ¥çļĦ
ä¸¤ ä¸ªäºº
Ġsh ared
èīºæľ¯ çļĦ
åıĤä¸İ å½ķåĪ¶
èĭ¥ æľ¬ç«Ļ
åĵĪ åĵĪ
Ġelectr ons
p id
æĺ¯ ä¸º
å¹´ æľ«
èĩª ä»İ
å°± ç®Ĺ
éķ¿ ä¹ħ
ĠR ober
çħ§ å°Ħ
å»ºç«ĭ ä¸Ģä¸ª
åĲĥ çļĦ
èĺ ĩ
æĪĳä»¬å°Ĩåľ¨ ç¬¬ä¸ĢæĹ¶éĹ´
P ar
l ong
ãĢĤ ï¼ī
Ġe igen
å®¶ åºĦ
æľĢ åĸľæ¬¢çļĦ
Ġ( "
æŀľ å®ŀ
å¹³ è¡Į
æĹł éĶ¡
è¯ķ è¯ķ
è¡Įä¸ļ åıĳå±ķ
ä»ħ æľī
Ġpo ol
åĨ² æ´Ĺ
å¹¶ä¸į æıĲä¾Ľ
ĠMod el
Ġ ç¬¬
Ġ ign
pp ing
çĹħ åıĺ
é» Ľ
åŃĹ ä½ĵ
åħ´ èµ·
æ²»çĸĹ æĸ¹æ³ķ
å¤ļå°ĳ éĴ±
Ġenvironment al
Ġey es
ä»² è£ģ
å¥łå®ļ äºĨ
M an
Ġs in
ĠT ex
æĢ» ä¼ļ
åİŁ æĸĩ
æĬ¥ è®°èĢħ
åħī æºĲ
èµĦæºĲ åŃĺåĤ¨
éĶĻ è¿ĩ
æľºæ¢° è®¾å¤ĩ
Ġlead s
é¢ĨåħĪ çļĦ
æ·±è¿ľ çļĦå½±åĵį
Ġhypot hesis
è¯ł éĩĬ
F ind
M V
T R
c a
æĸ ©
Ġb ond
çľģ æĶ¿åºľ
éĽ¨ æ°´
ĠPro ject
èĦļ æŃ¥
èĭ¥æľ¬ç«Ļ æĶ¶å½ķ
M ark
äºİ åĲĦå¤§
ĠC reate
ç®¡çĲĨ åĪ¶åº¦
ĠO per
Ġme ant
Ġcl ust
Ġ& =
Ġoper ating
Ġbenef it
æĹłæĦıä¾µçĬ¯äºĨ è´µåı¸
* }
ï¼Į **
éĿ¢ æĸĻ
è´Ń æĪ¿
ang ed
å£° èªī
adem y
åįļè§Ī ä¼ļ
æĹłæĦıä¾µçĬ¯äºĨè´µåı¸ çīĪæĿĥ
Ġ ä¸ŃåĽ½
åĴĮ å¸Ĥåľº
å¯ «
é«ĺ åİŁ
è¿ĩ å¤§
ä¹Ł è®©
ç´ ħ
æķĻ çłĶ
åĮ»çĸĹ åĻ¨æ¢°
æ²Ļ åıĳ
æ½ľåľ¨ çļĦ
Ġinflu ence
Ġcam era
P D
r ig
v i
çĶ¨ é¤Ĳ
ä¿Ŀ å®ī
ä½ł æľīä»Ģä¹Ī
æĪĳä»¬ éĥ½
åİŁ ä»¶
ĠR oman
Ġch urch
é¡¹çĽ® ä¸Ń
çīĩ çļĦ
ä»¥ä¸ĭ åĩłçĤ¹
out hern
æ³¨æĦı çļĦæĺ¯
ä¸īè§Ĵ å½¢
Ġsong s
Ġanim als
Ġ ä¸Ĭä¼ł
å¯¹ ä¸ŃåĽ½
æĮ ļ
é«ĺ æĸ°åĮº
Ġg ift
el es
æĦŁ æ¿Ģ
æĥ³ èµ·
ĠR ob
èı ±
ãĥ «
Ġfl at
æĿĢ èıĮ
Ġrest rict
åĬł å·ŀ
ĠM ain
ĠB o
ĠW ell
æł¸ å®ŀ
çļĦä¸Ģ èĩ´
æ´Ľ æĿī
ä»¥èī² åĪĹ
Ġf ight
åĩº è®©
ly mp
è½¦ ä¸»
è½¦ èº«
ä¹¦ ä¸Ń
å¼ł å®¶
ä½ı éĻ¢
åĲĪä½ľ çļĦ
åħļ ç»Ħç»ĩ
éģĩ åĪ°çļĦ
åĬŀåħ¬ åİħ
ä¸ĭéĿ¢ æĺ¯
O D
d ed
æĺ Ķ
æľ¬ èµĽåŃ£
æłĩ çļĦ
æĺ¯ä¸Ģ ä»¶
åįİ å¤ı
åĪĿ åŃ¦èĢħ
Ġdis s
æĭ¥ åłµ
èĢģå¸Ī çļĦ
è« ¾
æ³Ħ æ¼ı
Ġcaus ed
d x
ä¸Ĭ æ¸¸
æĮ ½
ĠS a
é£Ł è°±
ä¿® å»º
å¤± æľĽ
åħ¬å¸ĥ çļĦ
wh ile
Ġannoun ced
K ey
N S
O ption
h and
ç¤¾ ä¿Ŀ
ll i
æī¹ æ¬¡
æĹħè¡Į ç¤¾
Ġdisc ount
Ġrecomm ended
å¯¹ ç¤¾ä¼ļ
æĻº åĬĽ
ä¸ĩ ä¸ª
çĻ½ äºĳ
åİ¿ å§Ķ
ç¦ı å·ŀ
åĵĪ åĪ©
ä¹Łä¸į åıĤä¸İå½ķåĪ¶
c are
r angle
å ¬
çĽ® åħī
çĦ °
Ġbe g
Ġst ars
éĩįè¦ģ æĢ§
æĸ¯ çļĦ
åºĶçĶ¨ åľºæĻ¯
ä¼Ĺ çĶŁ
äºĨè§£ æĽ´å¤ļ
ific ial
æĶ¹éĿ© å¼ĢæĶ¾
ç±»ä¼¼ äºİ
Ġredu ced
çļĦçĥŃ æĥħ
é¡µéĿ¢ æľįåĬ¡
in ations
å½ ¦
èĩª æĦ¿
æĶ¿ åįı
è¯Ń å¢ĥ
av ig
Ġob vious
æĸĹ äºī
Ġcall s
é£İæł¼ çļĦ
å½±çīĩ èµĦæºĲåŃĺåĤ¨
Wh ile
åłµ å¡ŀ
ç¾İåĳ³ çļĦ
Ġcy cle
J ust
is ation
Ġch ain
æŃ¦ æľ¯
èģĮä¸ļ åıĳå±ķ
Ġinst r
Ġchall enge
O pen
m et
Ġp ip
å¤§ èĩªçĦ¶
çĶŁ æľº
Ġl iqu
ĠT om
è´£ ä»¤
ä¿ĿæĮģ èī¯å¥½çļĦ
Ġresp ond
por ate
æ²ĥ å°Ķ
åĩ¸ æĺ¾
Ġnove l
éĤ®ç®±åľ°åĿĢ æĿ¥ä¿¡
L S
a ren
æĸ Ĳ
ä¸º ä¸Ģä½ĵçļĦ
st art
éĩĳ éĴ±
æ¼Ķ èīº
çł´ ç¢İ
æĿĤ è´¨
æģ¶ åĬ£
æļĹ ç¤º
çī¢ åĽº
âĢķ âĢķ
Ġey e
éģĬ æĪ²
Ġvill age
çļĦ é£İ
å± Ĩ
æĸ¹ åı¯
æĸ° äºº
ä½ł æĥ³
çķ ´
ĠP oint
æ¦Ĥ è¿°
æľ¬ç½ĳç«Ļ åıªæıĲä¾Ľ
åĢ¼å¾Ĺä¸ĢæıĲ çļĦæĺ¯
å¹¶ä¸įæıĲä¾Ľ å½±çīĩèµĦæºĲåŃĺåĤ¨
G et
m g
Ġ ice
æĽ´ èĥ½
è¿ĺ åı¯
éĻį æ¸©
æĺŁ åº§
ress ed
åıĺåĮĸ çļĦ
å¤ı æĹ¥
è¡£ çī©
å¦Ĥæŀľä½ł æĥ³
åĲĦé¡¹ å·¥ä½ľ
å±ķçİ° åĩº
Ġincor rect
web é¡µéĿ¢æľįåĬ¡
A cc
h um
Ä ±
æľī ä¸Ģç§į
ä¿Ŀ å¯Ĩ
Ġ( \
åħ¥ éĹ¨
çĽ¸ åĬł
æ¯Ķ ä¸Ĭå¹´
æµģ ä¼ł
Ġcom ments
Ġsp ring
æĤ² ä¼¤
Ġcirc um
Ġdiv ision
semb ly
F e
T otal
Ġp ush
Ġb rain
ĠM em
å¤Ħ å¤Ħ
åŃ¦ä¹ł æĸ°
çİĭ åĽ½
ne g
Th us
ç»ıåħ¸ çļĦ
æĭĨ éĻ¤
P G
Ġt it
èµ İ
çŃī æĥħåĨµ
ur ity
ä½ł çŁ¥éģĵ
ab il
åŃ¦çĶŁ åľ¨
Ġj ourney
åįĬ å¾Ħ
æľĢåĲİ ä¸Ģ
ĠRe v
Ġpat ient
Ġmil itary
spe c
ĠDist rict
åĿĩç³» æĶ¶éĽĨ
ä¸Ģä¸ª äººçļĦ
æ¶ ħ
çĶ± ä¸ŃåĽ½
æĦ¿ æĻ¯
å¡« æĸĻ
Ġshow ing
åĽŀå¤į è°¢è°¢
äºİåĲĦå¤§ è§Ĩé¢ĳç½ĳç«Ļ
Ġ çŃī
ä¸Ń ç§ĭ
é«ĺ æ¡£
éĤ Ĭ
æıĲä¾Ľ æĽ´åĬł
åı¯èĥ½ å¯¹
erv ed
Ġpercent age
çį² å¾Ĺ
æ´½ è°Ī
Ġheav y
å¤ĦçĲĨä¸İ åĽŀå¤įè°¢è°¢
è¯·ç»Ļ éĤ®ç®±åľ°åĿĢæĿ¥ä¿¡
æĪĳä»¬å°Ĩåľ¨ç¬¬ä¸ĢæĹ¶éĹ´ å¤ĦçĲĨä¸İåĽŀå¤įè°¢è°¢
åĿĩç³»æĶ¶éĽĨ äºİåĲĦå¤§è§Ĩé¢ĳç½ĳç«Ļ
R ight
t xt
éĢ Ľ
çĲ Ĳ
çł į
çķ Ķ
ä¸ī åĽ½
ĠB ig
Ġsu fficient
çĭ ł
å·²ç»ı æľī
ä½ľä¸º ä¸Ģç§į
ç§» æ¤į
è¯Ńè¨Ģ çļĦ
é¡¶ å°ĸ
Ġjob s
Te X
N ode
åıĳ æĢ§
åĮħ è£¹
è¶ħè¿ĩ äºĨ
å±Ĭ ä¸ŃåĽ½
Ġcre ative
Ġconcept s
çĽ¸åħ³èµĦæºĲ åĿĩç³»æĶ¶éĽĨäºİåĲĦå¤§è§Ĩé¢ĳç½ĳç«Ļ
R ec
w in
Ġc reat
Ġin verse
åı¯ ä¾Ľ
åıĳ éŁ³
éķ¿ å¤§
çĽ´ è¾ĸå¸Ĥ
çĽĳ çĲĨ
å·²ç»ı å¼Ģå§ĭ
ç¦ıå»º çľģ
Ã³ n
ä»İä¸ļ äººåĳĺ
ĠJava Script
alax y
Ġper haps
198 4
spe ed
çļĦ éĩįçĤ¹
ç» £
æĺ¯ è°ģ
Ġw at
Ġf rame
å®¶ ä¼ģä¸ļ
ä¹ĭ åĨħ
èģ Ĩ
ç§ĳ éĻ¢
å°Ķ é¡¿
Ġj oint
ä¸Ńåįİ æ°ĳæĹı
æĵĶ ä»»
Ġ æĪĳä»¬
Ġm aster
ĠB ook
å¢ŀ å¹ħ
åĬ© åŃ¦
æķħ æĦı
ä¸įä»ħ èĥ½å¤Ł
é±¼ ç±»
åĪĽä¸ļ èĢħ
ĠWh ite
Ġtw ice
E ng
Ġre new
æĽ´ é«ĺæķĪ
um s
å¤© åłĤ
çī¹ æľĹ
ĠL i
æĸ¹æ³ķ æĿ¥
å¼Ģåıĳ åĴĮ
èĤ¥ èĥĸ
Ġbel ong
é»ĺ è®¤
ipp et
adem ic
ãĢģ ãĢĬ
çŁ ¶
ĠC ap
åīį æīĢæľª
çº¿ ç¨ĭ
Ġwe ak
çĽ®åīį å·²
èĩªçĦ¶ ç§ĳåŃ¦
å¤§å®¶ çļĦ
Ġinst ructions
Ġfin ished
æ¸ħæ´ģ èĥ½æºĲ
æĭ¼ æĲı
âĪ Ĵ
ä¸§ å¤±
è©¹ å§Ĩæĸ¯
çĢĳ å¸ĥ
A re
çļĦ å±±
ä¸Ģ åŃ£åº¦
ĠS olution
è¯´ åĪ°
ĠB oth
åĿļ å¼º
8 000
Ġ ]
Ġc as
ä»¥ å¸®åĬ©
et ing
ĠS am
å¼Ģ åĪĽ
ç½ĳ åĿĢ
ge q
è¯¦ æĥħ
ä¸Ģ è¾Ĩ
Ġb rief
ä¸İ æĬĢæľ¯
ç´ł é£Ł
åı· åı¬
æĹ© æĻ¨
çĿ£ å¯¼
å¹¶ä¸Ķ åľ¨
iss ions
Ġ å»ºç«ĭ
ä¸Ń åįĪ
è¿ĩ åĲİ
çĦ ķ
åħī çĶµ
ç²¾ èĩ´
ç¬¬äºĮ å¤©
æ¹ĸ æ³Ĭ
çİ¯ä¿Ŀ æĦıè¯Ĩ
oth ing
èĨ³ é£Ł
çļĦ çĹĩçĬ¶
çļĦ éķ¿åº¦
it ar
äºº èĦ¸
å¤ļ åªĴä½ĵ
éĢļ éģİ
ä¿Ŀ å®Ī
åŁº å»º
Ġv ict
ĠF ore
Ġcan cer
Ġ200 1
åĨ³å®ļ äºĨ
å¿ĹæĦ¿ æľįåĬ¡
Wh y
Ġarg uments
éĵ¸ éĢł
Ġrow s
èµ·éĩį æľº
c ient
çļĦ çŁ¥è¯Ĩ
Ġp airs
èĢĮ åıĪ
æĻ¯ è±¡
åĥı ç´ł
Ġsent ences
stit ution
Ġadvant age
T H
æĪĸ æľįåĬ¡
å¤ĸ è´¸
ä¸ĵ å±ŀ
ĠW he
ort hern
Ġres istance
ä»£è¡¨ å¤§ä¼ļ
åĨ· åĩĿ
Ġfam ilies
éĢĻ åĢĭ
Ar ray
Ġautom atically
atur day
l ig
å½ ¬
å¯¹ çħ§
å°± æ²¡æľī
um in
æķ´ æ´ģ
è± ¹
åī§ æľ¬
ä¹ĭåīį çļĦ
åĩ¤ åĩ°
ĠGe orge
éĴ¥ åĮĻ
Ġop in
åĵĪå°Ķ æ»¨
ä¸º æľ¬
ed ding
20 25
æİ¥ åľ°
æĥ³ è¿ĩ
åĮĹ ç¾İ
Ġ3 7
æŁ¥ éĺħ
åįİ åįĹ
éĻ¤ å°ĺ
å·¥ä¸ļ åĴĮ
Ġexper iment
é»ĺ é»ĺ
åĹ ½
ĠFr ance
Ġphot os
ĠCent ral
ç° ¡
A èĤ¡
r at
v an
Ù ĩ
ä¸Ģ å¤§
Ġf ont
å½ Ī
åŃ¦ è´¹
ä¼ļ è®©
çŃī åĪ°
ĠT em
éĽ Ļ
åľº é¦Ĩ
ĠM o
å®ŀçİ° çļĦ
ĠTh ank
Ġpartic le
Ġc atch
Ġsh op
Ġ4 00
åĦ ª
åįł çĶ¨
198 7
åĸ· æ¶Ĥ
Ġcho ices
åı¯ä»¥ çĶ¨æĿ¥
ĠS al
ä¸ī æ¬¡
çĶ± æĸ¼
Ġsh ift
åı¤ åŁİ
åĪ¶ä½ľ çļĦ
Ġadv ance
çĲĨæĥ³ çļĦ
Ġsuggest s
Ġarr ange
ĠVal ue
y our
åľ¨ æĪĳåĽ½
Ġw ire
æ³ķ åºŃ
æ´» åĭķ
èĮ İ
åĽŀ åįĩ
Ġk g
é² ¸
å¥ĩ æĢª
æ´Ĺ åĩĢ
ä¼ļè®® å®¤
åĲ¯ ç¤º
Ġexper iences
ä¿ĿéĻ© åħ¬åı¸
ik i
çłĤ æµĨ
åĲ »
äºĨ èĩªå·±çļĦ
ä¹Ł æ²¡
am ing
é£İ æļ´
ä¸ĩ äº©
åŃĹ æ®µ
ä¹¦ åºĹ
çīĻ é½¿
èı² å¾ĭ
Ġremov ed
å®ª æ³ķ
éĹ ½
ä¼ļ ä¸įä¼ļ
åľ° åĿª
ĠR un
åıĤ è§ģ
åŃĺ æĶ¾
pl t
è®¾è®¡ ä¸Ģä¸ª
æĸ¹å¼ı åĴĮ
æ¼Ķ ç»İ
åĿļ æŀľ
èĵ ī
ç¼© å°ı
å²© çŁ³
EN T
9 001
çļĦ æ°ĽåĽ´
è¦ģ æĬĬ
åı° é£İ
åıĮ åĲĳ
è§¦ åıĳ
Ġconsider ing
åĴĮ åĽ½å®¶
Ġg ar
éĩı ä¸º
èµ· è¯ī
ĠL ou
éĻį è§£
çŁŃ çŁŃ
ç»ıèĲ¥ èĢħ
å°ıæĹ¶ åĨħ
ä¸Ģæł· çļĦ
åĿļæĮģ ä»¥
Ġfin ish
D I
g ence
Ġt ables
ä¸Ń æĸŃ
æıĲä¾Ľ æĽ´å¥½çļĦ
çĽ´ æµģ
éĺŁ éķ¿
åĪĹ ä¸¾
èĬ± çĶŁ
éĻ¤ å¤ĸ
Ġtr uth
åĢ¾ æĸľ
ĠMan agement
Ġwa it
t otal
or ter
ä¸į å®ī
å¤§ ä¸ĵ
å¥ ´
æģ Ń
èģĶ æĥ³
è¯ķ ç®¡
çĶŁäº§ åİĤå®¶
éĺ» ç¢į
éĽķ åĪ»
Ġpract ical
Ġtalk ing
Ġdefinite ly
ĠM ass
åĲĦ æľī
ĠD uring
éĹ®é¢ĺ åĴĮ
åħ» æĬ¤
èĭ± å°º
ĠY es
èİ·å¾Ĺ çļĦ
èĹ »
èĦ± æ°´
Ġpar agraph
ä¸¥æł¼ æĮīçħ§
ĠÂ £
ä¸ŃæıĲåıĸ åĩº
åĤ¬åĮĸ åīĤ
d ig
çĶŁ å¹³
å§ ¬
th is
åķĨ è´¸
æĢ» åħ±
ä¸įåĲĮ ç±»åŀĭçļĦ
Ġoff ering
æ²Ļ æĭī
pect ed
Ġdist rict
è¯Ī éªĹ
ä¸įå¿ĺ åĪĿå¿ĥ
Ġc overed
Ġb ow
im b
Ġst atic
éħ ļ
ç¾İ åŃ¦
ĠN ame
ag onal
åĥ µ
å¤©æ°Ķ é¢ĦæĬ¥
Ġopt imal
åī© ä¸ĭçļĦ
æ¶¦æ»ĳ æ²¹
Ġsett ings
æĮ« æĬĺ
åĴ³ åĹ½
U p
Ġd ie
ä¾ į
æľĢ éĩįè¦ģçļĦæĺ¯
ç½ĳ çº¢
æ°Ķ è´¨
æľįåĬ¡ åĴĮ
ĠIn formation
å¹² ç»Ĩèĥŀ
å¾ģ éĽĨ
Ġcol d
å®¾ é¦Ĩ
Ġocc urs
é«ĺè´¨éĩı çļĦ
æĸ°åĨłèĤºçĤİ çĸ«æĥħ
ĠServ ices
f aces
á Ģ
ä¸į ä½³
Ġd rop
am m
ĠN OT
Ġha ven
çĶŁæ´» åľ¨
Ġpos itions
ffic ients
Ġart icles
åįģä¸ī äºĶ
æłĸ æģ¯
Che ck
it em
ä¸º ä»£è¡¨
Ġm ut
è¿Ľ åİ»
éķ¿ æĺ¥
Ġex ternal
ĠD own
çĲĥ åĵ¡
ill a
å¤ª å¤§
å¼Ģåıĳ åķĨ
Ġatt end
éģį å¸ĥ
Ġpract ices
ĠCons ider
is hes
åĩº èº«
çİ° å·²
ĠT or
èĬ Ń
ri p
çļĦä¸Ģ å¹´
æŁĵ èī²
éĴ¢ çŃĭ
Ġsy m
100 00
ä»ĸä»¬çļĦ å¯¹è¯ĿåĨħå®¹
æĿ° åħĭ
åı¯æĮģç»Ń æĢ§
ä¸ĸçķĮä¸Ĭ æľĢ
O V
Ġm ill
ic ious
ä¸İ ç¤¾ä¼ļ
ĠN on
èĪ¬ çļĦ
vent ion
å¤©æ´¥ å¸Ĥ
Ġpres ident
å§Ĳ å§Ĳ
ĠComp any
O f
ä¸Ĭ åįĬ
åĪĨ ç»Ħ
Ġe arth
Ġ\ ),
éĹ® çŃĶ
ĠR ich
åİ» åģļ
è¿Ļæł· æīįèĥ½
æĭ¥ æĬ±
çĶļèĩ³ æĺ¯
Ġdimens ion
åĢ¾åĲĳ äºİ
æ°ĳèĲ¥ ä¼ģä¸ļ
çļĦ å¤ĦçĲĨ
ä¸į æķ¢
éĩį åĬĽ
æ³¨ å°Ħ
pl ate
ç¥ŀ çļĦ
ĠJ es
å®Ŀ é©¬
Ġconf idence
ä¾ĭåŃĲ ä¸Ń
Ġexce ption
æİĴè¡Į æ¦ľ
M ac
] ãĢĤ
Ġp sych
èĩª åĬ©
èĢĮ è¢«
çĽ¸ è¾ĥ
ad s
ç¼ ħ
æµ· æ°´
å¢ĥ çķĮ
çļĦäºº çī©
ä½ı åľ¨
é¥® éħĴ
() )
ä¹ĺ ä»¥
å¤® è¡Į
Ġturn ed
åĩºç§Ł è½¦
Ġconsist ent
çļĦ æĪĲæľ¬
åĮ ¿
äºĨ ä¸ŃåĽ½
Ġb in
åĩº æ¼Ķ
å®ļ æĹ¶
un ity
ĠM ount
åĽĽ æĺ¯
æĺ¯ä¸Ģ æ¬¡
éļ¾ çĤ¹
èµ° åĪ°
æľºåĻ¨ äººçļĦ
Ġform al
çĦ¶åĲİ åĨį
ç¹ ¼
èĿ ´
ĠAdd itionally
åľ¨è¿Ļç§į æĥħåĨµä¸ĭ
A W
in clude
Ġo xygen
ï¼ī ãĢĭ
åħ¥ ä¾µ
ç»Ī çĤ¹
æŁĲ ä¸Ģ
èĸ ĩ
Ġra ise
éľĩ æĴ¼
æĭĵ å®½
Ġupd ates
Ġpropos ed
Ġexperien ced
èĶĵ å»¶
Ġing red
Ġth row
è®º è¯ģ
éģ¿åħį è¿ĩåº¦
åįĥ å¹´
ä¸ĢèĪ¬ çļĦ
Ġstandard s
èĿ´ èĿ¶
f ast
it a
Ġst rug
å§ ¨
ĠW ater
Ġch art
æ¼Ķ åĵ¡
Ġpl ants
è®² ç©¶
æłı çĽ®
Ġintegr ation
ç° §
ĠPhys ics
Ġhistor ical
åľ¨ ä¸ĢäºĽ
ä¸į æĺİ
æľº çŃī
Ġg arden
å°Ĩ æľī
ç¨ĭ å¼ı
ĠB al
ĠL eg
Ġun known
åĭ ī
çĭ¬ èĩª
çİ© èĢį
ç¤¼ ä»ª
åħ¬åħ± åį«çĶŁ
å¾®ä¿¡ åħ¬ä¼Ĺåı·
c or
Ġthe rm
çĽ¸ è¿ŀ
åĪ« çļĦ
çļĦäºº ç¾¤
ock et
é¸Ł ç±»
ç¥ŀç§ĺ çļĦ
Ġcontinu ed
ili ar
ç¬Ķè®° æľ¬
Ġa st
ç§° ä¹ĭä¸º
Ġcl in
Ġman ager
Ġsc ene
èº«ä½ĵ åĴĮ
Ġhelp ed
pro duct
åģ¶ æķ°
Ġcertain ly
Ġpict ures
èĵ¬ åĭĥ
åŃµ åĮĸ
Ġt ag
Ġs weet
åľ¨ ä¸İ
Ġf elt
ä½ľ æĽ²
åı¯ä»¥ çľĭåĪ°
éŁ ĵ
éĢŁ çİĩ
ç«Ļ çĤ¹
æĭī ä¼¸
ps i
ä¼Ĭ æľĹ
åĭ¤ å¥ĭ
Ġdiv ide
æ¸ħåįİ å¤§åŃ¦
åľ¨ è®¾è®¡
it ure
çĲ ¼
æĪĳ æľĢè¿ĳ
as ion
è¿ĺ åĮħæĭ¬
æ® º
ä¸¥ ç¦ģ
h ow
i verse
z en
æĮģ èĤ¡
åĻ¨ åĴĮ
ä¸ĵä¸ļ çŁ¥è¯Ĩ
Ġres ource
çīĪ çļĦ
æ©Ļ åŃĲ
å¾ģæ±ĤæĦıè§ģ ç¨¿
æ°´ æĢ§
èº º
çģ« è½¦ç«Ļ
ru pt
Ġsol ar
æİĪ è¯¾
è¿Ľåħ¥ äºĨ
Ġgr and
å¥¥ æŀĹåĮ¹åħĭ
æķĳ åĬ©
åĩłä¸ª æľĪ
å¢Ļ éĿ¢
ask et
Ġprom ot
åĩºçĶŁ äºİ
ç½ĳ çĤ¹
ç»ĵ æĻ¶
Ġne arly
å®īåħ¨ éļĲæĤ£
ç©ºæ°Ķ ä¸Ń
è§ĦèĮĥ åĮĸ
åĮĸåŃ¦ åıįåºĶ
ĠC ong
ĠW il
çīĩ åĮº
çĶµå½± çļĦ
æıı åĨĻ
çŃ¹ å¤ĩ
èµĭ èĥ½
F T
O K
ã İ
åŃ¦ ä¸ļ
æĿ¥ ä¸´
åħ¨ åĮº
çĽ¸ çŃī
åģ¥åº· åıĳå±ķ
Ġmed ium
è¯ĬæĸŃ åĴĮæ²»çĸĹ
åıĳçĶµ æľºç»Ħ
åľ¨ ä¸įåĲĮçļĦ
Ġw ife
åľ° è¿Ľè¡Į
ĠG overn
Ġwas n
12 8
åĪĿ çº§
æ±ĩ èģļ
Ġpay ment
Ġspir it
} =\
Ġ Ä
æķ° çĻ¾
Ġ1 80
åŃĲ å®«
ä½ł æĥ³è¦ģ
èį §
åī¯ ä¸»å¸Ń
å®ŀæĸ½ æĸ¹æ¡Ī
æĿ° åĩº
Cl ass
App le
S pe
[ ]
p at
er ies
åĴĮ çĽ¸åħ³
ve re
åĲĪ ä¸Ģ
ce an
å°Ĩ è¿ĻäºĽ
è½¬ éĢŁ
åĲĪä½ľ åħ³ç³»
ç©ºéĹ´ çļĦ
æ¤įçī© çļĦ
å±ĭ é¡¶
æĻ®éĢļ çļĦ
cent ury
åģ¶ åĥı
Ġdescrib es
Ġupd ated
èªį çĤº
r ated
åĴĮ ä»ĸçļĦ
Ġc ub
al ed
Ġb ra
åİ Ħ
et te
å¸Ĥ åĢ¼
æĮĩ å®ļçļĦ
èīºæľ¯ åĵģ
æĥħæĦŁ åĴĮ
ĠNew s
Ġcomput ing
åıĳæĶ¹ å§Ķ
z ing
ĠB ra
äºĮ äºº
Ġsu itable
å¿ħ ä¸įåı¯
å¥¹ è¯´
Ġim plies
åıĮ æīĭ
ĠRe view
åı¶ åŃĲ
Ġdi agram
Ġdel i
Ġep is
åİķ æīĢ
C o
} }{\
æĪĲ åĵ¡
Ġ** "
ĠL ove
æł¹ æĵļ
æķĻèĤ² å±Ģ
èĥ½åĬĽ å¼º
æ¹¾ åĮº
Ġwide ly
å§ĳ å¨ĺ
éĺ¿æĭī ä¼¯
ĠHT ML
V M
re y
æľī ä¸¤ä¸ª
äºº ç¤¾
éĥ½ éĿŀå¸¸
åĲį äºº
éĩĳ çīĮ
çĹ ´
Ġv an
åıĹ æįŁ
è°ĥ åĬ¨
Ġsh ap
Ġsh aring
æīį èĥ½å¤Ł
éĻ¤ éĿŀ
æ»¡ äºĨ
æī¿ æİ¥
äºī å¤º
ens es
å¼Ĥ è®®
ç¼ĵ åŃĺ
å¤ĸéĥ¨ éĵ¾æİ¥
g n
l ate
ä¸º ä¸Ģä¸ª
å¹´ éĻĲ
é¢ Ĥ
ç¾İ åĽ¢
åĲĳ å¾Ģ
å±± çļĦ
Ġcont rast
é¥® çĶ¨æ°´
äºĨä¸Ģ åľº
Ġlim its
âĳ ¢
% .
R eg
çļĦ ç»¼åĲĪ
æĺ¯ çĶ¨
æĺ¯ äººç±»
ä¸į å¦¨
è¿Ļ åĮħæĭ¬
å·¥ ä¿¡
ç§ĳ å®¤
çĲĥ çļĦ
éĻĲ åº¦
çłĶç©¶ è¡¨æĺİ
èĮĥ çķ´
å®Ŀ çŁ³
Ġtra ffic
çİ°ä»£ ç¤¾ä¼ļ
æ½® æ¹¿
çĳŀ åħ¸
æĭĸ å»¶
Ġdr ink
æ¶Į çİ°
ĠPart y
æĥ© ç½ļ
R S
U TC
it ors
å± ¿
ï¼ļ [
å¤ĸ å½¢
ä»¥åıĬ åħ¶ä»ĸ
å¤± è¯¯
åĽº åĮĸ
ä¾µ å®³
198 5
ĠTechn ology
Ġto w
å¤ĸ è¯Ń
éħį éŁ³
äº¬ éĥ½
åħħ å®ŀ
åıĭ æĥħ
Ġtr ig
é£İéĻ© ç®¡çĲĨ
æ±ī åŃĹ
æĸĩä»¶ çļĦ
æĭ¿ çĿĢ
æĸ°éĹ» æĬ¥éģĵ
% ;
) }{
çļĦ ä»£è¡¨
ä¸Ģ çĻ¾
ä¸º èĩªå·±
Ġd ictionary
åĩº æ°´
ä»ĸ è¡¨ç¤º
éħ ®
åıĹ å®³
Ġim pos
Ðµ ÑĤ
çİ»çĴĥ éĴ¢
Ġhim self
æ¦ľ åįķ
Ġhot el
et t
ra py
è° Ń
åıĺ æį¢
è¯Ħ çº§
ä½Ļ åĲį
Ġag ree
Ġrelationship s
Ġden omin
çī¹æľĹ æĻ®
: \
åı¯ éĢī
ä¸ĭ éĽ¨
ä¸İ ä¹ĭ
åı¯ä»¥ å°Ŀè¯ķ
ä¹Ł å¯¹
å°ı æĿİ
æĢ» çĲĨ
Ġnot es
æīĢæľī äºº
åİ¿ åŁİ
Ġsp in
æľīåħ³ çļĦ
æĶ¯ä»ĺ å®Ŀ
ç±»ä¼¼ çļĦ
å§Ĳ å¦¹
Ġlab or
è¤ Ĳ
ĠChrist mas
Ġconfig uration
U V
Ġ ãĢģ
Ġm ale
Ġd ram
è¿Ľ äºĨ
å»º æ¨¡
æ¼ ¢
ä¸ĢäºĽ åħ³äºİ
æĸ¹æ³ķ åĴĮ
Ġfunction al
åĪ¶å®ļ äºĨ
Ġcar s
ĠSe cond
Ġsupport ed
å§¿ æĢģ
ĠSer ies
w ater
æī Ķ
Ġb illion
åİŁ æ²¹
ĠE xt
éĤ£ æĹ¶
é¥ º
ç§¯æŀģ æĢ§
Ġmat ches
çº¹ çĲĨ
Ġreport s
æ¬º è¯Ī
Ġacceler ation
on a
Ġh op
Ġnot ice
ä»¥ä¸ĭ åĩłç§į
æĺ¾ çİ°
æĻ® æŁ¥
åħ³éĶ® åŃĹ
ond ay
ithm etic
Ġ éĢļè¿ĩ
ä½ľ çĤº
åħ¨ æĹ¥åĪ¶
çĽ¸ éĹľ
çĤ¹ è¯Ħ
èĭ± è¶ħ
ach ine
In st
æĭ¿ åĩº
åħ´è¶£ åĴĮ
å½ĵæĹ¶ çļĦ
Ġfore st
æ»¥ çĶ¨
% -
r ange
åľ¨ æİ¥åıĹ
Ġf ish
Ġh undred
éģ ©
å¸Ĥ ä¸Ńå¿ĥ
Ġqu arter
ç²ī å°ĺ
å¡ĳ èĥ¶
äºĨ åĲĹ
Ġb ur
çŃī åĲĦç§į
ç³ Ļ
el se
æŃ£ åĪĻ
å¾ĹåĪ° çļĦ
æķ£ æĸĩ
ç»ıéªĮ çļĦ
éĽ¶ é£Ł
åıĸå¾Ĺ çļĦ
èĲ¥éĶĢ çŃĸçķ¥
Ġvol tage
ĠQu estion
é«ĺæĸ°æĬĢæľ¯ ä¼ģä¸ļ
æĬĸ éŁ³
Ġexerc ise
ä¸Ń æ¯Ĵ
ä¸Ĭ æĬ¥
çİ° å°Ĩ
ãĢĭ ï¼ļ
ist ical
è¯ĨåĪ« åĴĮ
å¥¶ å¥¶
ĠApp le
å¼¥ è¡¥
N a
P L
at in
æĺ¯ åħ¨çĲĥ
or a
ä¸Ĭ æ¼Ķ
éĩĮ æľī
æīĭ çļĦ
æĶ¹ æŃ£
ĠG iven
åįł æĢ»
Ġpo or
ç©ºæ°Ķ æ±¡æŁĵ
çļĦæĸ° åŀĭ
" ]
g amma
h ol
çļĦ éľĢè¦ģ
Ġp ython
Ġpro p
ate ver
å¾Ī å¼ºçļĦ
ĠB usiness
äº§åĵģ åĴĮ
åıį å¼¹
åĽ½å®¶ éĺŁ
çĽĳ äºĭ
Ġrel ax
å¢ŀå¼º äºĨ
çªĹ æĪ·
; \
c ending
e q
Ġt ips
Ġp et
æ³ ģ
åı¯ä»¥ çľĭåĩº
èī² è°ĥ
Ġr ich
å£« åħµ
é¤Ĳ é¦Ĩ
æ¶² æĻ¶
ä¼° åĢ¼
çŁ¿ ä¸ļ
app le
Ð½ Ð¸
Ġquant ity
åŁİä¹¡ å»ºè®¾
æŃ ²
Ġth read
å¤ļ å¤ļ
ä¸Ģä¸ª å°ı
å°± å¼Ģå§ĭ
èİ ¹
fe red
up s
ä½ı äºĨ
Ġro ots
ĠÐ ´
æĹģ è¾¹
do or
c at
âĢĿ ï¼ļ
ĠM er
é£İ åĲ¹
ab s
æ°ĳ çĶ¨
ç»Ħ è£ħ
ĠE very
åħ¶ä»ĸ äºº
åĨľ åľº
äº² å¯Ĩ
æĪĲåĬŁ åľ°
Ġrel ation
æĥħæĦŁ åĪĨæŀĲ
ock er
ilib rium
R em
Ġt rac
åĽ½ èµĦ
åħ¬ é¡·
æ¶ ©
çĦ ļ
æºĲ å¤´
è·¯ çĶ±
åıĤ ä¼ļ
è¿ĳ åĩłå¹´
æ±½ æ²¹
é¥® åĵģ
è§ĦåĪĴ åĴĮ
ten ance
åĶĲ æľĿ
Ġcult ural
S ome
Ġ æıĲä¾Ľ
çļĦ å¹³åı°
è® Ģ
Ġm o
ic ing
å½ĵ åĪĿ
ad ian
ä»» èģĮ
åĨ³ è®®
å®¢ åľº
lo ok
æ¶Ī æŀģ
çŁ³ æĿĲ
æŁĲ æŁĲ
è¸ ©
è² »
ok yo
çļĦ çĶŁåĳ½
ä¸Ģ åı¥è¯Ŀ
èµ· åĪ°äºĨ
æ¢ Ĺ
è¶Ĭ å¤ļ
æĮī è§Ħå®ļ
ç²ī ç¢İ
ont al
åŃ¸ æł¡
Ġimport ance
Ġdri ving
Ġphot o
| \
çļĦ æķ°åŃĹ
å·¥ ä»¶
å¯¹ æĤ¨
åħ¨ æĸĩ
æĸĩ çį»
å¾Ĺ çĽĬ
æĥħ æĢĢ
èĲ İ
æ· ĩ
æ¨ ĵ
Ġch osen
con s
åī¯ æł¡éķ¿
è¿ĺæľī å¾Īå¤ļ
çĻ½çĻľé£İ åĮ»éĻ¢
Ġrec urs
éĴĪå¯¹ æĢ§çļĦ
Ġsw itch
h ors
Ġ éĢīæĭ©
çļĦ æĦıè§ģ
Ġf at
åıĳ åĬĽ
å¥½ çľĭ
æµģ åŁŁ
ä»¥åıĬ å¦Ĥä½ķ
äº« çĶ¨
æľĿ éĺ³
ä¿Ŀè¯ģ éĩĳ
Ġclass ical
Ġstate ments
èĺ ĳ
ĠIntern et
? âĢĿ
C ons
S u
Ġm unic
æıĲ åĲį
å¹¶ åĲĳ
åĽº å®ļçļĦ
Ġdevelop ing
Ġold er
å¦Ļ çļĦ
æĺĨ èĻ«
åľ¨å®¶ éĩĮ
- {
p an
is a
Ġth reat
å¤ļ äºĳ
åĵģ åĳ³
æĽ´ éĩįè¦ģçļĦæĺ¯
Ġst ack
è®¾è®¡ ä¸İ
ĠIn f
Ġ4 2
çķĻ è¨Ģ
æ°´å¹³ åĴĮ
è¿Ľä¸ĢæŃ¥ åĬłå¼º
éĩĩåıĸ è¡ĮåĬ¨
Ġcour t
Ġoppos ite
èĭ¥æľ¬ç«ĻæĶ¶å½ķ çļĦ
Ġdeli very
Ġ æŃ¥éª¤
çļĦ åĴĮ
çļĦ æľªæĿ¥
çļĦ æķ´ä½ĵ
ä¸Ĭ éĿ¢çļĦ
æĭ Ĥ
ĠC a
ä»£ ä»·
ri ve
åįİ äºº
éĽĦ åİļ
Ġopen ing
ĠEn ergy
åĴ± ä»¬
æ´ĽæĿī çŁ¶
B I
ç» ½
ä»¥ åĩıå°ĳ
å·¥ åºı
ĠF il
åĭ º
äºĶ åįģ
è®¡åĪĴ çļĦ
æİ¢ ç©¶
Ġcons ists
ç· ´
çļĦ åĨ³çŃĸ
Ġin deed
Ġre act
åı¯ä»¥ åĪ©çĶ¨
ä¹ĭ æĥħ
ĠM iss
åıĳå±ķ æĪĺçķ¥
æĬ¥ éĢģ
çĸĹ æķĪ
æ¼Ķ ç¤º
äºĴ éĢļ
åŃĺåľ¨ ä¸ĢäºĽ
Ġinv ent
ç©¿ è¿ĩ
è¡¨éĿ¢ çļĦ
æµĵ ç¼©
ES T
Ġstrateg ies
æĺ¯ æĢİä¹Ī
æľī ä¸įåĲĮçļĦ
åĩĨ åħ¥
Ġse cret
å®ĮæĪĲ çļĦ
åºĶè¯¥ å¦Ĥä½ķ
ç¨ĭåºı åĳĺ
èĮĥåĽ´ åĨħçļĦ
Ð¾Ð »
åħļåĳĺ å¹²éĥ¨
ä¸įç¡®å®ļ æĢ§
' (
Ġa f
en a
ä¸Ń åİŁ
èĥ½ è®©
æķ° çłģ
ĠM a
ĠThe ir
äº¤æµģ åĴĮ
Ġhelp ing
Ġconf ir
Ġabs or
Ġsubt ract
è½¿ è½¦
çļĦ åħĥç´ł
re ement
åĽ½ ä¼ģ
Ġe ight
çİ° ä»»
åı¯ä»¥ çĽ´æİ¥
å¾Ĺ å¾Ī
åŀ Ħ
éĹ® åį·
æ°ĳ èĪª
èĥ ļ
ĠF un
åĮ» æ²»
è¯ķ çĶ¨
åĨĻ çļĦ
æĿĲæĸĻ åĴĮ
å±ħ å®¶
éĽ· è¾¾
æŁĶ åĴĮ
æ°¨ åŁº
æķĮ äºº
çļĦ å»ºçŃĳ
æĺ¯ çĶ±äºİ
ä¿ ¯
ĠM ont
ä¹¦ çļĦ
èĬ± çļĦ
å®ŀéĻħ çļĦ
æĺİç¡® äºĨ
Ġdi agn
lab el
Ġobserv ed
è¾½å®ģ çľģ
V ID
ä¹ĭ å¾Į
å¹¶ è¿ĶåĽŀ
å¤© ä¸»
æ°Ķ æ³¡
æĬ¥ çº¸
æ·± å¤Ħ
å¦Ĥæŀľ åľ¨
æł¹æį® ä»¥ä¸ĭ
åį« è§Ĩ
äº² åĪĩ
æĬĹ æ°§åĮĸ
åĩĨå¤ĩ å¥½
éļĶ éŁ³
è¯¦ç»Ĩ ä¿¡æģ¯
Ġdec or
Ġcommun ities
è´«åĽ° æĪ·
éĵ¸ éĵģ
éĲµ è·¯
L a
g ener
çļĦ æĹ¥åŃĲ
Ġt u
å¤ļ åĬŁèĥ½
èĢĮ å¼Ĥ
ĠB er
æĸ½ è¡Į
è¿ĩç¨ĭ çļĦ
çĶŁæĪĲ ä¸Ģé¦ĸ
ta u
Ġmult iply
Ġredu cing
ä¿¡çĶ¨ åį¡
Ġinvol ve
æĬ« èĲ¨
b o
æĹ¥ ç¨ĭ
ĠS ec
åĿ ł
æķĪ èĥ½
æ°ĳ ä¿Ĺ
os it
Ġhe ard
è¿Ļä¸ª åı¥åŃĲ
Ġem b
ä»Ĭå¹´ ä»¥æĿ¥
Ġreg ions
åģı å·®
çķ¶ æĻĤ
P y
b i
j oin
å¯¹ è¯¥
ç¤¾ æľĥ
è·¯ éĿ¢
èĩªå·± åľ¨
æł¸ ç®Ĺ
ric ult
è¡ĮæĶ¿ éĥ¨éĹ¨
ä¸ĭéĿ¢ æĺ¯ä¸Ģä¸ª
Ġposs ibly
Ġpost s
Ġeconom y
åĪĿå§ĭ åĮĸ
ä¼łæŁĵ çĹħ
ĠAN D
ĠTex as
ä¼ļ åĦ¿
éĹ´ éļĶ
Ġde ad
xt ure
æłĩåĩĨ åĴĮ
ä¸įæĸŃ è¿ĽæŃ¥
ä»ĭ åħ¥
åī¯ ä¼ļéķ¿
ä¸°å¯Į å¤ļå½©
Ġdig its
Ġdynam ic
l ines
m ega
ï ¸
åĲ ĵ
åıĳ æī¬
ä¸Ģä¸ª éĹ®é¢ĺ
çĿĢ æīĭ
èĩ³ ä¸Ĭ
ä¸¤ åĽ½
ĠL ife
Ġse a
Ġ3 3
æ²¡æľī äºº
åįİ çĽĽ
åĩł æ¬¡
åĪ©çĶ¨ çİĩ
åĲī ç¥¥
äºĭä»¶ çļĦ
è´¯ ç©¿
æĻĭ åįĩ
æµ¸ æ³¡
æĪ·å¤ĸ æ´»åĬ¨
Ġdoc uments
çļĦ è®¾å¤ĩ
çļĦ åĳ³éģĵ
Ġs en
åľ¨ æ°´
Ġm ission
åı¯ åı£
è¡Į æĿİ
çŃī æľįåĬ¡
am ily
è¿ĺ ä¸į
æĹł ç©·
è£ħ ç®±
ç¯ ī
Ġra re
èµŀ åĬ©
ĠFr iday
çīµ å¤´
f ill
Ġt ail
åı¯ æĥľ
ä¿ ©
éĩı å¤§
ant a
æĶ¯ æŀ¶
èħ ķ
åĲ¬ åĬĽ
èĢĲ é«ĺæ¸©
Ġcor rel
Ġtop ics
And roid
å¦¥ åĸĦ
åĵºä¹³ åĬ¨çī©
d i
åĲ µ
at o
æĹ¶ åºĶ
å¯¹ ä½ł
çŃī ä¸Ģç³»åĪĹ
Ġle aving
äºĴ è¡¥
åı¦ æľī
åĪĽä½ľ çļĦ
å¢ŀåĢ¼ ç¨İ
æĿ¥ åĪ°äºĨ
ĠI P
ç»Ħ çļĦ
çľĭ è¿ĩ
é© Ĺ
è¥ Ħ
å¦Ĥæŀľ éľĢè¦ģ
èĭ± æł¼åħ°
Ġres olution
èµ° åľ¨
ç«¯ çļĦ
æĺ¥ ç§ĭ
198 9
Ġtechn ologies
}^{ \
mod el
ortun ately
Ġaff ord
Ġ ç¤ºä¾ĭ
ä¸Ģ æĬĬ
çĤ «
åŃĲ ä¸Ĭ
çł Į
è¯Ń ä¹ī
æĬķ äº§
ĠO h
èĸ ©
)$ ,
p x
åŃ¦ åŃĲ
Ġcon sequ
ri a
ä½ķ æĹ¶
éŁ³ åĵį
æħ ĭ
éĿĴ å±±
é³ ŀ
åĢ¡ è®®
äºĳåįĹ çľģ
Ġaspect s
Ġp ure
åĽ½ åľŁ
çŃī åĨħå®¹
ro y
ä»ĸ ä¹Ł
æĪĸ ä½¿çĶ¨
æ¯Ķ åĪ©
éĹ¨ æĪ·
ä»¥åıĬ åľ¨
å·¥ç¨ĭ æĸ½å·¥
Ġsc hedule
ari an
åªĴ ä»ĭ
ãĥ Ī
æ¯ĶèµĽ çļĦ
åĨ° éĽª
Ġdirect or
Ġdimens ions
ĠMus ic
åĮ»æĬ¤ äººåĳĺ
Ġf illed
Ġan imal
Ġn ull
ä¹Ł è¶ĬæĿ¥è¶Ĭ
æ· Ĩ
ĠF lor
èĲ¥ åķĨ
Ġse ctor
ook ing
é² į
ä¸įä»ħ åı¯ä»¥
Ġra il
A V
Ø ¯
Ġ åĪ¶å®ļ
Ġc ities
Ġin iti
å¯¹ æĪĳä»¬
æı ½
èĩª å®ļä¹ī
äº§ åľ°
è¶ ģ
un te
æĦı çļĦ
è¿Ľè¡Į åĪĨæŀĲ
åıį è½¬
èı ł
åĩı åħį
æĤ£ ä¸Ĭ
æī¹ åĪ¤
åĨ· èĹı
åĽ° æĥĳ
ãĤ ¤
Ġinter view
æ²ŁéĢļ åĴĮ
Ġvers ions
cur rency
Ġprevious ly
ĠOff ice
åĪĨè¾¨ çİĩ
. ãĢĬ
f irst
j ection
åľ¨ Python
é«ĺ éĽĦ
ä¸İ ç®¡çĲĨ
éĥ¨ èĲ½
çī© ä½ĵçļĦ
ĠB i
éĢł çº¸
æĮĩ åĲĳ
æ·· æ·Ĩ
é¢Ĩå¯¼ èĢħ
èģĶç³» æĸ¹å¼ı
hel lo
ĊĠĠĠĠĠĠĠĠĠĠĠĠĠĠĠĠĠĠĠĠ ĠĠĠĠĠĠĠ
â ĺ
il er
æ» ¿
èº« å½±
æ® ·
æķ°æį® å¤ĦçĲĨ
è¿ĻäºĽ æķ°æį®
åĽłä¸º å®ĥä»¬
ang o
åľŁ è±Ĩ
åĬŁèĥ½ åĴĮ
èĦ± ç¦»
Ġengine ering
åºŀ å¤§çļĦ
C SS
s plit
æĺ¯ æ¯Ķè¾ĥ
åħ¨ å±Ģ
åĿ ¤
ç¡® ç«ĭ
è¯· ç»ĻæĪĳ
èħ Į
Ġcomp act
ĠSt art
Ġ20 22
åĺ ±
gr oup
ç¬ĳ è¯Ŀ
Ġend s
ÑĤ Ð¾
Ġmot iv
ç»ıæµİç¤¾ä¼ļ åıĳå±ķ
P N
çļĦ åĽ½éĻħ
åľ¨ æĹ¥æľ¬
Ġb ought
æĭ ¯
æĽ´ æľīæķĪåľ°
å¤ĸ åįĸ
æµ· åĨĽ
æĬ¥ å¯¼
è¾ĥ å¼º
éĺŁ åıĭ
åįĩ éĻį
alcul ate
åĨħéĥ¨ çļĦ
æ®ĭ çķĻ
Ġmeas ured
èĲ¥ä¸ļ æī§çħ§
èĩŃ æ°§
ä¸º åŃ¦çĶŁ
å¹³ å¸¸
æºĲ èĩª
æĪĺ å½¹
çº¢ éħĴ
æĪĸèĢħ åľ¨
Ġwork ers
ä½Ľ å±±
é²ľ èī³
æľĢä½³ çļĦ
Î ¼
Ġof fered
å¤§ åİħ
åĩº åĽ½
ç§ĳ ç½Ĺ
å¿ħ å¤ĩ
æ³ķå¾ĭ è´£ä»»
Ġrel ig
Ġcru cial
w orld
Ġm ac
è¿ĩ å¤ļçļĦ
å®ļ çĤ¹
Ġst able
æ·± çļĦ
oo per
æ²¹ èĦĤ
åľ°æĸ¹ æĶ¿åºľ
Ġmin ute
Ġext ension
åĶĲ ä»£
m en
p ers
å¤§ èĩªçĦ¶çļĦ
éĻ ½
æľį åĭĻ
ä¸ĩ è¾¾
çĶŁäº§ åĬĽ
Ġj ournal
Ġconst it
ograph ic
Ġindic ates
ĠRep ublic
H i
m id
ä¸ª å·¥ä½ľ
Ġm ental
å¹´ è¢«
åŃ¦ å£«
Ġl ots
æ´» æ³¼
ĠB ecause
ĠW ood
10 7
ä½İ åİĭ
Ġ5 5
Ġj ump
å®Ŀ è´µ
èģĮä¸ļ æĬĢæľ¯
åıĺå¾Ĺ è¶ĬæĿ¥è¶Ĭ
ĠNet work
Ġfeed back
Ġprinci ple
PV C
å¾ ©
ä¸º åħ¬åı¸
as er
st d
ĠP erson
ç»ĵ å±Ģ
ĠThe ory
os ure
è¥¿ çĵľ
Ġun d
æ£Ģ ä¿®
éĶ® çĽĺ
éĽĨåĽ¢ çļĦ
åħ±åĲĮ çļĦ
æĬķæłĩ äºº
æł½ åŁ¹
ĠJapan ese
b b
ä¸Ń æľŁ
Ġp hen
Ġb right
åĪ¶ çº¦
ĠF unction
å½±åĵį åĬĽçļĦ
å¦Ĥä½ķ å½±åĵį
è®°èĢħ ä»İ
cul es
Ġcre ates
Ġinter face
æ¯ķä¸ļ åĲİ
Ġve get
æĪĳæĥ³ çŁ¥éģĵ
åĹ ¯
æ°¨ éħ¸
èī° èĭ¦
Ġexpon ential
èģĨ åĲ¬
% )
al og
è¿Ļ åıª
æĿ¥ å¤ĦçĲĨ
ä¸İ åıĳå±ķ
åĲĮ ä¸Ģä¸ª
æĹ¥ è®¯
èĢħ åľ¨
å°± è¢«
çĥ ı
æİ¨ ä»ĭ
åĮĹ æŀģ
çļĦå®īåħ¨ æĢ§
ĠCont rol
æ¸Ķ ä¸ļ
Ġteac her
Ġneigh bor
Ġdisco ver
v a
çļĦ å¢ŀéķ¿
æİ Ģ
åıĳ æ³¡
å½ĵ æĪĳ
ĠB en
æīį åįİ
çĽ¸åħ³ ä¿¡æģ¯
æĬķèµĦ äºº
æł¸ åĩĨ
Ġsp ot
äººä»¬ åľ¨
åª ļ
åģľ çķĻ
æĸĩæľ¬ ä¸ŃçļĦ
å½ĵåīį çļĦ
Ġsmall est
éĶģ å®ļ
èŀº æĿĨ
ĠAfric a
çļĦ åĽłç´ł
çļĦ æ¯ĶèµĽ
çŃī éĥ¨éĹ¨
å®ĥ å°Ĩ
ag on
The n
çĽĳ è§Ĩ
ç»Ŀ å¤§å¤ļæķ°
éĻįä½İ æĪĲæľ¬
æ¾ ¡
)) ;
éº¦ åħĭ
è¼ ¯
çģ° å°ĺ
O ver
t ra
Ġ çĶ¨
Ġs ession
çĲ ª
è¿Ļ åľ¨
ä¸İ æĪĳä»¬
åħ¥ åĽ´
ä¸ŃåĽ½ åħ±äº§åħļ
æĿ¡ è§Ħå®ļ
çĶŁäº§ æķĪçİĩ
çŁ³ å®¶åºĦ
æ³ķå¾ĭ åĴĮ
Ġoper ators
èµĦæł¼ èĢĥè¯ķ
ours es
è¯¸ å¦Ĥ
å¾Ĵ æŃ¥
Ġrecord ed
Wh ich
äººä¸º æľ¬
è£½ ä½ľ
ĠLear ning
G o
at us
le arn
æĭ ¦
Ġth ick
ä¸ĭ åįĬ
ĠI S
ĠS aturday
æĬĢ èīº
å®¢ è½¦
Ġse ven
ç»Ń èĪª
ĠIn s
æ±ĩ æĢ»
åĳĬè¯ī æĪĳä»¬
Ġins ert
æ¸ħæĻ ¨
Ġtyp ical
æ¬² æľĽ
Qu estion
æ¸©å®¤ æ°Ķä½ĵ
åºŁå¼ĥ çī©
n ight
åĴĮ æķĻèĤ²
æĿ¥ ç¡®å®ļ
åĩº åľº
åĪĨ è£Ĥ
ĠC y
ä¸ī ä½į
åĲĦ æĸ¹éĿ¢
æīĭ æ¸¸
æ¸ħ æĺİ
æ®µ æĹ¶éĹ´
åįİ ä¸ľ
æĴ ķ
éĵ¶ æ²³
çº¸ è´¨
Ġdec isions
éĺ» åĬĽ
Ġtechn ique
çĵ· çłĸ
Ġconvers ion
Ġeffort s
Ġmanufact ure
åĴĮ æĪĳ
åĴĮ åģ¥åº·
Ġ\ [
ĠP et
æ¯ı ç§į
ill er
å¸®åĬ© ä»ĸä»¬
Ġpl ug
çļĦäºº åı£
åĽ½éĻħ æľºåľº
åħ¸ èĮĥ
èļ Ĭ
é£¾ æ¼Ķ
T ube
n el
{ -
ä¸Ģ æĹł
st ream
ä¹ĭ å¿ĥ
å°ı åº·
æį® è¯´
Ġ( $
æĹł å¥Ī
ore m
ä¹Ĳ æĦı
çŁŃ æĸĩ
åŃĺåľ¨ äºİ
çĽ´æİ¥ å½±åĵį
æ´Ĺ æīĭ
çļĦäºĭ å®ŀ
Ġreview s
ä¹Ķ æ²»
Ġaud ience
Ġcoe fficients
Ġfram ework
Ġc it
æĪĳ å·²ç»ı
éĶ ¤
çĶŁæ´» ä¹łæĥ¯
åĪĽæĸ° åĪĽä¸ļ
éĿĻ æĢģ
éĺ» çĩĥ
çķħ éĢļ
ç¨į å¾®
Ġfore ign
æĺİçĻ½ äºĨ
Ġste el
n u
æĺ¯ ç¾İåĽ½
Ġm el
çŃī æ´»åĬ¨
åĬ¨ æľº
æĸ° é«ĺ
å®Į å·¥
å¸Ĥåľº ç«ŀäºī
Ġwas te
çĶ¨æĪ· åľ¨
ack age
ç»ĵæŀĦ æĢ§
å°¼ åħĭ
Ġdi et
éļĨ éĩį
á ŀ
Ġt or
å®ŀ æĥł
èĲ ¤
çī¹ çļĦ
åĪ© äºİ
èĢĥ è¯ģ
10 2
èĲ¥ è¿Ĳ
ä¸»è¦ģ çĶ±
åľŁ å·¥
çĽ®æłĩ çļĦ
è¿ĺæľī åħ¶ä»ĸ
cond ition
Ġfocus ed
åº§è°Ī ä¼ļ
æį¢çĥŃ åĻ¨
N N
Ï Ģ
Ġ åħ¬åı¸
Ġa head
ar ithm
ç« ĸ
è¿ĺ æ¬¾
å¤Ħ åľ¨
åĲĦ è¡Į
æĬķ å½±
æĭī å¼Ģ
ç»¼ èīº
Ġthem e
Ġgener ation
æİī äºĨ
Ġorgan izations
Ġtransl ate
O ptions
r and
ä¹ĭ æĹ¶
ĠA S
åĢ «
ä½Ĩ åį´
é£İ åĬĽ
çķĮ éĻĲ
ä¹° å®¶
Ġno ise
æķı æį·
Ġrelative ly
ä» Ĺ
æľ¬ åĳ¨
Ġun less
åĳ¨ å²ģ
ç¡®ä¿Ŀ åľ¨
æĶ¶çĽĬ çİĩ
çĲĨäºĭ ä¼ļ
f un
éĺ ®
æĽ´ åĩĨç¡®åľ°
Ġpro ceed
æĬĢæľ¯ æľįåĬ¡
éĢļè¿ĩ åĪĨæŀĲ
åĮ» åŃ¦éĻ¢
åİ» çľĭ
ç©º åİĭæľº
çłĶç©¶ å°ıç»Ħ
Ġun c
åĳ½ ä¸Ń
åıĳçĶŁ åıĺåĮĸ
çĿ£ æŁ¥
ç¹ Ķ
ç»ĦæĪĲ åĳĺ
ĠZ e
Ġexpress ed
èĮħ åı°
ãİ ¡
) +
åĴĮ ç»ıæµİ
ä¿ Ĥ
ĠI T
Ġg all
ot o
å®ī æħ°
æ°ĳ åľĭ
åıĺ åİĭåĻ¨
ç¤¾ ç¾¤
ĠH um
ĠE st
ä»ħ ä¾Ľ
Ġtell s
ĠØ§ ÙĦ
çĦ Ļ
ç´ Ĭ
çĤ¹ åĴĮ
éĽĨ èģļ
æ¸¸ çİ©
ĠL o
åįģ åĩł
èŃ ī
W here
æľĢ ä¼ĺ
æŃ£ å¥½
èĥ °
çĭ ¸
ä¸įåĲĮ äºİ
åŃĺåľ¨ çļĦéĹ®é¢ĺ
Ġra in
åĩ½æķ° çļĦ
é¢ľ æĸĻ
Ð½ Ñĭ
Ġcoe fficient
A ss
çļĦ æĦıä¹ī
ä» ĳ
Ġf ashion
ä¸Ĭ çľĭ
å®¶ åħ¬åı¸
åĪ¶ å¤ĩ
å°± å·²ç»ı
å¹³ ç±³
åģļ äºĭ
Ġsu ff
åħī çļĦ
èĢģ çĻ¾å§ĵ
we ight
ä¸ºä¸» çļĦ
åĢ¼å¾Ĺ æ³¨æĦıçļĦæĺ¯
åħ¬å¸ĥ äºĨ
çģ° èī²
Ġevent ually
Ġdiscuss ion
å¿ĥèĦı çĹħ
e ven
å® µ
åľ¨ è¿Ļä¸Ģ
ä¸İ äºº
Ġv irtual
é¥ ¥
ĠO pt
çĶŁäº§ åŁºåľ°
èĳ ī
ĊĠĠĠĠ ĠĠ
äº¬ æ´¥
äºļ å¤ª
ç¢İ çīĩ
Ġcharacter istics
å¤įå·¥ å¤įäº§
d ots
Ġ è¿Ļä¸ª
çļĦ æĿ¡ä»¶
ä¸Ń å¤ĸ
ä»¥ å®ŀçİ°
æĪĳ è¿ĺ
æĦı åĲĳ
é£İ æĥħ
åıª ä¼ļ
è¿ĳ è§Ĩ
çŁŃ æĹ¶éĹ´åĨħ
çķĻ æĦı
æııè¿° äºĨ
ann ed
æľīæľº çī©
Ġwonder ful
åŀĦ æĸŃ
K E
U se
b ase
çļĦ åĨ³å®ļ
ä¸į çĦ¶
ä¸į æ¸ħ
èµ £
çŁ ®
å¹¶ è¡Į
10 4
Ġpl ays
åħ¨çĲĥ åĮĸ
Ġthan k
æ©Ħæ¦Ħ æ²¹
H ub
y e
ä¸Ģ ç¾¤
ä¹ Ĵ
Ġs ociety
ä¸ļ ä½Ļ
å¯¹ èĩªå·±
å¯¹ éĺµ
æĢ§ çĸ¾çĹħ
çĹħ äººçļĦ
å¸Ĥåľº åĮĸ
æĿĥ éĩį
éĿŀå¸¸ çļĦ
åĲ¬ ä¼Ĺ
ä¹ĭåĲİ çļĦ
æĪĲç«ĭ ä»¥æĿ¥
åħ¼ é¡¾
Ġprote ction
C reate
E l
ä¸į æŃ¢
Ġre ality
ä½¿ äºº
è¡¨ çļĦ
çĿĢ éĩį
åĬ© æİ¨
åĽ½å®¶ æłĩåĩĨ
æ¼Ķ åĮĸ
ç§ĳæĬĢ å¤§åŃ¦
çŃ¾ åĲį
åŁ¹è®Ń çıŃ
æĢİä¹Ī åģļ
Ġmin or
èĬĤèĥ½ åĩıæİĴ
åľ¨æŁĲäºĽ æĥħåĨµä¸ĭ
] `
åľ į
åľ¨ åīį
åĴĮ æıĲé«ĺ
Ġm ixed
å¤§ æĤ²
å°± éľĢè¦ģ
èĲ į
Ġr ational
çĥŃ éĹ¹
å¥Ĺ é¤Ĳ
æİªæĸ½ æĿ¥
å®½ æĿ¾
æľĢå¤§ åĮĸ
Ġrep air
Ex ample
æĭ¼ åĨĻ
Ġrepl aced
æĺ¯ æ²¡æľī
ĠS il
ĠP an
Ġare n
éĹ¨ çļĦ
æĶ¾ ç¼ĵ
æł¸ æŁ¥
æīĺ ç®¡
Ġra ised
å½Ĵ çº³
åħ¬åħ± æľįåĬ¡
ĠApp lic
èĥĨ åĽºéĨĩ
Ġcomprehens ive
HER E
å¤ ¯
æľī çĶ¨çļĦ
çĶ¨ éĩı
æĭ ±
å°ı æ¸¸æĪı
å¹¶ ä¸įèĥ½
æĪĳä»¬ åı¯ä»¥éĢļè¿ĩ
æĢ» åĨ³èµĽ
åİ» çļĦ
æĶ¾ ä¸ĭ
ä¹Ĳ åĽ¢
ä¹Ĳ éĺŁ
Ġgr id
num s
æħ° éĹ®
Ġsynt ax
F rame
j i
Ġw ild
Ġb ag
ä¿Ŀ ç½Ĺ
ĠA tt
ul s
ĠM el
os is
éħį çĶµ
åħ·æľī éĩįè¦ģ
å¾Īå¤ļ çļĦ
è¿Ľä¸ĢæŃ¥ æıĲé«ĺ
åĳĬè¯ī ä½ł
æģ¶ åĮĸ
pos es
Ð¾Ð ´
Ġgir l
Ġbatter y
F l
f ix
h ost
p o
Ġ æľī
éĢ Ĺ
è¡Į äºº
æĸ° åªĴä½ĵ
ä¼ģä¸ļ ç®¡çĲĨ
ä¹ł ä¿Ĺ
ç¤¾ä¼ļ ä¿Ŀéļľ
og ram
åĬ¿ åĬĽ
æĮī æĳ©
è¿Ļæł· åģļ
çĦ¶åĲİ å°Ĩ
èģĮä¸ļ æĬĢèĥ½
Ġsub sequ
åĪĽéĢł æĢ§
Ġseg ment
U LL
ä¸ĭ æĸ¹
ĠS T
å°Ĩ è¾¾åĪ°
ĠC at
ch o
ç®¡ ç½ĳ
ĠM ot
ç±³ åħ°
æ¼Ķ ç»ĥ
åĨľ æĪ·
æķħ å®«
åħ¶ä¸Ń ä¸Ģä¸ª
ç»Ħç»ĩ å®ŀæĸ½
æĺ¯åĲ¦ ä¸º
ĠRe al
Ġgra d
è¾ĸ åĮº
Ġreason ing
reed om
åľ¨ èģĮ
äºº å®¶
å®ŀ çĶ¨çļĦ
ĠT HE
Ġst ored
æ¬¡ çļĦ
å®ĥ ä¼ļ
éĤ£ æĺ¯
pl ied
æĸĩåĮĸ æĹħæ¸¸
ĠU RL
17 0
Ġtrans ition
åıĳæĮ¥ äºĨ
Ġclass ic
èĩªä¸» çłĶåıĳ
Ġdri ver
é¥± æ»¡
ĠChrist ian
Ġtru ly
åĲĦç§įåĲĦ æł·çļĦ
b urg
h an
s ible
åľ° å¸¦
åĬ¨ èĦī
el ines
è¯´ è¿ĩ
éģĩ è§ģ
çĦ¶åĲİ åľ¨
å®ģ å¤ı
è½¯ä»¶ å¼Ģåıĳ
å¢Ļ ä½ĵ
åħ¬å®ī æľºåħ³
] ï¼Į
çļĦ è¿ĲåĬ¨
âĢĿ ,
ĠS pring
åĪ¶ æĪĲçļĦ
å¸¸ å§Ķ
ä¸ī äºº
åįĹ å®ģ
èĩ´ ä½¿
Ġk in
åĪĽéĢł ä¸Ģä¸ª
Ġcor ner
ci ous
æĲ¬ è¿Ĳ
Ġang les
èĺĳ èıĩ
" },
p H
çļĦ éĩį
Ġf urn
Ġd rug
ä»ĸ è®¤ä¸º
è´¨ åľ°
çİ¯ çĲĥ
Ġ- \
åķĨ çĶ¨
å·² åľ¨
é¦ĸ ä½į
èĭ± åľĭ
æĿĳ èĲ½
æ²³ éģĵ
åĵģçīĮ å½¢è±¡
Ġman if
Ġrec ip
æ´ŀ å¯Ł
æ¯« ä¸į
åľ¨è¿Ļä¸ª ä¾ĭåŃĲä¸Ń
a it
s hip
å¤ ł
om a
ä¹Ł éĥ½
æĸĩ ä¸Ń
ĠS l
ol ved
çĶµ åİĤ
ä¹ĭ å®¶
æĪĸ åľ¨
æĬĢæľ¯ äººåĳĺ
è¥¿ æ¸¸
ä¸ºäºĨ è®©
ific ations
åīĤ éĩı
æĳĨ æĶ¾
åĨľæ°ĳ å·¥
çļ Ĥ
çļĦ éĶĢåĶ®
æķĻ èģĮå·¥
æĬĢæľ¯ åľ¨
éĤ ¢
é¢Ĩ åĨĽ
ĠO lymp
å§Ķ åĵ¡
éļ¾ éģĵ
äººå·¥æĻºèĥ½ çļĦåıĳå±ķ
ict or
åĨľä¸ļ åĨľæĿĳ
Ġprof it
Ġweek end
æī®æ¼Ķ çĿĢ
Ġant i
èĳĹä½ľ æĿĥ
N umber
ed y
Ġto ward
åĬ¨ æīĭ
ï¼ī ï¼Ī
æĤ¨ åľ¨
å¸ĥ æĸ¯
æĪĺ åľº
The y
æĻļ ä¼ļ
éŃ ¯
Ġmin imal
è¡ĮåĬ¨ è®¡åĪĴ
æ·»åĬł åĪ°
Ġeffect ively
Ð¾Ð ¼
br idge
Ġc ab
Ġc raft
å¯ ¡
è¿Ļ éģĵ
æĹ¥ è®°
éķ ĳ
å°ı å¾®ä¼ģä¸ļ
ä»£ åħ¥
æł¸ éħ¸
è®¡ç®Ĺæľº è§Ĩè§ī
Ġpass word
âĢ¦âĢ¦ âĢĿ
èĳ¡èĲĦ çīĻ
åıĳçĶµ æľº
Ġexist ence
Q Q
çļĦ çī¹
æľī èī²
æĿ¥ çĶµ
æķĻ è®Ń
ad y
éĢī åıĸ
çĽ´ å±ŀ
æİĴ æ°Ķ
åĳ¨ ä¸Ģ
åĽ½éĻħ åĲĪä½ľ
Ġ[ "
èģļ ä¹Ļçĥ¯
çĻ» å±±
åĮĸåŃ¦ åĵģ
Ð½ Ð¾
åĽ¾åĥı è¯ĨåĪ«
Ġcheck ing
D ef
ä¸Ń å¼ı
om y
ol ving
æľĢ å¾Į
å°± è¯»
æµģ åħ¥
äºĮ å¹´
æīĵ çĶµè¯Ŀ
ä¸ŃçļĦ ä¸Ģä¸ª
åĥ ¹
æ¿ Ł
å·¥åħ· åĴĮ
èĦ± é¢ĸ
æĸ°åĨł çĹħæ¯Ĵ
---------------- ----------------
F orm
[ \
çļĦ åĲĦç§į
ä¸Ģ ç«Ļå¼ı
æľī ä¸Ģå®ļ
ä¸į è¢«
ä¸į æ»¡
æĺİ äº®
ĠD ynam
Ġ19 90
åĽ¢éĺŁ åįıä½ľ
è¿ĺæľī ä¸ĢäºĽ
Ġsol ving
è¿Ľä¸ĢæŃ¥ çļĦ
æģ¶ æĢ§
Ġdedic ated
L u
çļĦ æ¶Īæģ¯
ä¸Ĭ æĺ¯
åĪĨ å¼Ģ
æĸ° è¥¿åħ°
æľº ä½ĵ
çĤ ĸ
æ²» å®ī
éĺ² æ±Ľ
éħį æĸĻ
åĭ Ŀ
Ġk new
éĻį èĩ³
ä¿® åħ»
å°±æĺ¯ è¦ģ
æī¾ ä¸įåĪ°
ä¿ĿæĬ¤ åĴĮ
æĽ´å¤ļ çļĦäºº
ĠSt ring
Ġpart ner
èŃ¦ ç¤º
ä¼ļè®® ä¸Ĭ
Ġint ended
Ġconf lic
ĠTe am
ĠSun day
Ñ İ
ä¸Ģ çľĭ
æıĲ åĢ¡
éĿ¢ è²Į
éĥ¨ åĴĮ
éĩĩ æļĸ
åŃ¦çĶŁ ä»¬
èĪª çº¿
ç¯ĩ åħ³äºİ
Ġpre par
ĠUn ion
æľĢè¿ĳ çļĦ
omet ric
åĳ¼åĲ¸ éģĵ
çĬ¹ è±«
ĠCour t
æĭ¯ æķĳ
ar ah
åĪ° å¤Ħ
èĩª è±ª
æĸ° å¹´
ä¸İ äººç±»
Ġ\ $
åıĺ çļĦ
èĬ± äºĨ
å®¢æĪ· æıĲä¾Ľ
è¡Ĺ å¤´
pro cess
par am
å®ĩå®Ļ çļĦ
åį§ å®¤
anc is
Ġevalu ate
( {
N LP
çļ ±
Ġs ounds
åĴĮ ä½ł
å¤ļ ä½į
å®ī å¿ĥ
èĩ´ è¾ŀ
ç¡®ä¿Ŀ æīĢæľī
å¢ŀéķ¿ çİĩ
ä»£è¡¨ çĿĢ
ild ing
åŃ¸ çĶŁ
æ²¿ çº¿
åģ¶ çĦ¶
ĠGr and
E m
M I
U E
Ã £
Ġs port
åĴĮ å®ŀè·µ
Ġb ill
åħ¬åı¸ åĴĮ
é£İ æīĩ
éĹ¨ è¯Ĭ
åĽŀ èĲ½
åħī çħ§
çľŁ äºº
åĲĮæĹ¶ ä¹Łæĺ¯
çĶŁçī© å¤ļæł·æĢ§
Ġem p
åĲ¯ çĶ¨
éĵ¶è¡Į çļĦ
å½Ĵ å±ŀäºİ
æĹ¢ æĺ¯
Ġche cks
èĲ¥åħ» ç´ł
èĦ¸ ä¸Ĭ
ä¸ĵéĹ¨ çļĦ
ĠBl ue
Ġenh ance
ĠEdu cation
D avid
ï¼ ĵ
æľī è¿ĩ
æĹ¶ éķ¿
æĻ ĥ
åĲĦ çľģ
äº§åĵģ åĴĮæľįåĬ¡
æ·± åİļ
éĿŀå¸¸ å¥½çļĦ
æĹ¥æľ¬ çļĦ
ç¡¬ åĮĸ
è½¨ è¿¹
éģĭåĭķ æľĥ
Ġvert ical
Ġdatas et
Ġatmosp here
U I
çļĦ æĥ³æ³ķ
at re
æľī å¾Īå¤§çļĦ
åı¯ä»¥ åĪĨä¸º
Ġr ise
all s
åŃĶ åŃĲ
Ġlead er
æİ¢è®¨ äºĨ
æŁı æŀĹ
åħ¬åħĥ åīį
å¿ĥçĲĨåĴ¨è¯¢ å¸Ī
Ġschem e
onym ous
p et
p ace
åĲĮ çŃī
ä½ł ä»Ĭå¤©
ä»ĸä»¬ å¯¹
éħĴ åĲ§
ç«ł ç¨ĭ
èµ° è¿ĩ
Ġdis app
Ġra pid
æĥħæĦŁ çļĦ
æµª æ½®
æĹĹ ä¸ĭçļĦ
ĠWh ich
Ġocc up
éŀĭ åŃĲ
é«ĺçŃī åŃ¦æł¡
Ġassist ance
Ġlearn ed
ĠGerm any
R NA
çļĦ è¶ĭåĬ¿
ä¸Ģ å¹ħ
Ġin ner
ĠI r
ĠP ub
ç²¾ éĢī
Ġun f
Ġar m
Ġsc hed
ä¼´ éļı
åŁºäºİ ä»¥ä¸ĭ
az ine
éģĵè·¯ ä¸Ĭ
æķ¬ ä¸ļ
è´µå·ŀ çľģ
Ġnumer ous
çķľ çī§
ä¸Ń æĢ§
le te
åĪĨ åĪ°
éĩį çĹĩ
ä¹ĭ éģĵ
ä¹ĭ éĸĵ
éĶ ¥
Ġen ab
ear s
åĮºåŁŁ çļĦ
Ġdec ide
èľĤ èľľ
Ġrestaur ant
è¿ Ħ
Ġb an
Ġb aby
Ġcon sole
åĮ» åĬ¡
è¶Ĭ å¥½
äºĨè§£ äºĨ
vers ion
clud ing
çĻ» ä¸Ĭ
æī§è¡Į å®ĺ
èĸ Ľ
Ġend ed
ç¢³ æİĴæĶ¾
Ġart ist
è¢«åĳĬ äºº
tem perature
Ġa p
åĴĮ ä¸ĵä¸ļ
åľ° åĿĹ
åĬĽ æ±Ĥ
ad ing
éª Ĥ
çľŁ çĲĨ
çĽĳ çĭ±
Ġed ges
å®Įæķ´ æĢ§
åĲĦè¡Į åĲĦ
b re
d b
Ġd aughter
Ġn ation
åĬł çıŃ
å½ĵ ä½ľ
Ġv oid
ç¦ ®
ä¸¤ æĿ¡
ç²¾ æ¹Ľ
æĸŃ è£Ĥ
Ġsh ot
åĨħå®¹ åĴĮ
åħļ ä¸Ńå¤®
è¿Ļæł· ä¸Ģä¸ª
æī¹ éĩı
Ġspec ify
æĭŁ åĲĪ
æĤ¬ æĮĤ
é¥¼ å¹²
åıł åĬł
åı¯ä»¥è¯´ æĺ¯
çĪ· çĪ·
N one
P re
Ġ Ñ
al ian
ä¸º ä¸Ģä½ĵ
Ġm ent
è¿Ĳ ç»´
ĠW ord
åĶ ĩ
å½ķ éŁ³
ĠAl though
èĵĿ å¤©
ç¬ĳ å®¹
èį¯çī© æ²»çĸĹ
éŀ Ń
âĦĥ ãĢĤ
Ġturn s
Ġpack ages
rast ructure
Ġchann el
åįİçĽĽ é¡¿
äºº èº«
å¤§ èĥĨ
æµ Ĭ
im age
ä½ł æĺ¯åĲ¦
åįķ ä¸ª
é¦ĸ è¦ģ
ĠJ ew
æĭī åĬ¨
çĭ¬ å®¶
24 0
ä¸Ŀ ç»¸
çĥ§ çĥ¤
åı¬ åĽŀ
Ġcent re
ÑĢ Ð¸
Ġinstall ation
Ġjo ined
èı²å¾ĭ å®¾
) ^{
r ich
ç» ŀ
åı¯ä»¥ æľīæķĪ
æ°´ åĩĨ
ç®¡ è¾ĸ
ĠB ank
est ions
ĠF act
ĠH ill
ĠJ o
ä¸° çĶ°
Ġtrans formation
Ġhand ling
Ġshow ed
èĦī åĨ²
åĪĨ åĮº
å®ĥ ä¸įä»ħ
èĢĥ éĩı
å¸Ĥåľº ä¸Ń
ç»Ħç»ĩ åĴĮ
å®¶åºŃ çļĦ
æ±¡æŁĵ éĺ²æ²»
é²ľ èĬ±
Ġshe l
4 50
S m
åľ¨ æķ´ä¸ª
çŃī ä¼ĺçĤ¹
ä¸ĭ è½¦
å°ı åĲĥ
å¤© å¤©
Ġcon j
èµ· ä¼ı
éļ¾ å¾Ĺ
Ġnum py
ãģ ĭ
Ġpol ic
èķ Ĭ
è¼ ķ
Ð» Ð¸
Ġroom s
S I
d t
Ġc ir
çĶŁ æ®ĸ
ĠS E
ä½¿çĶ¨ Python
åıĳå±ķ æĶ¹éĿ©
åĬŁ å¾·
ä»ĸä»¬ ä¹ĭéĹ´
æĪĸèĢħ åħ¶ä»ĸ
ä¿Ŀè¯ģ äºĨ
å·¦åı³ çļĦ
Ġinvol ving
èģĬå¤© æľºåĻ¨äºº
u cl
æĥħ æĬ¥
ä»· çļĦ
åı° ä¸Ń
ĠN or
og en
å®¢æĪ· éľĢæ±Ĥ
éº Ł
omet ry
éī´ äºİ
çķħ éĶĢ
ĠOn ly
æķ¢ äºİ
éħ± æ²¹
Å Ĥ
çļĦ åľºæĻ¯
in it
ä¸ĭ è¡Į
ç¥ ·
æł¹æį® æĤ¨çļĦ
è´¨éĩı çļĦ
äºĳ ç«¯
æĺ¯åĲ¦ åŃĺåľ¨
åħ³æ³¨ åĴĮ
Ġloc ations
hem atic
éª¨ éª
è·³ èĪŀ
ĠRet urns
L ast
R T
Ġ ×
ĠC D
Ġ** âĢľ
Ġst ores
ĠB ob
çĪ ª
åı¯èĥ½ åĮħæĭ¬
Ġus ual
ç»Ĩ åĪĻ
å°±æĺ¯ ä¸Ģä¸ª
ail ed
æī§ å¯¼
å·® ä¸įå¤ļ
æĵį æİ§
è§£éĩĬ ä¸Ģä¸ĭ
ä¸īä¸ª æľĪ
è¯´æĺİ ä¹¦
éł ĵ
åľ°çĲĥ ä¸Ĭ
Ġbr anch
Ġgeomet ry
} (\
å¸ ·
éĿ ¶
æķ° æĺ¯
æ³ķ åĪ¶
ĠT im
Ġst ick
ç»Ħ å§Ķä¼ļ
éĽĨ è£ħç®±
éĺ² æĻĴ
æŁ¥ å¤Ħ
oc r
è®¾è®¡ ä¸Ń
æ´»åĬ¨ åĴĮ
æĬķèµĦ åŁºéĩĳ
é¦Ļ æĸĻ
äººæ°ĳ åĮ»éĻ¢
æľĭåıĭ åľĪ
æĪĲçĨŁ çļĦ
Ġdig it
èĪĨ è®º
Ġquadr atic
L ine
æĹ¶ è¦ģ
éĿ¢ ç©į
åħ¶ ä¸»è¦ģ
um bers
èµ· èįī
ĠB ill
æľįåĬ¡ åĳĺ
ĠL u
åŁİ åł¡
é¥ ¶
æĢĿ å¿µ
ç§ĳæĬĢ åħ¬åı¸
æĤ£ çĹħ
çĽĳçĿ£ æ£ĢæŁ¥
è§Ĩè§ī æķĪæŀľ
iven ess
æ¡Ĥ æŀĹ
æ®ĭçĸ¾ äºº
éķ į
Ġy ield
æ°´ ä½į
å¹³ æķ´
ĠB ack
ç«ĭ é¡¹
Ġat oms
æķ´ è½¦
å¸ĥ é²ģ
ide o
ç§ĳæĬĢ è¿ĽæŃ¥
ç¿» çĤĴ
æ¾ Ī
Ġdisc overed
å¼¥ éĻĢ
Ġcomfort able
å±ĢéĻĲ æĢ§
åĢĻéĢī äºº
A lex
çļĦ æĤ£èĢħ
ç³»ç»Ł çŃī
åĵª åĦ¿
In te
åº§ æ¤ħ
è¿ĺæľī ä¸Ģä¸ª
å¤ı ä»¤
çº¸ å¼ł
ä¼Ĭ æĸ¯
ä¸Ģæ®µ å¯¹è¯Ŀ
çıį è´µ
è°¢è°¢ ä½ł
æ±Łè¥¿ çľģ
Ġproced ure
ĠComple x
P ad
S ure
a per
çļĦ å½¢æĪĲ
åľ¨ ä¸į
åľ¨ åĨħ
Ġf ant
æĸ° åĵģ
æ°ĳ åĬŀ
éĤ£ ä¸Ģ
ren e
åĨĻ åŃĹ
Ġke ys
ä»¥ä¸ĭæĺ¯ä¸ĢäºĽ å»ºè®®
Ġtem per
cur s
ä¹¡æĿĳ æĮ¯åħ´
Ġexplicit ly
Ġinequ ality
ĠJes us
A F
g rad
çļĦ åĬªåĬĽ
æĺ¯ åĽ½å®¶
æĺ¯ åĽ½åĨħ
å± ¤
ä¸Ĭ åŃ¦
å¦ ĥ
ä¹Ł æ¯Ķè¾ĥ
çĿ ¿
if ts
Ġad vert
å¨ ĩ
Ġequ ilibrium
ĠEx per
ĠIs land
Ġmot or
Ġnumer ical
S w
T est
ĉ ĉ
åº «
ä¸į ä¸Ģå®ļ
ä¸į ç¨³å®ļ
ĠT able
å¿ĥ ä¸ŃçļĦ
ĠM icrosoft
ä¸ī çŃīå¥ĸ
ç®¡çĲĨ çŃī
æĶ¾ çĶµ
å¥³ æĢ§çļĦ
éħĴåºĹ éĽĨåĽ¢
èĭı èģĶ
Ġplan et
.... ..
ç¡ķå£« åŃ¦ä½į
Ġcontin ues
%% %%
æ£Ģå¯Ł éĻ¢
) ï¼ļ
åľ¨ ç½ĳä¸Ĭ
è¦ģ ä¹Ī
æ² ¾
åĲĪ åĬĽ
éĢļ è½¦
å¸¸ å§Ķä¼ļ
å¤ĸ å£³
æĺİ æĻº
ä¸ī äºļ
çľĭ å¥½
è¾ĥ å¿«
ä»Ģä¹Ī æĹ¶åĢĻ
èĢĲ çģ«
æĭ¿ ä¸ĭ
az z
ĠIs ra
Ġindic ate
Ġcaus es
âĸ ²
N O
Ġ ç´¢
Ġ ç¡®å®ļ
ic ago
è¾ ±
åĲİ åĭ¤
åĢ ¦
ĠC re
ä¾Ľ çĥŃ
éĤ µ
æ±Ĥ è§£
ç¤¾ åĽ¢
ĠG al
æĥħåĨµ åĴĮ
åĬ¿ å¤´
çĨ ı
åıĳçİ° çļĦ
åİĨåı² æĸĩåĮĸ
èĶ ļ
ç¡¬ çĽĺ
ç¼ĵ åĨ²
åĿĲ èĲ½
ron ic
Ġbeaut y
æ¿ĢçĥĪ çļĦ
cs v
C ode
å¤§ çĲĨ
åĪ° æľŁ
å¹³ åİŁ
Ġke pt
çº¯ ç²¹
åĵ¥ åĵ¥
æĻ¶ ä½ĵ
å¯ĵ æĦı
æº ī
åĽĽ åįģ
è½» å¾®
Ġjust ify
æ¦ľ æł·
Ġimpro ved
Ġblo cks
éĶ¦ æłĩ
èĦĨ å¼±
çĥĺå¹² æľº
z ero
Ġ æĹ¥
å¤§ éĺŁ
ic ian
åŃ¦ éĹ®
Ġre ached
åı¯ä»¥ å¢ŀåĬł
å½ĵ éĢī
æĹł æ¯Ķ
ä¸ŃåĽ½ ç»ıæµİ
åĸ ĺ
Ġv ision
ĠL inux
ld ots
æİĴ éĺŁ
åĩı ç¼ĵ
å¢ŀåĬł åĢ¼
èĽ ®
å¨ģ å»ī
Ġph il
äº® åº¦
æ½ľ æ°´
Ġfam iliar
èĢ³ æľº
è¿Ļæ®µ ä»£çłģ
Ġdom in
çĲĨäºĭ éķ¿
ä¼ĺèī¯ çļĦ
Ġhom es
p age
æŀľ æ±ģ
ĠP o
ä¸ī å¤©
é¦ĸ éĢī
æīį æľī
Ġso il
æ²»çĸĹ çĻ½çĻľé£İ
åįĥ åħĭ
ps ilon
è¿Ľä¸ĢæŃ¥ æıĲåįĩ
å°ıæĺİ æľī
æĢĿèĢĥ åĴĮ
ĠSc ott
uck y
å±±è¥¿ çľģ
a a
k in
s is
Ã ¢
åį ¤
ä¸Ń åĴĮ
ing er
çĶŁ äºİ
åı¯ä»¥ å¯¹
ä¹Ł å¼Ģå§ĭ
ra k
æľĪ ç»ı
Ġst ated
ĠD en
èº« æĿĲ
åĿļ åĽº
å½© ç¥¨
æĬ¥åĳĬ ä¸Ń
è°Ī è®º
Ġel imin
èĬĤèĥ½ çİ¯ä¿Ŀ
å¼Ł å¼Ł
èĤ¡ä¸ľ çļĦ
________ ________
Us ing
n ce
Ġt ang
åľ¨ åŃ¦ä¹ł
åĬ¨ çļĦ
ĠS pecial
æīĢ éķ¿
è¿Ľè¡Į æİĴåºı
æŀĦ ä»¶
ant ed
ç±³ é¥Ń
ell a
ç¾¤ ä½ĵçļĦ
Ġsp ending
äº§çĶŁ å½±åĵį
æľĢåĲİ çļĦ
ç»Łä¸Ģ çļĦ
Ð¾Ð ³
ä½łä»¬ çļĦ
Ġkeep ing
çĻ¾åĪĨ ä¹ĭ
Ġprote in
v als
ä¸Ģ éĿ¢
Ġs amples
ent ure
åħ¨ ç¤¾ä¼ļ
èĢĮ æĪĲçļĦ
ĠP ay
ir ation
åİŁ æľīçļĦ
è°ĥ æĸĻ
ä¼ĺ äºİ
åģļ å¤§
Ġse ctions
éĢĤ æĹ¶
å¸Ĥåľº çĽĳç®¡
çģ« çĪĨ
éĢģ ç»Ļ
èĲ¥åħ» æĪĲåĪĨ
åįļå£« åŃ¦ä½į
éĻª åĲĮ
æĥ³è±¡ åĬĽ
Ġstat istics
En ter
Ġcateg ories
ĠAcc ording
ä¸Ń æĸ°
Ġb en
ar ry
åĪ° å¤§
æ¸ Ľ
åħ¨ éķ¿
å·² äºİ
åĳ¨ äºĶ
çļĦä¸Ģ å¤§
è¿Ļä¸Ģ åĪĩ
Ġexp ansion
åĩĨç¡® çİĩ
ç¢³ æ°´
çľŁçļĦ å¾Ī
Ġla un
çģĮ æºī
L O
i est
äºº éĢł
èµ Į
Ġd ress
** *
as te
æĭ Ń
è½ Ħ
åĩº æ¸¸
æĦ §
il ton
èĤ Ĩ
Ġst reet
å¤ĸ è¡¨
æĸ¯ åħĭ
å¹¿æ³Ľ çĶ¨äºİ
198 3
éĵº è®¾
Ġmajor ity
go ing
l ife
Ġ æĸ°
æĪ ļ
è¿ĩ éĩı
ve ctor
ir us
æ³¨ éĶĢ
åĨ³ å®ļçļĦ
out s
å°Ķ å¤ļ
å°Ķ å¤«
æŃĮ åĶ±
AI åľ¨
åħŃ ä¸ª
aus s
éĤ® ç¼ĸ
198 6
Ġmet ric
èĢ³ æľµ
Ġpur poses
å°ĳæķ° æ°ĳæĹı
H P
Ġc ivil
æĢ§ éĹ®é¢ĺ
è´¨ çļĦ
ĠB et
æ¯ı å¹´çļĦ
åı° ä¸Ĭ
èĩ´ å¯Į
ãĤ Į
Ġmoment um
âĤ Ĥ
æĳ©æīĺ è½¦
Ġ ä¸ī
çļĦ åĲĮ
åĴĮ ä¿ĿæĬ¤
ç¦ı éŁ³
å¿ħé¡» åľ¨
è¿İ æĿ¥äºĨ
å®ļæľŁ è¿Ľè¡Į
cd ots
åİī å®³
j ava
Ġc op
äºº ä½ĵçļĦ
åı¯ æİ§
Ġre venue
å»º ç¯ī
å¼Ģ èĬ±
Ġbe coming
éĢļè¿ĩ ä»¥ä¸Ĭ
èĻ Ĳ
è¯ģ çĽĳä¼ļ
åĩı å°ı
æ²¹ å¢¨
éĴ¢ ä¸Ŀ
å·¥ä¸ļ åĮĸ
å®ļæľŁ æ£ĢæŁ¥
çĻ¼ çı¾
Ġlo an
Ġ æĿİ
ä¸Ń è¢«
çŃī çĹĩçĬ¶
è¿ĩ å¾Ģ
æĥħ æĻ¯
æ¯Ķ è³½
åķ ¥
æİ¨ æĸŃ
è½¬ åıĳ
oc ks
é¦ĸ å±Ĭ
æ²¹ çĥŁ
çªģ åĩºçļĦ
éħ¸ æĢ§
éħ¸ å¥¶
æĪĲç«ĭ çļĦ
ER T
æ·ĭ å·´
åįµ å·¢
Ġprim arily
æļĳ åģĩ
çĶŁæĪĲä¸Ģæ®µ ä»ĸä»¬çļĦå¯¹è¯ĿåĨħå®¹
Mod el
è¿Ħ ä»Ĭ
Ġ å½ĵ
Ġ ãĢĲ
çļĦ å®¶åºŃ
åĬ ī
ĠA ccess
ä½į åĪĹ
æĬ¥ åĪ°
ĠL and
è¯· åľ¨
å¤± ä¿¡
ä¿ĿæĮģ åģ¥åº·
25 00
é»ĳ å®¢
ax is
è¿½ éĢĲ
éŁ³ä¹Ĳ ä¼ļ
æī© å»º
åı¯ä»¥å¸®åĬ© åĮ»çĶŁ
è·¨ åĽ½
åĲĦä¸ª é¢ĨåŁŁ
D O
n m
Ġt ut
æĹ ·
Ġd ra
ç§ĳ åĪĽ
éģĵ åħ·
åıĳå±ķ è§ĦåĪĴ
åĻ¨ çŃī
ç»Ļ åĩºçļĦ
å¹¿ çĶµ
ç»Ĩ åĮĸ
åĨľ æľº
ĠSt r
ç«¯ åįĪ
è¯Ńè¨Ģ æ¨¡åŀĭ
æĬĹ åĩ»
Ġpe ace
Ġexp ensive
è¿¹ è±¡
Ġder ived
éĴ» çŁ³
p red
åľ¨ é«ĺ
åĴĮ æİ§åĪ¶
ä¸į ä¸Ģ
åħ¥ é©»
ĠW orks
æĤ¨ åı¯ä»¥åľ¨
æĬ¤ èĤ¤
éĢĤ åº¦
åĮĹ æµ·
ç«Ļ çļĦ
çº¢ åĪ©
è´Ń ç½®
åĳ³ çļĦ
åħļ ç»Ħ
Ġman ner
å»ºçŃĳ ä¸ļ
å®Ŀ è´µçļĦ
Ġint elligence
æİ¨èįĲ çļĦ
Ġsee ing
è´´ è¿ĳ
æķ°åŃ¦ é¢ĺ
ä¸´åºĬ è¯ķéªĮ
åŁºç¡Ģè®¾æĸ½ å»ºè®¾
Ġconcern s
ĠDevelop ment
B O
h igh
ä¸Ń åĲ«æľī
ä¸į å¯¹
ä¸º çĽ®æłĩ
éĿ¢ æĿ¡
ç»ı è´¸
ç®¡ åĪ¶
åħ¬åı¸ æĭ¥æľī
è®© å¥¹
åŁİ çļĦ
ä¸ĸ ä»£
åħ·æľī ä¸Ģå®ļçļĦ
æĬķèµĦ çļĦ
ä»į æĺ¯
åĤ¨ èĵĦ
è·Ł è¿Ľ
ç»ıéªĮ ä¸°å¯ĮçļĦ
Ġfl ight
çŀ ©
"" "
çĽĴ åŃĲ
R F
å¹´ å¤ıåŃ£
å®ļ çĲĨ
åĲİ åı°
ĠA ward
å®ī å¾·
Ġv en
éļ¾ åħį
æ²¹ æ¼Ĩ
Ġar bit
åĬłåħ¥ äºĨ
urb an
ç»½ æĶ¾
t ics
is her
ä¸º å¹¿å¤§
Ġst ability
ĠM onday
è¯´ äºĨ
çģ ¶
åİŁ åŀĭ
ĠR ock
ĠN a
ĠV ari
éĵ¶ è¡Įä¸ļ
ä¼¤ åı£
å¯» å¸¸
æ·±åħ¥ äºĨè§£
ä¸¾åĬŀ äºĨ
é¦ĸå¸Ń æī§è¡Įå®ĺ
çļĦ ä¸ªäºº
ar g
å¹´ ä¸Ń
å¯¹ äººä½ĵ
æ¸ ł
éķ¿ ä¸īè§Ĵ
æĹł æ¯Ĵ
çŁ¥ çļĦ
æķ°æį® ä¸Ńå¿ĥ
åħī è°±
åįİ åĮĹ
çĶ¨æĪ· åı¯ä»¥
è¯ī æ±Ĥ
Ġdes ired
æķĳ æ²»
Ġoptim ization
ĠAustral ian
C F
æ² Ľ
éĽ ģ
çķ °
é£İ è²Į
ç¥ Ģ
æ£ ĺ
é¢Ħ åĳĬ
è¿ĻäºĽ ä¿¡æģ¯
æİĴ æ±¡
æķĻèĤ² åİħ
åĩı åİ»
çº¢ èī²çļĦ
çĽ®åīį åľ¨
åĤ¨ èĥ½
è¡ĮæĶ¿ å¤Ħç½ļ
Ġrequest s
Ġcompar ison
) =\
ë Ĭ
ä¸Ĭ è¿Ľè¡Į
ç½ĳ æł¼
æ°Ķ åĬ¨
æĮĩ éĴĪ
å·¥ç¨ĭ é¡¹çĽ®
åĳ½ é¢ĺ
è´§ æŀ¶
æľºåĻ¨ ç¿»è¯ĳ
æļĳ æľŁ
éĩĮç¨ĭ ç¢ĳ
r ary
Ð ¶
å° ¹
åŃ ľ
es ome
è¡Į ä½¿
è¿ĩ å¾Ĺ
å¼Ģ æĶ¯
å¼Ģ å¤´
ĠP eter
æľįåĬ¡ è´¨éĩı
Ġwe ar
æµ· åŁŁ
Ġnot ation
é¢Ħ å®ļ
ph ant
ne xt
æ²»çĸĹ æķĪæŀľ
Ġcre am
æĦŁè§ī åĪ°
Ġgreat est
éĹľ ä¿Ĥ
è¾© æĬ¤
ĠFlor ida
çļĦ çĲĨè§£
å¹´ çºª
å¤ļ ä¸º
Ġis ol
ä¸İ ä»ĸäºº
Ġg lo
æĪĳä»¬ è¿ĺ
çĽ¸ éĤ»
Ġcon clusion
ĠE UR
19 79
å¸Ĥåľº è§Ħæ¨¡
çŁ¿ çī©
å¼¹ ç°§
Ġsupport s
èµŀ ç¾İ
ĠAc ademy
Ġprep ared
/ (
A g
B N
c all
s cript
ä¸į å·²
åŁ ·
åħ¬ å¼Ģåıĳ
æ³ķ åŃ¦
äº¤ ç»Ļ
æµģ ä½ĵ
ĠH en
Ġsh ip
å¹² æĹ±
è´¢ æĬ¥
åįļ ä¼ļ
æ© ĭ
ĠAd v
çķĻä¸ĭ äºĨ
z one
ì Ĺ
çļĦ åİĭåĬĽ
ĠI dent
ĠM ulti
ĠB Y
ä»» åĳ½
å¼º åĽ½
em ail
ä¾ĭ å¤ĸ
éĻį å¹ħ
Ġmost ly
åıĥèĢĥ æĸĩçį»
Ġaccom pl
b matrix
t ion
çĶŁ çĮª
å®ŀ ä¸ļ
ist ant
em ploy
é£Ł åłĤ
é¢Ħ çĥŃ
åĽĽ åĳ¨
ç»Łè®¡ å±Ģ
æīĢåľ¨ çļĦ
æĬ± æŃī
èº«å¿ĥ åģ¥åº·
çĮľ æµĭ
éª¨éª ¼
M C
u able
ä» ķ
Ġb oy
æĹ¶ æĬ¥
as p
èĬ ¹
åĲĦ åįķä½į
ab a
å¯¼ çĥŃ
åı¯èĥ½ ä¸İ
æ²¡æľī ä»Ģä¹Ī
çłĶç©¶ æĪĲæŀľ
çļ® éĿ©
æİ§åĪ¶ åĴĮ
å»ºçŃĳ çļĦ
çºª æ£Ģ
éģ¿åħį ä½¿çĶ¨
å¨ģ å°Ķ
è´¢åĬ¡ æĬ¥è¡¨
Ġcompos ition
çĲĨå·¥ å¤§åŃ¦
: âĢľ
L og
j ust
ä¸Ģ ä¸Ģ
ä»¥ è¾¾åĪ°
å» ĸ
Ġal tern
èį «
ä¼ģä¸ļ æĸĩåĮĸ
æ»¡ æ»¡
ĠTh omas
äº« åıĹåĪ°
éº ¼
ç³»åĪĹ äº§åĵģ
ä»İèĢĮ ä½¿
Ġrem ote
Ġdec ay
ç§»åĬ¨ äºĴèģĶç½ĳ
Ġgu itar
Ġdirect ed
æ¯« åįĩ
åĬłå¿« æİ¨è¿Ľ
æĽ¼ èģĶ
Ġ ä¸į
Ġs am
è¿Ļ ä¸īä¸ª
ä¸Ĭ æĸ¹
åĩº èĩª
åĪĨ å±Ģ
ro t
il ed
åĨħ åĪĨæ³Į
ç½ĳ æĺĵ
ĠB rown
çľŁ çļĦæĺ¯
out put
ç»§ç»Ń æķĻèĤ²
éĢŁåº¦ åĴĮ
Ġdep artment
å¿ħè¦ģ æĹ¶
è®©æĪĳä»¬ ä¸Ģèµ·
è¿Ļé¦ĸ æŃĮ
â ģ
ä¸º ç¤¾ä¼ļ
ro py
å®ŀ æľ¨
æį® ä»ĭç»į
æĹł å°½
é£İ èĥ½
Ġcom plic
æİ¨ ç§»
Ġ3 8
è¿Ļä¸ª æĹ¶åĢĻ
AI æĬĢæľ¯çļĦ
å¸ĮæľĽ éĢļè¿ĩ
çĶµåŃĲ è®¾å¤ĩ
åįĪ é¤Ĳ
Ġinter act
åĨ° æ·ĩ
Ġ: =
Ġaut hors
198 2
å¿ĺ äºĨ
ä»£çĲĨ åķĨ
f ol
çļĦ å¹³åĿĩ
Ġt un
åĴĮ è§£
åĴĮ å®ĮåĸĦ
Ġb urn
Ġm m
åĩº çı¾
ro ph
è®¡ æķ°
os oph
è¥¿ æ´ĭ
åħī çº¤
ç¬¬ä¸Ģ ä½į
äººä»¬ çļĦçĶŁæ´»
ject ive
èįī æ¡Ī
ãĤ Ĭ
ç«ŀäºī åĬĽçļĦ
æİ¨èįĲ ä¸ĢäºĽ
Ġrefer ring
Ġlov ed
" );
H y
è¿Ļ ä¸¤ç§į
åĪ° çİ°åľ¨
æĸ° ä¸Ģè½®
el ess
ç± ½
æłĩ æĿĨ
è½¦ éģĵ
äº¤ æīĢ
è¯· æĤ¨
èĹ ī
ĠÐ ¼
Ġmain tenance
sc ape
Ġens ures
Ġbirth s
Ġestim ated
Ġgrav ity
åľ¨ åŁİå¸Ĥ
è¿Ļ ç¯ĩ
å·¥ åĮł
Ġn avig
éĺ ª
ä»Ĭå¤© å¤©æ°Ķ
ĠPro cess
Ġdistrib uted
gra de
Ġconstraint s
ĠStand ard
S L
] {
l anguage
ä¸Ģ å¿ĥ
Ġs now
åľ¨ éĿ¢å¯¹
å¯¹ æĪĳä»¬çļĦ
Ġn odes
ç¨ ł
åħ¨ æł¡
éĴ ¦
19 70
åĲĮæĹ¶ åľ¨
æķ£ åıĳ
å»¶ æľŁ
Ġcould n
èģĺ è¯·
æĳĩ æ»ļ
å¹¿æĴŃ çĶµè§Ĩ
é¾Ļå¤´ ä¼ģä¸ļ
Right arrow
èĦ±é¢ĸ èĢĮåĩº
åĨ°æ·ĩ æ·ĭ
m i
t arget
åĽ½ å®ī
çİ° è¡Į
å±ķ åĩº
åĽł æŀľ
æĹł åı¯
est ic
19 78
åºĶçĶ¨ é¢ĨåŁŁ
å·¥ç¨ĭ åŃ¦éĻ¢
å½ķ çĶ¨
ĠSt ar
è·Ł æĪĳ
æĪĳåĽ½ çļĦ
éĢŁåº¦ å¿«
åŀĥåľ¾ æ¡¶
Ġredu ction
é¢ģ å¸ĥ
R C
Ġ åı¯
çļĦ çī¹æĢ§
å° ¬
ĠC amp
çĹ ĺ
éĵ ¬
åĲĦ å¼ı
å¼º åĬ¿
æł¡ ä¼ģ
ä¸ĸ çļĦ
æĭī åħĭ
çģ« çĦ°
åĤ į
æĻ® æĥł
ĠĠĠĠĠĠĠĠ ĠĠĠ
åħ´è¶£ çĪ±å¥½
Ġsign ed
æ·¡ æ°´
Ġinc hes
å½¼ å¾Ĺ
æĪ¿åľ°äº§ å¼Ģåıĳ
å¾Īå¥½ åľ°
åĩıéĢŁ æľº
ä¸ºçĶ¨æĪ· æıĲä¾Ľ
è²ł è²¬
M T
Ġ é«ĺ
ä¸ª åĽ½å®¶
è¦ģ åıĬæĹ¶
çĸ ®
è¢« è¿«
ĠF inally
åı¯èĥ½ æĽ´
æĻºèĥ½ åĮĸçļĦ
æİĴ åľ¨
æĺŁ æĺŁ
èĲ½ æĪ·
æĺ¯åĲ¦ éľĢè¦ģ
å»ºç«ĭ èµ·
Ġset up
Ġem bed
å°ıæĹ¶ çļĦ
Ġed itor
å£® è§Ĥ
åĲīæŀĹ çľģ
ĠSpe c
ĠRuss ian
éĶ¦æłĩ èµĽ
E ach
J o
S i
Ġ âĢĿ
èĢĮ éĹ»åĲį
éĽ £
çŁ ¢
è¯ķ è¡Į
ä¿¡æģ¯ å®īåħ¨
è¿Ļä¸ª åĩ½æķ°
ib ilities
ç§ĳæĬĢ åıĳå±ķ
è®¡åĪĴ åĴĮ
çŁŃ æĿ¿
In d
ä»İèĢĮ å®ŀçİ°
ä½ĵç³» å»ºè®¾
Ġvert ices
ç¿ħ èĨĢ
V iew
åĩº å¢ĥ
ç¤ ģ
ä¹ĭ åĴĮ
æĥħ äºº
å¤ĸ å¢Ļ
éģĵ æŃī
ĠW ed
ĠL ike
è¿ĳ å¹´
åıĳçİ° èĩªå·±
çľ¼ åħī
åī§ çĥĪ
çģµ æķı
éĵ¾ æĿ¡
Th ank
Ġmeasure ment
Ne xt
D æīĵåį°
h op
çļĦ é¢ĨåŁŁ
ä¸į åºĶè¯¥
ä¸į å¹¸
ä¸Ĭ ä¸ĸçºª
é¦ ħ
ä¾Ľ éľĢ
ç»ĵ å°¾
åı¯èĥ½ å½±åĵį
æīĵ éĢļ
åĨľ åİĨ
è¡Įä¸º åĴĮ
æľĿ é²ľ
app y
è¼ ī
ä¸»äºº åħ¬
é©¬åħĭ æĢĿ
" ;
[ [
c r
çļĦ åķĨåĵģ
çļĦ çī¹å¾ģ
or ough
it Hub
äºº æľº
å¹´ åĴĮ
ä¸İ æĤ¨
æĻ ĸ
Ġ** ãĢĬ
od ed
åįķ ä½ĵ
ä¸ĩ äº¿
å®ĮæĪĲ ä¸Ģæ®µå¯¹è¯Ŀ
Ġac ademic
çļĦäºĭ ä»¶
ĠOn line
Ġingred ients
åŁºäºİä»¥ä¸ĭ è§Ĵèī²ä¿¡æģ¯
A rt
t w
Ġ æĸ¹æ³ķ
çļĦ ä¸ļåĬ¡
çļĦ æĢĿæĥ³
åŃ¦ åīį
åĽ½ åºĨ
å·¥ ä¼¤
æĺİ æ²»
æĹ¶éĹ´ è¡¨
è¨Ģ è¯Ń
èĭ± éķĳ
éĿ© æĸ°
æ´¾ å¯¹
è·¨ çķĮ
çļĦçİ¯å¢ĥ ä¸Ń
èĸª èµĦ
Ġmole cules
åīįæīĢæľª æľīçļĦ
åŁºäºİä»¥ä¸ĭè§Ĵèī²ä¿¡æģ¯ å®ĮæĪĲä¸Ģæ®µå¯¹è¯Ŀ
G ç½ĳç»ľ
p es
t im
çļĦ å®ŀæĸ½
ä½ł å¦Ĥä½ķ
ä¸ī å³¡
äºĮ æľŁ
åı° éĺ¶
å®¹ çº³
åįĹ æµ·
lo cal
æĸĩåĮĸ èĥĮæĻ¯
æĵ ĩ
åħĭ åħ°
11 1
åģ¥åº· ç®¡çĲĨ
ç®Ģ ä¾¿
é©¬ å°Ķ
åľŁ èĢ³
çŁŃ ç¼º
æĹħæ¸¸ æĻ¯çĤ¹
de v
é¤Ĳ åħ·
èģļ ä¸Ļçĥ¯
ick en
Ġstud ied
å·¥èīº åĵģ
åľĨ çļĦ
ç»Ĩèĥŀ çļĦ
ĠCon st
Ġprof ile
æĪĲéĥ½ å¸Ĥ
æĸ°é²ľ çļĦ
Ġeduc ational
g reg
à ¯
Ġf uel
æĹ¥ åĲİ
ä¹ĭ ä½ľ
ä¸» æĴŃ
å°ı éº¦
Ġbe ach
éĩĮ éĿ¢çļĦ
è°ĥ çĲĨ
Ġ3 9
ä½İ æĪĲæľ¬
æķĪçİĩ é«ĺ
çĶŁæĢģ æĸĩæĺİ
é¦ĸåħĪ éľĢè¦ģ
Ġlook ed
Ġown er
åħ¼ èģĮ
Ġrese arc
ç»Ļä½ł ä¸¤ä¸ª
h ire
s he
Ġ äºĮ
åĪ ĥ
Ġs elling
æķ Ĺ
çĽ ¯
åĪĨ ç»Ļ
ä¹Ł èĥ½å¤Ł
æīĢ è¯´çļĦ
Ġv oc
æ¼Ķ åıĺ
ä¼Ĺ æīĢ
æĹħæ¸¸ æĻ¯åĮº
è®¿ è°Ī
é£İæł¼ åĴĮ
é¢ľèī² çļĦ
ĠDe v
ĠUS A
Ġmar ried
ĠPr int
æĸĩçī© ä¿ĿæĬ¤
é¢ł è¦Ĩ
æŀĹèĤ¯ è¿ĳåľ°å°ıè¡ĮæĺŁ
çļĦ å¼Ģåıĳ
è¿Ļ ä»¶äºĭ
ĠT own
å¼Ģ è¾Ł
çĹħ çĲĨ
Ġcre ation
çĥŁ åı°
åı¥åŃĲ ä¸Ń
Ġanswer ing
!! !
Ġ! =
æŀĹèĤ¯è¿ĳåľ°å°ıè¡ĮæĺŁ çłĶç©¶å°ıç»Ħ
Ġ æŀĹèĤ¯è¿ĳåľ°å°ıè¡ĮæĺŁçłĶç©¶å°ıç»Ħ
åľ¨ éĤ£éĩĮ
æĪĲ ä¸Ģä¸ª
èĩª åľ¨
çŁ «
åģļ ä¸ĢäºĽ
å¯Ĩ éĴ¥
éħ¸ çĽĲ
Ġ20 23
è®¢ éĺħ
Ġinter action
éĢļçŁ¥ ä¹¦
åĭĩ å£«
Ġlink ed
Ġdu plic
Ġkil omet
Ġç´¢ ç§ĳç½Ĺ
W orld
in ition
åľ¨ å¯¹
åĴĮ éĿŀ
an i
ä¸į æĩĤ
å¹´ äº§
åħ³ ç¨İ
ä¹ĭ åĪĿ
ä»İ æĸĩç«ł
od d
Ġ$ ,
ä½¿çĶ¨ æĹ¶
ĠF ire
ä¸¤ å²¸
æĽ´å¤ļ åľ°
ç¯ĩ ç«ł
ç¹ģ å¿Ļ
å°±ä¸ļ æľºä¼ļ
çļĦä¸Ģä¸ª éĩįè¦ģ
ĠEn ter
å¹» æĥ³
Ġla unch
plot lib
å¹ ¾
ä¼ļ åĲĮ
éĩį åĲ¯
ĠW al
ĠR oyal
è¶³ åįı
ĠK ore
Ġreg ression
çī¹çĤ¹ æĺ¯
Ġlog ical
æ¡Į éĿ¢
sub set
ĠMathemat ical
Val ue
n ab
ä¸Ń æłĩ
Ġf an
ä¸į æĹ¶
ä¸º å¯¼åĲĳ
å·¥ å§Ķ
åĩº éĻ¢
æĥ ¡
ä¸İ åĲĪä½ľ
ä¹Ł æĹłæ³ķ
èī² æ³½
ç´ł æĿĲ
ual ity
Ġpol ar
Ġsk y
èĿ ī
Ġemploy ee
rodu ction
Ġfactor ial
æ¼ĶåĶ± ä¼ļ
Ġelectron ic
Ġemot ional
äºĮç»´ çłģ
èĲ¥åķĨ çİ¯å¢ĥ
M ay
æĬ Ĵ
æĹ¥ æŃ£å¼ı
åħ¥ äºĨ
è¯Ń æ°Ķ
æ·± åİļçļĦ
Ġar ithmetic
åį¡ è½¦
åĪ¶å®ļ ä¸Ģä¸ª
Ġexper ts
Ġdocument ation
èķ´ åĲ«
éĬ Ģ
åľŁèĢ³ åħ¶
H istory
çļĦ ä¸įæĸŃ
çļĦ èī¯å¥½
åį Ĵ
est yle
åķĨ æĪ·
æİ¨ è¿Ł
åĥ ħ
åĨĻ ä¸Ģä¸ª
ĠTh ink
çĶµåŃĲ ç«ŀæĬĢ
å¥ĩ æķ°
å¼Ł åŃĲ
åĬłå¤§ å¯¹
çİ°éĩĳ æµģ
æĮ¤ åİĭ
åħ»èĢģ ä¿ĿéĻ©
åı¯è¡Į æĢ§
A ct
v ol
é«ĺ æ°´å¹³
éĩį éĩĳå±ŀ
äºĽ ä»Ģä¹Ī
æĪĳä»¬ ä½¿çĶ¨
çī¹ åĮº
ä½Ĩ å¦Ĥæŀľ
th let
Ġcom pl
Ġco ast
å¤« å¦ĩ
æ¾ İ
å±ŀäºİ èĩªå·±çļĦ
åı¯æĮģç»Ń åıĳå±ķçļĦ
ä¼ļè®¡ æĶ¿çŃĸ
é¬ ¥
æįĲ æ¬¾
çĭĲ çĭ¸
Ġdoll ars
h r
r ical
çļĦ åŃ£èĬĤ
è¿Ļ ä»¶
éģ ł
ĠC all
ul ed
ä¸ŃåĽ½ åı¤ä»£
10 6
oun g
è¯ģ ä»¶
å¤ĦçĲĨ åĴĮ
Ġout comes
ãģ ĵ
con sole
com ple
æĬĹ éľĩ
Ġsub set
Ġrel iable
æ¾ ľ
çļĩ åĲİ
Ġorig inally
æĲħæĭĮ åĿĩåĮĢ
å¾®éĩı åħĥç´ł
k es
çļĦ çłĶåıĳ
ä¸į åĸľæ¬¢
éĿ Ī
è¡Į è½¦
é«ĺ å¼ºåº¦
éĺ ľ
æľĢ èĳĹåĲįçļĦ
æ°´ äº§
éĤ ±
Ġex cess
æĸĻ çĲĨ
å®¹ ç§¯
é¡¹çĽ® ç»ıçĲĨ
æŀģ é«ĺçļĦ
è¡Įä¸ļ çļĦåıĳå±ķ
ak ers
åįĬ å²Ľ
é¤Ĳ æ¡Į
å®ŀéĻħ è¡ĮåĬ¨
è·³ è·ĥ
ä¸Ģèĩ´ æĢ§
å±ķè§Ī ä¼ļ
èħ¹ æ³»
èĦĤèĤª éħ¸
ç¡« åĮĸ
Ġvide os
ç¨± çĤº
Ġscen ario
å´© æºĥ
Ġdenomin ator
Ġ åĬłåħ¥
Ġw elcome
æ³ ¸
ä¼ļ æł¹æį®
åĳ ķ
ï¼ī -
å°ı åĿĹ
ä¸ŃåĽ½ ç§ĳåŃ¦éĻ¢
oc ation
èīº äºº
cl ing
è®¡ç®Ĺ åĩº
ä¿ĿæĮģ çĿĢ
æ³¢ åħ°
ĠIt alian
äº¤éĢļ äºĭæķħ
å½¢æĪĲ ä¸Ģä¸ª
æľĢç»Ī çļĦ
çĸĳ ä¼¼
mm a
é²ģ è¿ħ
æĽ´å¿« åľ°
ĠFound ation
e per
e xt
Ġ _{
çļĦ åľ°
çļĦ æ¨¡å¼ı
in er
åĴĮ çłĶç©¶
åĴĮ è°ĥæķ´
æľī æĦı
åĪĨ ä¹ĭä¸Ģ
ro ad
é«ĺ åº¦çļĦ
Ġcon crete
od ies
æĬĢæľ¯ æĿ¥
est amp
Ġr ough
ĠG lobal
19 60
å±± å³°
çİ¯å¢ĥ éĹ®é¢ĺ
è¿Ļç§į æĸ¹å¼ı
åį¡ çīĩ
éļıçĿĢ æĹ¶éĹ´çļĦ
ĠPro duct
æľĢå¤§ åĢ¼
å®ļä¹ī äºĨä¸Ģä¸ª
æ··åĲĪ çī©
å¤§å¹ħ åº¦
çī©ä¸ļ ç®¡çĲĨ
çļĦ è·¯
ãĢĤ [
Ġs izes
åľ¨ ä»Ĭå¹´
ä»¥ å¤ĸçļĦ
èĩª æľī
ç¾ ŀ
åīį èĢħ
ĠM use
ç¼ Ķ
åıĹ è®¿
ĠD NA
åĽŀ å¤´
åıª ä¸įè¿ĩ
é£Ł æ¬²
åĮĹ å¤§
Ġmod ify
ç»ıèĲ¥ ç®¡çĲĨ
æķħäºĭ çļĦ
è¡¨è¾¾ èĩªå·±çļĦ
Ġele ction
èļ Ĥ
åŁºåĽł ç»Ħ
æ»ļ åĬ¨
è¡° èĢģ
ä¸»åĬŀ çļĦ
Ġfail ed
ĠDirect or
ç³Ł ç³ķ
% ,
C or
çļĦ æĿĥåĪ©
æł Ĺ
Ġh us
ä¸Ģä¸ª æĺ¯
éľĢè¦ģ ä½¿çĶ¨
åķĨ åŁİ
æĥ³ åĥı
æķ´ é½Ĳ
ç²¾ åįİ
Ġ4 9
ç¼ĸ ç»ĩ
Ġcomp ound
åĪĽæĸ° åıĳå±ķ
æ¤ Ń
éĢļå¸¸ çĶ¨äºİ
åī¯ å±Ģéķ¿
å½Ĵ ç±»
Ġgra de
çĹķ è¿¹
âī ¤
, -
ä¸Ģ å¹´çļĦ
ä¸Ģ åħ±æľī
Ġf ib
ic ular
ä¹Ł åºĶè¯¥
æĬĢæľ¯ æĶ¯æĮģ
åĪĽ ä¼¤
èģĶ éĢļ
åĪĩ å°Ķ
ç»Ħç»ĩ å¼Ģå±ķ
å¸¦æĿ¥ æĽ´å¤ļçļĦ
ĠPro per
ä¾§ éĩį
Ġgood s
å»ī æĶ¿
åħ¬äº¤ è½¦
éģĭåĭķ åĵ¡
ĠExp ress
å¥½å¥ĩ å¿ĥ
ãģ¾ ãģĻ
ĠRober t
Ġ åħĥ
åı ®
ä¸Ģ æĹ¶
é«ĺ åĪĨåŃĲ
ĠC ost
è´¨ æĦŁ
ãĢĭ ï¼ī
äº¤ èŃ¦
Ġv ibr
Ġr oute
ä¸ĩ åı°
è½¬ ä¸º
åħį ç¨İ
ub y
Ġte aching
Ġcalcul ations
æ´Ľ éĺ³
è§Ĥä¼Ĺ çļĦ
Ġmulti plication
Ġnecess arily
Ġprin c
åħĶ åŃĲ
ĠPe ople
è¨± å¤ļ
! âĢĿ
H K
S upp
çļĦ ç½ĳç»ľ
åĪĨ åıĳ
st on
ä½ĵ åĬĽ
åħ¨ è¿ĩç¨ĭ
ber ry
ä¿ĿæĬ¤ æĪĳä»¬çļĦ
æ±½è½¦ çļĦ
è¿ĺæĺ¯ è¦ģ
Ġchar ges
èĤ¥ æĸĻ
æĿĨ èıĮ
å§ĭç»Ī åĿļæĮģ
ĠFr ancis
éģ¸ æĵĩ
è¾ħå¯¼ åĳĺ
éĶĤ çĶµæ±ł
éªĦ åĤ²
Ġfem ale
F ile
éĩ ĭ
çĶ¨ å·¥
Ġd ial
é«ĺ å±±
Ġst rict
å£ ĵ
åĮ» çĶ¨
os es
ä¸ĩ ä½Ļ
Ġk ing
çİĭ æľĿ
é¢Ŀ åº¦
ç¨İ çİĩ
èĦ± èĲ½
Ġsur vey
åĶ¯ æľī
æĦŁåıĹ åĪ°äºĨ
çıį çıł
çĶľ çĤ¹
Ġinters ection
G O
t rain
åĴĮ æľĭåıĭ
åĪ¶ åĬ¨
ä½Ĩ æĪĳä»¬
æľįåĬ¡ æľºæŀĦ
æ¯ı å°ıæĹ¶
ç¤¾ä¼ļ ç§ĳåŃ¦
èĩªçĦ¶ çİ¯å¢ĥ
å·¥ä¸ļ çĶŁäº§
ĠPro fess
Ġeven ing
ik ip
for ward
sc ale
ĠAnd roid
Ġrepresent ing
Ġfour th
åĳ¨åĽ´ çļĦ
åĨ·åį´ å¡Ķ
Ġliter ature
ä¸į ä¾¿
ä¸º ä»ĸä»¬
å°Ĩ å®ĥä»¬
è´¨ æķ°
æĪ· ç±į
å¿µ è¯µ
Ġ19 98
æĬĹ çĶŁç´ł
å© ·
éĢı æ°Ķ
æ¥¼ æ¢¯
ç§ĭ å¤©çļĦ
è´¢åĬ¡ çĬ¶åĨµ
Ġpol ice
` ï¼ļ
Ġ í
Ġs q
ä¸į åĪ°çļĦ
æ¸ ²
ĠT ur
æľĢ å¿«
åĨħ é¥°
ä½ł å°±
ĠL ong
ä¸ĢäºĽ äºº
ĠO N
åĲĮæĹ¶ è¿ĺ
éĻį æ°´
å·¥ç¨ĭ æľºæ¢°
åĨľ çĶ°
Ġfun ds
çĶ» ä½ľ
äºĨä¸Ģ ä»½
äº¤éĢļ å·¥åħ·
åīĤ çļĦ
æĢ§åĴĮ åı¯
åĲī ä»ĸ
æĬ± æĢ¨
ç»Ļåĩº ä¸Ģä¸ª
Ġwin ning
ym pt
ĠDo es
Ġess ay
ocol ate
èĹĿ è¡ĵ
ĠInte gr
Ġpolic ies
B ig
i ability
çļĦ è¡Įä¸ļ
Ġp apers
ä¿ Ń
ä½ľ æģ¯
è¿Ľ åĪ¶
æ°Ķ ä½ĵçļĦ
Ġwh atever
å¤į è®®
ĠG ames
ä¿¡æģ¯ ç³»ç»Ł
æĪ¿ ä¼ģ
èĳ µ
æĺŁ ç³»
æĿİ åĽĽ
æ¹ĸ äºº
çľĭåĪ° çļĦ
èį¯çī© çłĶåıĳ
por ation
çĥĺ çĦĻ
Ġmess ages
è±¡å¾ģ çĿĢ
ç§ī æĮģ
Ġri ver
å· ħ
äºº æł¼
ä¸į åĥı
åĪ° ä¸Ģä¸ª
èĬ Ļ
åĮº åĴĮ
Ġpro s
ä¾Ľ æļĸ
éľĢè¦ģ æĪĳä»¬
ç¦ ¹
ĠU N
æİ§åĪ¶ åľ¨
ç¦ı çī¹
Ġco vers
æľĢå¤§ éĻĲåº¦
å¥¶ æ²¹
çļĦå°ı è¯´
sc ill
æģ° å½ĵ
èį£èªī ç§°åı·
M ax
y er
ãĢ ı
Ġa ware
å° ´
Ġp d
Ġn one
ç®¡ çļĦ
åıĺ è¿ģ
è¨ Ĭ
Ġev olution
éĢĲ å¹´
å¤« äºº
å³¡ è°·
n s
ãĢ İ
ad er
æİ¥ å¤´
æ°ĳ æ³ķ
åı£ å²¸
çĥŃ åº¦
åĢ¼ çıŃ
ind ing
åĩł çİĩ
å¿ħ å°Ĩ
æĪı æĽ²
Ġpe ak
æĹ¢ èĥ½
Ġdesign s
Ġest ate
èĤĿ èĦı
dat etime
Ġopin ion
E V
d ep
çī ¡
å¤§ åĽ½
ut s
ç¬ ĭ
ĠC are
æ°´ åľŁ
æľįåĬ¡ çŃī
æĬ¥ éħ¬
è¾ĥ å·®
å¤ª åİŁ
äººå·¥æĻºèĥ½ åĴĮ
åı¦ è¡Į
Ġent ertain
å® Ľ
ä»¥ ä¿Ŀè¯ģ
æĿ¥ å®ĮæĪĲ
åĲĪ åĶ±
ay lor
ä¸ī åĽĽ
ĠB ir
ĠH istory
ä¸ĩ åĲį
é¢Ħ æľŁçļĦ
å¥³ ç¥ŀ
æ²»çĸĹ çļĦ
Ġmat rices
éĥ½æľī çĿĢ
åİŁåĪĻ ä¸Ĭ
èµĦæľ¬ å¸Ĥåľº
Ġwrit er
Ġpers pective
ÂłÂłÂłÂł ÂłÂłÂłÂł
ĠÐ½ Ð°
æĦ¤ æĢĴ
d c
n on
r c
z er
en ced
åı¯ è¡ĮçļĦ
æĪĳ æľī
åĽ½ ç«ĭ
Ġst one
èĲ ĥ
æľį ä»İ
èµ· åºĬ
th at
é£İ éĢŁ
åħ± åĪĽ
Ġsh opping
æıĲé«ĺ æķĪçİĩ
èĬ± æľµ
çł´ è§£
Ġâ ĳ
æŃ£å¸¸ è¿Ĳè¡Į
åĮĸåŃ¦ çī©è´¨
Ġapprox imation
Ġconvers ation
çĪµ å£«
Ġappe ared
èį§ åħī
å°´ å°¬
w est
è® ¶
æĪĲ å¥Ĺ
ä¿Ŀ åį«
éĩı èº«
Ġor d
æ¢ µ
ag ine
az y
Ġver ify
Ġbehav i
å¹¶åıĳ çĹĩ
Ġarchitect ure
äº¬æ´¥ åĨĢ
F r
åĴĮ æĶ¹è¿Ľ
åĵ ĳ
ç´ °
è¿ĳ ä¼¼
åıį åĲĳ
åºĹ çļĦ
çĮ® è¡Ģ
æ³° å±±
è¿« åĪĩ
Ġsw im
che ck
Ġmeasure ments
Ġclaim s
Ġliqu id
ä¸Ģ åı£
äºİ ä¸Ģä½ĵçļĦ
åĪĨ æīĭ
å»º èŃ°
æ°´ ä½ĵ
pt ic
è¿ĳ ä»£
åģ¥åº· éĹ®é¢ĺ
ç®Ģ çĽ´
ç§ĳåŃ¦ ä¸İ
åī§ ä¸Ń
ç¥¨ æį®
èĽ Ľ
ç¬¬ä¸ī ä¸ª
æĽ´å¥½åľ° ç®¡çĲĨ
Ġpass ion
ä¸įéĶĻ çļĦéĢīæĭ©
æ¢¯ åº¦
Ġens uring
åľ¨Python ä¸Ń
èļĤ èļģ
Ġ ion
çļĦ åĲİ
çļĦ æĪĺçķ¥
Ġan cient
ä¹Ł æĺ¯ä¸Ģç§į
å¹¶ æľī
å¹¶ èĥ½
å¤© ä½ĵ
è¥¿ çº¢
ä½ľä¸º AI
æĽ´å¤ļ äºº
Ġpart ies
éĺ¿ å¼¥éĻĢ
Ġdes pite
ob e
åĪĨç±» ä¸º
å·®å¼Ĥ åĮĸ
Ġteac hers
= (
H D
s l
u an
çĶŁ åĮĸ
ä¼ļ éĢłæĪĲ
æĪĲ åĥı
å» ĵ
éĹ´ éļĻ
ä¼ģ äºĭä¸ļåįķä½į
Ġcomp at
æī¹ å¤į
æıĲä¾ĽäºĨ ä¸Ģä¸ª
å°º åº¦
ç¾Ĭ èĤī
åĽ½æľī ä¼ģä¸ļ
Pl ay
ä¼ĹæīĢ åĳ¨
Ġ ä¸Ĭ
çļĦ ä¼ĺçĤ¹
Ġc art
ä¸Ĭ éĻĲ
ä¸ĭ ä¸Ģä»£
ä½¿ ä¹ĭ
ab el
ess age
åºķ èķ´
In tern
Ġinst ant
ä¼´ æľī
Ġtri ang
åŃ¦ä¼ļ äºĨ
Ġmov es
Ġsug ar
åĪ¹ è½¦
Ġsitu ations
Ġthous ands
P s
w a
çļĦ èĮĥåĽ´
å¤§ æµ·
æ² Ĳ
å¤ļ æł·çļĦ
åı¯ä»¥ è¿Ľè¡Į
ĠI II
å¥½ è½¬
å¯¼ çĶµ
ä¸ĸçķĮ ä¸Ń
åĪĽæĸ° èĥ½åĬĽ
åĪĩ çīĩ
åºķ å±Ĥ
çľ¼ ç¥ŀ
èµĦäº§ ç®¡çĲĨ
åĪĨäº« äºĨ
ĠFr ank
ä½ıæĪ¿ åħ¬ç§¯éĩĳ
col umn
è¨Ī åĬĥ
é¥² åħ»
Ġcloud y
ì ł
éħ ¥
ä½Ĩ å®ĥä»¬
æĦŁ æĤŁ
è¿Ļä¸ª è¿ĩç¨ĭ
åĽĽ ç§į
åĽłä¸º ä»ĸä»¬
ç´« èī²
resh old
Ġgeomet ric
Ġbeg ins
O h
p ip
~ ~
Ġ ä»¥
åı¯ä»¥ ä½ľä¸º
ç½ĳ æ°ĳ
éª ļ
è®© å¤§å®¶
å®īåħ¨ ç®¡çĲĨ
å¤± çľł
Ġ7 2
åĺ Ľ
å¡ĳæĸĻ è¢ĭ
è¼ ª
éĤ» å±ħ
ikip edia
C B
w ar
al a
ĠS earch
ç½ĳ çĲĥ
æĸ¯ åŁº
å¾· èĤ²
ĠAn aly
èĭ¥ æĺ¯
Ġshe ll
ĠComm it
Ġpotential ly
ĠSol utions
å¸½ åŃĲ
Ġdecre ase
Ġhydro gen
Â ¶
Ġ ä½ł
çļĦ ä½ĵéªĮ
äºº åĲį
æ² ¼
å°ı æĹ¶åĢĻ
æ°´ æ³µ
å¯¼ æ¸¸
æķ°æį® ä¸Ń
ĠJ SON
Ġ4 3
åıĪ ä¸į
äºĨä¸Ģ ä¸ĭ
ä»·åĢ¼ åĴĮ
Ġret rie
è¡ĮæĶ¿ æľºåħ³
æ²ī ç§¯
çĬ¹ å¦Ĥ
çºªå½ķ çīĩ
çģ¿ çĥĤ
Pe ople
Ġphen omen
Ñ Ī
çļĦ ä»£çłģ
çļĦ å®ļä¹ī
çĽ İ
âĢĿ (
ro oms
é«ĺ é¢ĳ
å®ŀ çļĦ
å±Ĥ å±Ĥ
ph p
åĪĿ åĪĽ
Ġman ual
å»ºç«ĭ åģ¥åħ¨
Ġret ail
hen tic
æĸĩä»¶ ä¸Ń
ä¼´ ä¾£
è·ĳ éģĵ
Ġlog arithm
ìĿ ´
Ġalgebra ic
è§Ħç«ł åĪ¶åº¦
å¸· å¹ķ
æ¸² æŁĵ
é į
Ġw edding
ent ed
åĪ¶ è®¢
åľº éĿ¢
ĠM ex
Ġun s
In ter
åĮ»çĸĹ ä¿ĿéĻ©
éº Ĺ
çİ°ä»£ åĮĸçļĦ
éĺ¶æ®µ çļĦ
Ġinf o
æĸĩåŃ¦ ä½ľåĵģ
Ġbuild ings
cur rent
ĠLou is
ä¸Ń åŀĭ
å¤§ äºĭ
å¹´ åĿĩ
åĪĨ åĮĸ
Ġis land
æķ° é¢Ŀ
åºĶ å±Ĭ
åĪ¶ å®ļçļĦ
un ct
éĹ®é¢ĺ æĹ¶
ĠE r
Ġse at
æĪĺ å£«
å¸®åĬ© æĪĳä»¬
è¨Ģ è®º
å¤ª å¤ļçļĦ
ãĢĤâĢĿ âĢľ
éĥ¨åĪĨ åľ°åĮº
ç¯ ·
å®¢æĪ· çļĦéľĢæ±Ĥ
é£İéĻ© è¯Ħä¼°
ert s
ä¸¥æł¼ æī§è¡Į
éĺŁä¼į å»ºè®¾
è°ĭ åĪĴ
Ġrefer red
æľīå®³ çī©è´¨
è§Ĵèī²ä¿¡æģ¯ å¦Ĥä¸ĭ
Ġresid ents
ç»Ļä½łä¸¤ä¸ª è§Ĵèī²ä¿¡æģ¯å¦Ĥä¸ĭ
C ar
W ill
çļĦ æĶ¿çŃĸ
it ational
Ġf ederal
ar ks
çĶ¨ æīĭ
æĪĳ åı¸
å¯¹ åħ¬åı¸
æĥ «
ur ies
å¤ĸ éĿ¢
å¾Ī ä¹ħ
èĢĥ çłĶ
çĹħ åİŁ
ä¸¾ ä¾ĭ
ç»ĵæŀľ çļĦ
çīĽ é¡¿
çĳ ¶
Ġ20 24
åĮºåŁŁ åĨħ
åį«çĶŁ åģ¥åº·
Ð½ Ð°
è¹ ²
over line
ĠOr gan
åİ¿çº§ ä»¥ä¸Ĭ
è¿½æº¯ åĪ°
ëĬ Ķ
d raw
} ;
å¯ ¶
å¤§ æ¹¾åĮº
å¹´ åħ¨åĽ½
èĩª æĿ¥
ve x
è¶ Ł
å°Ĩ æĽ´åĬł
ä¸Ģä¸ª ä¸ª
èĲ Ĭ
æĹł ç§ģ
çĽĳ æĬ¤
çº¢ æ¥¼
æ¨¡å¼ı çļĦ
ãĥ ©
æ·±åħ¥ åľ°
æ²ī é»ĺ
æ¯ıä¸ªäºº éĥ½æľī
Ġdel ay
ĠTe xt
agn etic
åħļå§Ķ åī¯ä¹¦è®°
çĸ«æĥħéĺ²æİ§ å·¥ä½ľ
çļĦä¸Ģæ®µ å¯¹è¯Ŀ
Ġprofession als
1 12
I d
] $
åŃ ¢
or us
ä¸Ń è¥¿
ä¸Ĭ è¯ī
åı¯ä»¥ éĩĩçĶ¨
ä¹Ł æĺ¯ä¸Ģ
æĸĩ åĪĽ
ĠS ocial
æĽ´ å¤įæĿĤçļĦ
æ¸ħ æ¾Ī
å±Ģ çļĦ
Ġ19 80
Ġprodu ces
Ġind epend
ç§ģ åĭŁ
æİĮ æİ§
45 6
æıĴ ä»¶
çļĦæ°´ æŀľ
ĠComm on
p matrix
Ġc oun
Ġf av
Ġto t
æĹ¶ è£ħ
è¿Ļ å¼ł
æľº è½¦
Ġg one
å°Ĩ ä»İ
ĠB ur
ç¥ Ĥ
ç¦ ¾
10 3
æĶ¾ åĪ°
å»ºè®¾ çĶ¨åľ°
å°±æĺ¯ åľ¨
èµ° è·¯
ĠCh apter
åįĥ éĩĮ
çŃ¾ åŃĹ
é¡¶ éĥ¨
å¢Ļ å£ģ
æĬ½ åıĸ
å¦ĤæŀľæĤ¨ éľĢè¦ģ
Ġvol unte
åıĻ è¿°
å¤ļ å±Ĥ
èĩª é©¾
ĠT imes
æľ¬ æľŁ
è£ ¸
åįķ è½¦
éĿŀ åĩ¡
èĤ² äºº
è¯· è¾ĵåħ¥
çĶŁäº§ å·¥èīº
åĲ¸ åħ¥
ĠV iew
å±ħ çĦ¶
ä¼° ç®Ĺ
é¡º çķħ
éĴ± åĮħ
\) ï¼Į
éĽĨæĪĲ çĶµè·¯
Ġinitial ly
ä¾Ľç»Ļ ä¾§
ĠInst ead
åıĺé¢ĳ åĻ¨
Ġsym pt
ç¢³æ°´ åĮĸåĲĪçī©
A X
æľī æ°§
Ġf ans
åĪĨ çº§
å¤ļ ä¹ħ
ĠI ll
ess ions
æĥħåĨµ çļĦ
å·²ç»ı æĺ¯
ç§ĳæĬĢ æĪĲæŀľ
çŃĶ å¤į
æĽ¾ ä»»
ç½ĳç«Ļ ä¸Ĭ
Ġknow s
è¯Ĺ è¯į
Ġinst ruction
Ġart ists
198 1
Ġinput s
èŀº çº¹
ä¼ĺæĥł æĶ¿çŃĸ
Ġaccount s
Ġfrequ ently
è¾Ī åŃĲ
å¼Ģå¹ķ å¼ı
Ġtren ds
Ġhoriz ontal
C r
d r
Ġ è¡¨ç¤º
åľ¨ åŃ¦æł¡
ä¸į åİ»
Ġl ose
æ³ķ åĪĻ
éĩį åŀĭ
çľģ åĨħ
Ġsh oot
çĽ¸åħ³ è§Ħå®ļ
è¦ģæ±Ĥ å¯¹è¯ĿåĨħå®¹
æ¤ °
Ġman aged
ari ant
çĶŁæĪĲ ä¸Ģç¯ĩ
æľĿ çĿĢ
é¼ĵ èĪŀ
ç¤¼ è²Į
åģļåĩº è´¡çĮ®
å¹¸ç¦ı æĦŁ
åį³ä½¿ åľ¨
éªĳ å£«
æĲ¬ è¿ģ
Ġexpress ions
æļĸæ°Ķ çīĩ
Ġslo pe
' ;
3 20
B ased
Ġ æĬĢæľ¯
re land
æĸ ·
Ġp y
æĪĳ èĥ½
çŃī äº§åĵģ
Ġh ole
éĺ ±
é¡ ¯
åºĶ æĶ¶
Ġfor get
ĠD ifferent
ĠG reek
æĺĵ æĩĤ
å·¥ç¨ĭ çļĦ
ä¸¤ä¸ª æľĪ
ä¸ĢèĪ¬ åľ¨
Ġvari ance
æ³° è¾¾
è¯¦ç»Ĩ ä¸°å¯Į
Ġthough ts
çĸ² æĥ«
Ġunc ertain
ä»ĸä»¬ä¹ĭéĹ´ çļĦä¸Ģæ®µå¯¹è¯Ŀ
è¦ģæ±Ĥå¯¹è¯ĿåĨħå®¹ è¯¦ç»Ĩä¸°å¯Į
ä¸Ģ å¾ĭ
Ġs ch
ç³ ¯
æķĻ å¯¼
ï¼Ľ ï¼Ī
ĠF urther
è¿Ļä¸ª ä¸ĸçķĮ
ĠO bject
è´¨éĩı ç®¡çĲĨä½ĵç³»
çŁ³ èĭ±
åį¡ éĢļ
æĿİ åįİ
çĶŁæĪĲ ä»ĸä»¬ä¹ĭéĹ´çļĦä¸Ģæ®µå¯¹è¯Ŀ
éŃ Ħ
åĨ° å·Ŀ
èĩªæĪĳ æĦıè¯Ĩ
çĶµåķĨ å¹³åı°
D on
I E
Ġ æ£ĢæŁ¥
Ġc row
âĢĿ ï¼Ł
å¯¹ æľªæĿ¥
è½¦ éĺŁ
æĶ¹ èī¯
åįĩ æ¸©
åįİ ä¾¨
æ±Ł æ¹ĸ
ä¸¥ åİī
ç¬¬ä¸Ģ æī¹
åĮĹäº¬ å¤§åŃ¦
åħ³éĶ® çĤ¹
æ±ī åł¡
Ġext ended
Ġed ited
ĠAs ia
Ġmax im
æīŃ çŁ©
ç¿»è¯ĳæĪĲ ä¸Ńæĸĩ
ĠStud io
äººå¤§ å¸¸å§Ķä¼ļ
: -
æĸ ĭ
æľī çĶ¨
æľī æĹł
åĮ Ī
çĶ¨ æ³ķ
æ¸ į
è¿Ľ åĩº
åĵģ ç±»
ĠC lick
æģ ¤
çī¹ å°Ķ
åĲį çīĮ
èµ· çĿĢ
éľĢè¦ģ å¯¹
è®© å®ĥ
åħī æ³½
æľª æĪĲå¹´äºº
Ġ19 97
éħ¸ ç¢±
ç»¼åĲĪ ç´łè´¨
ç»ĵåĲĪ èµ·æĿ¥
è®¯ æģ¯
èĻļ æŀĦ
å´ Ń
çĿ¡çľł è´¨éĩı
Ġmil k
Ġbuy ing
ĠMed ia
Ġmagn itude
Ġaccom mod
æĿł æĿĨ
Ġfig ures
ä½ ĳ
åĴĮ æ³ķå¾ĭ
Ġf ruit
ä»¥ èİ·å¾Ĺ
ĠT okyo
ĠC hem
å¹¶ æıĲåĩº
ir gin
è¾ĥ éķ¿
è¾¹ å¢ĥ
low er
åĮ»çĸĹ åį«çĶŁ
åľ£ ç»ı
ç»ĵæĿŁ äºĨ
ĠSo ft
Ġinc red
ç»Ļå®ļ ä¸Ģä¸ª
ç¯Ģ çĽ®
G u
U L
i Ä
al o
åı¯ å®ŀçİ°
è¿Ļ ä¸İ
åīį çŀ»
and a
æĬķ ä¿Ŀ
éļı ä¾¿
Ġ4 1
åİ¿ æĶ¿åºľ
å»ºè®® åĲĹ
è¡Ģ æ¸ħ
ä¸įä»ħ åľ¨
èĥľ åľ°
å¥¥ æĸ¯åį¡
åĶ± çīĩ
æĻºæħ§ åĴĮ
ëĭ ¤
ä¹¾ éļĨ
éĴĵ é±¼
è´ ¼
æĪĸ æľī
äºĭ åħĪ
ç«ĭ çļĦ
å¦Ĥæŀľ ä½łçļĦ
çĥŃ æ³µ
åĭ ¢
å°Ķ å¾·
av y
æ¦ ¨
æĺ¯åĲ¦ ç¬¦åĲĪ
Ġâ ľħ
ç¢³ åĮĸ
ç¹ģ åįİ
çĶĺèĤĥ çľģ
æľĪä¸Ń æĹ¬
v ial
v are
åĴĮ äº§åĵģ
æľī ä½ķ
çĶ¨ åĪ°
åľ° è¡¨
åºĶ æľī
æĦŁ å®ĺ
ĠW all
è½¬ åĬ¨
æīĵ ç£¨
åĳĬ åĪ«
åħ·ä½ĵ æĿ¥è¯´
éŁ³ä¹Ĳ çļĦ
Ġserv ing
ĠApp l
Ġdev iation
ĠComm unic
åĲĦèĩª çļĦ
Ġcoordin ate
ç²¤ æ¸¯æ¾³
Ġprinci ples
7 000
çļĦ æĵįä½ľ
er ror
åľ¨ ä½ł
ç§ ¤
ro ot
ä½¿ æĪĳä»¬
çĤ¹ çĤ¹
æķĻ ç§ĳ
æĦŁ åı¹
åħĥ å¹´
ä¸ĵ èģĮ
è®© çĶ¨æĪ·
èĮ µ
åĬŁ èĢĹ
é¦ĸ åıĳ
å§ĭ äºİ
ä¸ĵä¸ļ ä»İäºĭ
Ġpl ate
Ġpl astic
ä¿ĿæĬ¤ åĮº
ä¿ĿæĮģ åľ¨
å¢ŀéķ¿ äºĨ
rib ution
åĴ¨è¯¢ æľįåĬ¡
æĭ¼ æİ¥
çĶľ èľľ
è¿ ¦
ä¸Ģ æ±½
it oring
å¤§ æ£ļ
åĪĨ éļĶ
æ³ķ æ¡Ī
å®ŀ åĬ¡
åĲį ä¹ī
ä¸ī æĿ¡
Ġor ders
Ġor dered
æ¨ ¹
ĠW estern
åģļ å¼º
åįģ ä½Ļ
è¿ĻäºĽ åĽłç´ł
æłĳ åı¶
å¿«éĢŁ å¢ŀéķ¿
): **
åıĬæĹ¶ åıĳçİ°
ãĢį ï¼Ī
An y
Ġconf irm
æĿľ ç»Ŀ
æ´¾åĩº æīĢ
å¤§æĤ² åĴĴ
D r
Ġb its
æĹ¶ ä¼ļ
å¤ļ ä¹Ī
ĠC ould
ĠM id
çĹ °
åıĳå±ķ è¶ĭåĬ¿
est ed
å¯¼ å¼¹
æµ· å¹³éĿ¢
æ¸ħ åĩī
èŀį åĮĸ
çĻ¾ ç§ĳ
åıĮ çľ¼
æŃĮ å£°
éĥ½æĺ¯ åľ¨
å¸ĮæľĽ èĥ½å¤Ł
oot ball
ç£ģ åľº
å®ŀä½ĵ ç»ıæµİ
å¦¹ å¦¹
Ġcrit eria
Ġmen u
Ġwa iting
Ġrecogn ized
çº³ç¨İ äºº
íķ ĺ
è¥¿çº¢ æŁ¿
d et
i em
Ġ å¥½çļĦ
Ġ çİĭ
re c
éĩ ī
ä¸Ń åĬłåħ¥
æĪĳ æĿ¥
æĪĳ çİ°åľ¨
Ġl ies
æĸ° èĢģ
å°ı é¾Ļ
çģ ¸
ĠD u
çĹħ çĹĩ
æĬķ èº«
pl us
Ġj u
æł¸ çĶµ
æľ¨ è´¨
Ġadd s
èĢĮä¸Ķ åľ¨
åħ« å¤§
åı³ ä¾§
èĦ± ç¡«
ĠPro b
åĪĹè¡¨ ä¸ŃçļĦ
çµĦ ç¹Ķ
Ø ³
çļĦ ä¹¦
äºº æĺ¯
é«ĺ æĸ°
èĩª è´¸
èĩª ä¿¡å¿ĥ
il arly
æĹ¥ è¯Ń
éļ ª
è¿ĺ æľª
æĢ» è®¡
ç®¡çĲĨ åĳĺ
æ£ ±
ä¼ĺ ç¾İçļĦ
æ·± å±Ĥæ¬¡
ç¯ Ħ
çĭ¬ åħ·
ç´§ è¿«
ues day
åĮ»åŃ¦ å½±åĥı
ä¾µ èļĢ
ern ame
æ®ĸ æ°ĳ
Ġbound ed
Ġhol iday
åıĳè¾¾ åĽ½å®¶
Ġtas te
åŁºçĿ£ æķĻ
ĠChar les
ĊĠĠĠĠĠĠĠĠ ĊĠĠĠĠĠĠĠ
Ġmi xture
Ġfab ric
H O
j a
k ins
Ġ æľĢåĲİ
Ġf if
å¯ ŀ
è¦ģ ä»¥
æ¯ Ĺ
æĸ° æµª
å®ŀ æĪĺ
åīį éĢĶ
ĠP ass
æł¼ å¤ĸ
æľįåĬ¡ åķĨ
æĶ¯ æŁ±
åĳ¨ éķ¿
ä¸»é¢ĺ æķĻèĤ²
åĬ¨çī© çļĦ
Ex p
str ings
æĬĽ åħī
ï¸ ı
B r
G L
V er
é ®
Ġm al
Ġd a
æĪĳ ä¸ºæĤ¨
å¯¹ ä¼ģä¸ļ
å¤ļ æĸ¹
æĪĳä»¬ å·²ç»ı
ä»İ ä¸Ģä¸ª
è¿Ľè¡Į æ²»çĸĹ
ĠB ase
ç¦ Ħ
æĥħåĨµ è¿Ľè¡Į
å¯Į å£«
ä¹° åħ¥
æĢ¥ æķĳ
åĪĨå¸ĥ åľ¨
æģĲ æĢķ
çļĦä½¿çĶ¨ å¯¿åĳ½
Ġreason able
å¥Ķ é©°
ĠAm azon
Ġwalk ing
Ġhappen ed
2 80
ä¸Ģ åı·
è´ ¿
Ġin du
å¤§ ç±³
ä¸İ å®¢æĪ·
Ġcon ference
å®ĥ èĥ½
è®® åĳĺ
å¸ĥ æĭī
å¥³ åıĭ
Ġdo ctor
çķ¥ æľī
åĨł è»į
éĢĴ äº¤
ĠCan adian
ibr aries
US D
åıĳçĹħ çİĩ
Ġlay ers
ĠAfric an
flo at
è¯ķç®¡ å©´åĦ¿
+ âĢĿ
J e
O bject
\ %
çļĦ åĵģè´¨
ç» ļ
è¦ģ åĬłå¼º
Ġy ellow
ĠS and
èĢĮ å¯¹äºİ
æį® ç»Łè®¡
éĶ °
æĦı ä¸º
Ġse x
Ġen able
åĸľ çĪ±çļĦ
Ġdis crete
æĤ£èĢħ åľ¨
å© ī
å°¼ é¾Ļ
ä¸ĩåħĥ çļĦ
Ġche ap
ĠCon ference
ĠCong ress
å¾ĹçĽĬ äºİ
Ġ ï¼ī
æ² ®
Ġth r
å°± ä¸įä¼ļ
çĿ ¹
çī¹ æľīçļĦ
å·¥ä½ľ ä¼ļè®®
éĤ ĳ
æĢ» æĶ¶åħ¥
åħį åıĹ
æĪĲä¸º ä¸ĢåĲį
are st
Ġsp here
äºĨä¸Ģ å®ļçļĦ
erm ine
éļıçĿĢ æĬĢæľ¯çļĦ
Ġform ation
èįī åĿª
å¾Į ä¾Ĩ
çļĦå¿ĥ æĥħ
Ġprom ote
Ġappear ance
åºŀ å¤§
ĠEngine ering
y an
åľ¨ ä»ĸçļĦ
Ġc ourses
ä¾ Ī
ol it
å¤© æĸĩåŃ¦
æķĻ åĬ¡
çĥŃ å¤ĦçĲĨ
Ġ5 6
è´Ł è´£ä»»
ç¡®ä¿Ŀ ä½łçļĦ
erv ice
éģ¿åħį äºĨ
ç«¥ è¯Ŀ
ç®Ĺæ³ķ çļĦ
ä¼¯ çī¹
èĥİ åĦ¿
Ġfac ilities
Ġperfect ly
æĵħ èĩª
g ar
Ġt ensor
Ġb asket
åĩº åİĤ
ĠP age
Ġal le
ä¸¤ åĲį
èĬĤ åģĩæĹ¥
Ġr ig
å¾® è§Ĥ
æĶ¿åºľ éĥ¨éĹ¨
ne ver
åºķ çº¿
æĥĬ è®¶
æ¯ıä¸ªäºº çļĦ
å¤ļæł· åĮĸçļĦ
Ġmonth ly
åĴĮç¤¾ä¼ļ ä¿Ŀéļľ
Ġwin ter
Ġdiscuss ed
èĩ³åħ³ éĩįè¦ģçļĦ
w rite
Ġ ä¿ĿæĮģ
çļĦ æĻºèĥ½
çļĦ åĪ¶ä½ľ
çĶ «
ãĢģ ãĢģ
åľ¨ ç¤¾ä¼ļ
Ġc a
Ġc ryst
ä»¥ äººä¸ºæľ¬
çŃī è¿Ľè¡Į
Ġh idden
åºĶ åıĬæĹ¶
å¼Ģ æ°´
æ°´ æµģ
æīĢ èĩ´
åħ¬åı¸ å°Ĩ
æıĲä¾Ľ å¸®åĬ©
ä¸ĸ éĹ´
å¸Ĥåľº åĴĮ
æĸ¹æ³ķ æĺ¯
åĲ¦ å®ļ
ru its
Ġro les
ç¨³å®ļ æĢ§åĴĮ
Ġinf rastructure
Ġpass ing
å¼ºåº¦ é«ĺ
æĺ¾èĳĹ çļĦ
M E
U P
ï »
çļĦ èĢĥçĶŁ
çļĦ åĲ«ä¹ī
ä¸Ń ä¸ľ
Ġf ly
è¿Ļ éĥ¨åĪĨ
é«ĺ æłĩåĩĨ
ĠC ard
æ°´ æ¸©
å¸¸ å¹´
æĺİ ä»£
åķ Ł
èĭ Ľ
åıĺ å¼Ĥ
åķĨ äºº
ĠE conom
å¥³ ä¸»è§Ĵ
èĲ½ åı¶
åĽ½éĻħ è´¸æĺĵ
form ance
ç²¾ç¥ŀ çļĦ
è¡ĮæĶ¿ ä¸»ç®¡éĥ¨éĹ¨
åıĳæĮ¥ çĿĢ
æĢĿæĥ³ æĶ¿æ²»
åħ¬å¼Ģ æĭĽèģĺ
åĭķ çķ«
æĸĩæĺİ çļĦ
ç¬¬åįģ äºĮ
ĠOr der
éªĳ è¡Į
éªĳ èĩªè¡Įè½¦
å®ŀçĶ¨ æĢ§
Ġcapt ure
å¸¸æĢģ åĮĸ
åĲĦè¡ĮåĲĦ ä¸ļ
" **
' );
O ther
Ñ Ĩ
çļĦ ä»ĭç»į
åľ¨ åħ¬åı¸
éĹ® åĢĻ
æĹł å®³
ĠW ind
åģļ æĪĲ
ĠL ight
ag ers
éĢīæĭ© éĢĤåĲĪ
åıĪ ä¸Ģ
çł´ è£Ĥ
æĺ¯åĲ¦ èĥ½
25 6
äºĨä¸Ģ æ¬¡
æłĳ çļĦ
äº¤éĢļ å®īåħ¨
å¥ĩ å¹»
å¤§æķ°æį® åĪĨæŀĲ
æ©Ł åĻ¨
è½»æĿ¾ åľ°
å½¢å®¹ è¯į
Ġconcent ration
Ġbrow ser
Ġhus band
Ġ ###
ä¸Ń å¹´
ä»¥ éĺ²
ä¸º äººç±»
æİ ¡
è¡Į åĪĹ
æŃ¤ åĪ»
éľĢè¦ģ éĢļè¿ĩ
ĠL ord
è¿Ļä¸ª æķħäºĭ
åĽ¾ çº¸
ä¾¿ ç§ĺ
æķħ ä¹¡
å¨ Ł
å·´ åŁº
ĠCh icago
è´£ä»» æĦŁ
æĿĢ æŃ»
ä»įçĦ¶ æĺ¯
Ġ> =
Ġorgan ic
ä¿Ŀæ¸© æĿĲæĸĻ
æĻĭ çº§
Ġsuccess fully
Ġdynam ics
Ġspect rum
æ¨± èĬ±
inf o
åľ¨ æķĻèĤ²
åı¯ æĢķ
å¤§ éĹ¨
å¤§ èĩ£
ä¸ĭ æ²ī
è¿Ľ é£Ł
æ´ ±
åĬł åĽº
ul er
å¾Ī åı¯èĥ½
æ°Ķ åĳ³
éĹ®é¢ĺ æĪĸ
åįģ æĿ¡
çľŁ å¿ĥ
åĨĻ åĩº
Ġ19 95
å°½ æĹ©
æĵį çºµ
çļĦåıĳå±ķ åĴĮ
å½© èĻ¹
çĳ ļ
ä¸įåı¯ éģ¿åħį
Ġfound ed
Ġlead ership
éĻ· éĺ±
ç¤ºèĮĥ åĮº
ĠComm ission
æ±¡æ°´å¤ĦçĲĨ è®¾å¤ĩ
Ġfail ure
Ġveh icles
Ġflu id
ï» ¿
F low
T ra
m o
çļĦ ç»ıéªĮ
he it
ä¸Ģ æĿ¥
Ġs od
ä¸º è¿Ľä¸ĢæŃ¥
æĹ¥ å¼Ģå§ĭ
æ°´ æĻ¶
é£İ åı£
æł¼ æłħ
ĠW ay
Ġch air
æĽ´å¤ļ ä¿¡æģ¯
åı¯èĥ½ä¼ļ å¯¹
è² Ŀ
è¾ĵåĩº ç»ĵæŀľ
çĽĲ åĴĮ
é¢Ĺ ç³ĸæŀľ
åıĥ èĪĩ
çŃĽ æŁ¥
Ġinj ury
ç½ķ è§ģ
n ode
t ry
} +\
çļĦ ç¬¬
Ġw aves
Ġp ounds
Ġd rag
æľº èĥ½
im eter
ç½ĳ çº¦
æ£ į
ĠL os
Ġch apter
è¿ĻäºĽ æĬĢæľ¯
åįı å®ļ
äºĨè§£ åĨ³
ç¬¬ä¸Ģ æŃ¥
ä»£è¡¨ äºĨ
åħŃ å¹´
Ġcol our
Ġag ricult
è§Ħæ¨¡ ä»¥ä¸Ĭ
Ġchar ged
ident ial
Ġed ition
Ġmark ets
ele ment
Ġpain ting
Ġfore cast
æĹ¶ å¸¸
ä»¬ åľ¨
st ra
ä¸İ ä½ł
éķ¿ å¯¿
è¯´ æľį
ĠO ption
çĶ¨æĪ· åıįé¦Ī
æĬĬ èĩªå·±
ä¿® çĲĨ
Ġ19 96
æĹ© å°±
ĠCh ampionship
æĢ§èĥ½ å¥½
æ»¤ æ³¢
ĠVal ley
nes day
ĠMuse um
å¤§ çģ«
ĠT ake
å¹¶ èİ·å¾Ĺ
um es
éĢļè¿ĩ ä½¿çĶ¨
åĳ¨ è½¬
æ¶Īè´¹ åĵģ
å·¥ä¸ļ ä¼ģä¸ļ
ç²¾ç¥ŀ åĴĮ
è§Ħæ¨¡ åĮĸ
æ°§åĮĸ çī©
Ġnon linear
Ġfriend ly
æĿŃ å·ŀå¸Ĥ
Com p
Ġconsum er
D D
çļĦ æŃĮæĽ²
ä¸Ń è¿Ľè¡Į
æĸ° ä¸ŃåĽ½
ĠT ri
ig r
å¢ŀ æĶ¶
ĠF und
ç©º åĨĽ
å¤ª æŀģ
èµ° ä¸Ĭ
å®Ŀ èĹı
èĥ½æºĲ æ¶ĪèĢĹ
çĶ² çĬ¶
ç©¿ æĪ´
Ġcar ried
ÑĤ ÑĮ
åķĨåĬ¡ éĥ¨
Ġindust rial
æĹłäºº é©¾é©¶
ĠRep ort
ÐµÐ½ Ð¸
c oh
ä½ Ī
ä»¥ ä¿ĿæĮģ
Ġn or
æ± Ģ
ä¸İ åºĶçĶ¨
åħ¨ å¤©
å®ŀ çī©
ĠP ot
ud o
æ£Ģ çĸ«
æĳ §
op en
ç§Ł æĪ¿
éĥ½æľī åħ¶
å£ģ çĶ»
Ch ar
AS A
ĠĠĠĠĠĠĠĠĠĠĠĠĠĠĠĠ ĠĠĠĠĠĠĠĠĠĠĠĠĠĠĠĠ
èħ¹ éĥ¨
å¸¦é¢Ĩ ä¸ĭ
æĸĩåĮĸåĴĮ æĹħæ¸¸
æŃ£è§Ħ çļĦ
åľ¨å®ŀéĻħ åºĶçĶ¨ä¸Ń
Ġsurround ing
Ġneighbor hood
l angle
p g
çļĦ æ³ķå¾ĭ
Ġa u
åĴĮ çĶŁæ´»
åĮ ª
ä¸Ń æī¾åĪ°
äºĨ æĪĳ
ä¸ĭ æĹ¬
èĤ ĩ
åĬł éĢŁåº¦
ĠC ross
ers ion
å¢ŀ éĩı
æµ· è¾¹
æŀĦ æĪĲäºĨ
å¸Ĥåľº ä¸ĬçļĦ
åĵª æĢķ
Ġag reement
ç«¥ å¹´
çŁ¿ çŁ³
æ½ľ èĥ½
å¼± åĬ¿
Ġgir ls
S N
| --------
ä¸į æĢķ
æĽ´ åĲįä¸º
æĶ¿åºľ åĴĮ
åĪĩ åīĬ
ç¿ ©
åĤ ·
Ġ8 5
ç»¿èī² å»ºçŃĳ
å¼ĢæĶ¾ çļĦ
ars h
åĵ¥ ä¼¦
æķ¬ è¯·
æŀĦå»º ä¸Ģä¸ª
çıį è´µçļĦ
enn y
çŁ¥è¯ĨåĴĮ æĬĢèĥ½
æ£ķ èī²
ĠDiv ision
Ã£ o
R et
ä¸Ń ç¾İ
æī ³
Ġb oost
è¿Ļ æĹ¶åĢĻ
çĶµ éĩı
èĢĮ è¿ĻäºĽ
å¹¶ çĶ¨
os ition
ĠO ld
éĩĩ æł·
11 5
åºķ çĽĺ
AI ç³»ç»Ł
è¿ĲåĬ¨ çļĦ
çİ¯ä¿Ŀ çļĦæĸĩç«ł
åıĳå¸ĥ ä¼ļä¸Ĭ
è´µ æĹı
åĢŁ è´·
Ġinter ior
Ġserv es
å³° ä¼ļ
çļĦä¸»è¦ģ åİŁåĽł
æľ¬èº« çļĦ
Ġcrit ic
Ġentire ly
ĠKing dom
2 60
y ou
æľī çļĦäºº
Ġd ance
çŃī é¢ĨåŁŁçļĦ
åĪĨ æŃ§
éľ ¾
Ġcon v
æŃ¥ åħ¥
åįĹ éĿŀ
æµĭ ç»ĺ
è¡Įä¸ļ åĨħ
èĥ½å¤Ł æıĲä¾Ľ
å°Ķ çī¹
Ġfe at
Ġmod ified
å°Ħ çº¿
å·¦ ä¾§
å¥¶ éħª
éī´ åĪ«
åİ¨ å¸Ī
ĠWith out
æĩī çĶ¨
Ġaccept ed
è°ĥåĳ³ æĸĻ
å¥§ æŀĹåĮ¹åħĭ
Ġexc ited
åĬ³åĬ¡ æ´¾éģ£
çµ® åĩĿ
F alse
Ġt all
an es
ä¸į å¥½çļĦ
Ġm aps
ä¼ļ ç»Ļ
åħ¬ ç«ĭ
ä¹ĭ ä½Ļ
çĿĢ çļĦ
è± ļ
äºĴ åĬ©
con nect
å·´ å¡ŀ
erv es
ĠĠĠĠĠĠĠĠ Ġ
Ġwould n
æ¶ī æ¡Ī
Ġcall ing
ÃĹ ÃĹ
Ġmass ive
ç¨Ģ éĩĬ
ä¼ĹæīĢåĳ¨ çŁ¥
M ath
çļĦ æĥħç»ª
ä¸ª ç³ĸæŀľ
Ġre ferences
åī Ķ
æıĲ æ¡Ī
ĠC ast
åĮº å§Ķ
Ġst ret
æ· ¹
æĹł åĬĽ
äº¤ è°Ī
äºĮ èĢħ
èĦ ĵ
æīĵ åĩº
èĩ´ æķ¬
æĺ¯ä¸Ģ åĢĭ
å°Ķ çļĦ
æĭī ä¸ģ
å¾Ģ è¿Ķ
æ¥ ł
18 00
çĶµå½± èĬĤ
åıĤä¸İ äºĨ
æĪĲæľ¬ ä½İ
åĪļ å¼Ģå§ĭ
æĦŁåĪ° éĿŀå¸¸
Ġprint s
Ġdi agonal
éĥĳ å·ŀå¸Ĥ
éļıæľº æķ°
Ġimplement ed
Ġmach ines
èĩªåĬ¨é©¾é©¶ æ±½è½¦
Ġpan el
å¥¢ ä¾Ī
ĠMart in
2 10
Ġ æĻºèĥ½
Ġ ..
çļĦ å·¥åħ·
æīĢ åŃ¦
éĥ½ æ²¡
ä»İ åīį
ĠF ROM
Ġr ating
ä¸ĩ éĩĮ
æ·± èĢķ
é¢Ħ å¤ĩ
éħį æľī
Ġag ent
æĲľ éĽĨ
ç¢³ éħ¸
irc raft
åħĳ æį¢
å·¥ä¿¡ éĥ¨
` :
çļĦ æĸĩæľ¬
å¤§ æĸ¹
è¦ģ åģļ
æ² Ĥ
ä¸ĭ åıĳ
æľĪ é¥¼
æ°´ ç®±
è¡¨ ä¸Ń
çİ¯ ç»ķ
å¸¦ çļĦ
å¿ħ å®ļ
å¯Ĩ çļĦ
Ġout door
ĠV ictor
éĢģ è¾¾
åħ³éĶ® ä¿¡æģ¯
æ¯Ķè¾ĥ å¥½
Ġsee k
åĶ± æŃĮ
Ġcalcul ator
æĴŀ åĩ»
å¥Ķ è·ĳ
çıĬ çĳļ
æĶ¿åºľä¿¡æģ¯ åħ¬å¼Ģ
b ound
çļĦ è´¹çĶ¨
æĺ¯ ä½ł
Ġf ear
ä¸į æĦ¿æĦı
ä¸º åĽ½å®¶
ed er
il a
çĽ¸ å·®
ĠP ract
æµģ æµª
åĸ §
Ġv ote
æĢ» åĴĮ
ä¸įæĺ¯ å¾Ī
å¼Ĥ åĳ³
èģļ ç±»
è¼ ¸
Ġver tex
Ġach ieved
èħº çĻĮ
Ġconsum ption
ĠSupp ort
j o
ä¸Ģ ç»ı
åĴĮ åİĭåĬĽ
å¤§ èĴľ
çĶŁ æŃ»
åıĳ åĶ®
åľ° åĪ©
ĠA B
ç¾İ èģĶ
éª ı
ç¤¾ä¼ļ ä¿ĿéĻ©
æĺ¾ å¾®
åł °
å¥¥ è¿ª
å°Ĭ ä¸¥
è¿ŀæİ¥ åĪ°
Ġart ificial
Ġ} ,
ah ren
åıĺå¾Ĺ æĽ´
def ined
åĸ· éĽ¾
ĠCol or
= -
P DF
åľ¨ ä¸Ĭ
ä»¥ éĺ²æŃ¢
çŃī æĸ¹æ³ķ
çŃī å½¢å¼ı
æĸ° æ¬¾
åĲĮ ç¨ĭ
ĠA R
è° İ
ç²¾ ç¾İ
æīĵ èµ¢
èİ· èĥľ
æıĲé«ĺ èĩªå·±çļĦ
çīĮ å¾Ĺä¸»
ip ality
çķĻ åŃ¦çĶŁ
å®£ åĳĬ
ĠAn t
çº³ æĸ¯
è·¨ æĸĩåĮĸ
hip s
Te xt
Ġabsolute ly
åıĺéĢŁ ç®±
hum idity
neg ative
çº¢æ¥¼ æ¢¦
T F
çļĦ æŃ£ç¡®
Ġt one
ä¸Ģ éĹ¨
åĬł åĪ©
éĽ ²
ç© Ĺ
çĥ ģ
åıª å¥½
éĻĲ å®ļ
ä¸»è¦ģ ä½ĵçİ°åľ¨
çĶ¨æĪ· éľĢæ±Ĥ
Ġco verage
ild ren
çĽĳæİ§ ç³»ç»Ł
Ġaccess ible
å¯»æ±Ĥ å¸®åĬ©
å¾ĭå¸Ī äºĭåĬ¡æīĢ
ĠLa TeX
è£ħéħį å¼ı
æ²¥ éĿĴ
Ġimpos sible
çĦļ çĥ§
åıĳå±ķæĶ¹éĿ© å§Ķ
p erson
ï¼ ķ
æŃ ¡
ä¼ļ åıĳçĶŁ
om ic
åĩº éģĵ
åĪĨ ç®¡
åı¯ä»¥ å¾ĹåĪ°
æĪĳä»¬ çŁ¥éģĵ
æ· ĳ
éĩĳ èī²
Ġal t
ist an
ĠR E
ĠL ibrary
é» Ķ
ä»ĸä»¬ ä¼ļ
çłĶç©¶ æĬ¥åĳĬ
Ġwill ing
ç»¿ åľ°
æ¬§ åĨł
åĨ° åĨ°
Ðµ ÑĢ
è°· çī©
äººåı£ å¯Ĩåº¦
sh ow
çīĪæľ¬ çļĦ
åįļå£« çĶŁ
èªŀ è¨Ģ
Ġclean ing
ĠÄ ĳ
M ost
p df
å¤§ éĿ¢ç§¯
æľĢ éķ¿
å°± è¿Ļæł·
æĦŁ æħ¨
æıĲä¾Ľ æĽ´å¤ļçļĦ
ä»· ä¸º
Ġr ide
åĽĽ æ°Ł
æ´Ĺ æ¾¡
è¡¨è¾¾ æĸ¹å¼ı
Ġinter actions
åķĨåĵģ çļĦ
Ġed it
è¿ħ çĮĽ
è½¬æį¢ æĪĲ
åĭŁ éĽĨ
Ġaud io
é ı
çļĦ æĮĳæĪĺ
ä¸Ń ä¹Ł
âĢĿ )
åĩº è´§
åħ¬ çĶ¨
æĽ´ è¦ģ
å°Ĩ è¿Ľä¸ĢæŃ¥
ĠC ath
å¹¶ åıĬæĹ¶
è¿ĺ åī©ä¸ĭ
ac ent
æł¹ æºĲ
åħ¶ä¸Ń æľī
åİĨåı² æĤłä¹ħ
åĨ· æ°´
åĵĪ å¸Į
Ġclass ification
ä¸ªæľĪ çļĦ
å¾Īå¤§ ç¨ĭåº¦ä¸Ĭ
è¯¾åłĤ æķĻåŃ¦
Ġbo at
Ġprep are
] (
s n
Ġ æĺ¯ä¸Ģä¸ª
an th
Ġd ining
æĪĳ å»ºè®®
åĽ½ è¶³
å¯¹ èĩªå·±çļĦ
20 30
é«ĺ ç®¡
å®¶ åįıä¼ļ
ä¸İ æľįåĬ¡
å®ŀ æķĪ
ĠS ign
ch i
ad ow
çĻ½ çļĦ
ä¸»è¦ģ ä»İäºĭ
Ġ4 4
å¤± æķĪ
æīĢä»¥ è¯´
åĿļ éŁ§
Ġfunction ality
æįŁ èĢĹ
æł¸å¿ĥ æĬĢæľ¯
æ»¡è¶³ äºĨ
Ġmain ly
Python ä»£çłģ
Ġanal og
ä¸įä¸Ģæł· çļĦ
Ġinterpret ation
æ°¨åŁº éħ¸
2 30
Ġd x
il it
ut y
ä¸» æīĵ
ig an
ĠC PU
çĸ ¡
ä»£ è¨Ģ
æĢ» æĶ¯
è¯ķ çĿĢ
æ²¹ æ°Ķ
Ġim plic
èī¯ æĢ§
åį° å°¼
åŃ¦éĻ¢ çļĦ
è°Ī è¯Ŀ
Ġ< /
èģĶç³» çĶµè¯Ŀ
å²Ľ å±¿
æĺł å°Ħ
èĸĦ å¼±
ä¸įåĨį æĺ¯
å¾Ĵ åĪĳ
éĺ¿éĩĮ äºĳ
Ġnucle ar
R A
j e
Ġ ä½łå¥½
ed u
åı¯ ä¹Ĳ
et her
æĹ¥ åİĨ
æĺ¯ä¸Ģ åº§
åį³ æĺ¯
æľºæŀĦ åĴĮ
çļĦå¤§ åĬĽ
æ¹¿ æ¶¦
çĽĽ å®´
æ¼« æŃ¥
Ġlead ers
æļĤ è¡Į
Ġlaun ched
is k
Ġf reedom
æĶ Ŀ
Ġd anger
æĪĳ æŃ£åľ¨
æĹ¶ èĬĤ
å°Ĩ æĮģç»Ń
ul f
çĸ ¤
ac ob
çİĩ é«ĺ
é¦ĸ å®¶
æĺ¯ä¸Ģ åľº
ä¾¿ æĲº
åĽłä¸º ä»ĸ
å¿µ ä½Ľ
èĢĮä¸Ķ è¿ĺ
åıªæľī åľ¨
æ¶Ĥ æĬ¹
Ġdi verse
ĠCar ol
å¿łè¯ļ åº¦
Ù ģ
Ġl ived
im inal
å°Ĩ è¿ĳ
ä½ł è¯´
éĶ ¯
é£İ éĩĩ
ä¼Ĺ å¤ļçļĦ
åĵª å®¶
åī§ åľº
æĪĳä»¬çļĦ äº§åĵģ
ãĥ ª
æ¢¦ å¹»
èĵĿ çīĻ
å¹³æĸ¹ åįĥç±³
ĠSe ction
Ġgu ests
Ġtri al
å°½éĩı éģ¿åħį
ç¾İæľ¯ é¦Ĩ
çļĦ è¯´æ³ķ
åĴĮ è´¨éĩı
æĢ ľ
ä¼ļ å¢ŀåĬł
ä½ł åºĶè¯¥
åĿ ŀ
å¤© çĮ«
Ġst ations
ä½Ĩ ä»İ
æŃ£ èĥ½éĩı
os a
æĮĩ æİ§
ä¸° æĶ¶
Ġdes k
ose ph
ĠEx planation
åĪĽä½ľ èĢħ
ustom er
éŀ į
inu ous
Ġcomput ers
Ġmus ical
Ġrad iation
âĳ £
US B
åĽ½æ°ĳ ç»ıæµİ
äººå¤§ ä»£è¡¨
Ġhab it
Ġprinc ipal
Ġ é¦ĸåħĪ
çļĦ åĬ¨åĬĽ
ä¼ º
çĽ ĥ
Ġh ospital
è¿Ľ åĨĽ
æľº åĴĮ
éģ ı
åĪ¶ çīĩ
ç®¡ å§Ķä¼ļ
çİ¯ åį«
ĠO ffic
åĩı å¼±
æ¦ ®
Ġfe e
Ġent ries
Ġsqu ares
åºĶæĢ¥ é¢Ħæ¡Ī
Ġnorm ally
Ġcontrib ute
ĠHel p
$ ï¼Į
t ri
Ġ åĪĽå»º
çļĦ ä¿ĿæĬ¤
éĢ ±
äºĨ ä¸įå°ĳ
æĪĳ æĥ³è¦ģ
âĢĿ âĢĶâĢĶ
ä¸İ æĸĩåĮĸ
ä¹Ł æĽ¾
éĩį å¡ĳ
æĥ³ çĿĢ
çļĦä¸Ģ åĢĭ
åºŁ æĹ§
ci pl
ern el
Ġbig gest
åłª ç§°
atur ally
Ġcorrel ation
k o
k ay
ä¸Ĭ æĿ¥
çŃī æİªæĸ½
æ°´ åŁŁ
æľŁ çĽ¼
è¢« äºº
ç®¡çĲĨ å±Ĥ
è®® ä¼ļ
ç½® äºİ
å»ºè®® åĴĮ
ä¸įä»ħ èĥ½
åħ³éĶ® çļĦ
æķ°åŃĹ çļĦ
ä»»ä½ķ äºº
åĩĨå¤ĩ å·¥ä½ľ
æķĳ çģ¾
æ¢ħ èĬ±
çħ® çĨŁ
æ£ĭ çīĮ
SE O
æĦıå¤§åĪ© éĿ¢
éĢļè®¯ åĳĺ
Ġcompet itive
Ġprem ise
M W
c uss
åľ¨ è®¸å¤ļ
äºĨ åĩł
å¹´ åįİ
é«ĺ ç©º
çİ° ä»Ĭ
ä¸» è¯Ń
un ning
ä»İ ä»¥ä¸ĭ
è§Ħ ç¨ĭ
è¯· éļıæĹ¶
éĺ³ æĢ§
æĿĳ çļĦ
æľªæĿ¥ çļĦåıĳå±ķ
èĴ ²
ä¸ĢèĪ¬ æĥħåĨµä¸ĭ
æķĻå¸Ī çļĦ
å°ģ è£ħ
eng er
ç²ĺ åº¦
åıĳæĺİ ä¸ĵåĪ©
çŁŃæľŁ åĨħ
Ġsal t
Ġmechan ism
Ġsymbol s
H igh
a is
i h
å ¶
ä¹ ĵ
åľ¨ åľ°
åĴĮ ä»ĸ
è¦ģ å°Ĩ
å¹´ ç¬¬
ä¿Ŀ æļĸ
æŁ ¬
çĤ¹ çĩĥ
è¯¥ äº§åĵģ
æĹ¶éĹ´ æ®µ
è¯· å¸®æĪĳ
åĽŀ åİ»
æīĵ å·¥
çłĶç©¶ åıĳçİ°
æĪĺ ç»©
ĠO R
å¾® é£İ
çĻ¾ è´§
çªģ åıĺ
13 5
æĭĽ çīĮ
åī¯ æľ¬
äº² å±ŀ
ä½ĵç³» çļĦ
æĶ» åħ³
éģĹ è¿¹
åĬ¨çī© åĽŃ
åĸĿ éħĴ
Ġvisit ors
ç£· éħ¸
ä¸Ńåħ± ä¸Ńå¤®
G PS
H C
æĺ¯ æĹł
å¸ ľ
ä¸į æĦ¿
äºĨ ä»ĸ
è¿Ļ è¡¨æĺİ
åĨħ æł¸
åıĳå±ķ æĪĲä¸º
æĮĩ çº¹
è¨ ĵ
ç¼ĸ åī§
Ġad opt
æį¢ ç®Ĺ
åī¯ æķĻæİĪ
æĦıè¯Ĩ åĴĮ
ger y
Ñģ Ðº
Ġbre ath
Ġident ified
éĢĨ è½¬
urs day
æĳĦå½± å¸Ī
Ġobserv ations
çĻ«çĹ« çĹħ
å°Ĭæķ¬ çļĦ
Ġtemper atures
A c
T ER
Â ±
çļĦ è½¦
åľ¨ å»º
it ro
Ġm ir
æĪĳ åĲ¬è¯´
æķ° ä½į
çĶµ æŀģ
ä¸» å¸ħ
æľŁ éĸĵ
Ġ2 50
ç®¡çĲĨ ä¸Ńå¿ĥ
ç§¯ æ°´
Ġun iversity
Ġj oy
åľŁ æľ¨
é»Ħ çĵľ
æĺ¯åĲ¦ ä¼ļ
ç»¿ èĮ¶
ç»ıèĲ¥ èĮĥåĽ´
æ¨¡å¼ı åĴĮ
ç«ŀäºī ä¼ĺåĬ¿
è§Ĵèī² çļĦ
çĶµè¯Ŀ åı·çłģ
åħ¶æ¬¡ æĺ¯
å·¡ è§Ĩ
éķ¿åº¦ ä¸º
éĢĿ ä¸ĸ
åĩĿèģļ åĬĽ
è§£æĶ¾ åĨĽ
Ġencoura ge
Ġcit iz
A ng
p ost
çļĦ åĬŁæķĪ
çĶ Ħ
åĲ ³
ä¸Ģ æīĢ
ä¸Ģ èº«
ä¸Ń ä¿¡
çĶ¨ èĩªå·±çļĦ
ä¸Ĭ æľĪ
ä¹Ł æĪĲä¸º
éĹ®é¢ĺ æĺ¯
ä¼ł å¯¼
åĲĳ ä¸ĬçļĦ
æ¯ı èĤ¡
æķ°æį® å®īåħ¨
Ġde fe
ä¸¤ å®¶
ĠL ast
çĽ´ è§Ĵ
ĠG ir
æµĭ è¯Ħ
èµĽ éģĵ
æ¸© å·ŀ
åĽ½å®¶ éĩįçĤ¹
æĸ¹å¼ı çļĦ
Ġar rays
åĽ´ æ£ĭ
å°½ æĥħ
å¼Ĥ æĢ§
å¿«éĢŁ çļĦ
åıªæľī ä¸Ģä¸ª
çŁ¿ äº§
ĠSp ace
Ġredu ces
Ġrenew able
å·¥ä¸ļåĴĮ ä¿¡æģ¯åĮĸ
åľ¨ ä»»ä½ķ
åı¯ ä¿¡
æĭ Ĳ
åºĶ ä»ĺ
éĽ Į
æľĪ åħī
å¹¶ ä¸įä¼ļ
Ġr h
çĻ½ èī²çļĦ
æ¸ħ éĨĴ
ĠO l
éĩĩ æĳĺ
ud io
åºĶçĶ¨ åĪ°
è¯Ŀ è¯´
11 8
åªĴä½ĵ æĬ¥éģĵ
é¢Ĩå¯¼ çıŃåŃĲ
ĠEx amples
è°¢è°¢ ä½łçļĦ
Ġclos er
ahren heit
v ate
Ġc yl
åį »
Ġw ine
ic ians
å¹´ æĬ¥
è¾ ²
å¤ļ ä½Ļ
åĮĸ èĤ¥
Ġre put
äº§ åĩº
æľ¬ å¸Ĥ
éĩį å¤§çļĦ
èĢĮ åĲİ
ig ital
å°± æŃ¤
äºĭ åĲİ
å¤ĸ å¥Ĺ
åĲį åĪĹ
å½± éĻ¢
åĽŀ åĲĪ
Ġse vere
åħ» åĪĨ
ç§ĳæĬĢ çļĦåıĳå±ķ
ç»Ī ç»ĵ
çĶ» çļĦ
ä»£è¡¨ æĢ§çļĦ
æķĪæŀľ å¥½
çĻ» åľº
çļĦäºĭ ä¸ļ
Ġhard ware
Ġremain der
Ġdog s
ĠAre a
åĽ½èµĦ å§Ķ
= {
M O
c raft
Ċ ĠĊ
çļĦ å¯¹
çļĦ æĹł
ä¸Ģ çķª
è¦ģ æ¯Ķ
å¯¹ è¿ĻäºĽ
ĠT our
éĩį æŀĦ
å¤ĸ åľ¨
ĠB ud
å£ ¹
é¢Ħ åħĪ
Ġwor ry
ä½ľä¸º ä¸ŃåĽ½
Ġcont em
ä¸įæĸŃ åĪĽæĸ°
åĿļ ä¿¡
Ġsc ored
æĺ¥ é£İ
æ¤į è¢«
Ġass ets
å¹¶ä¸į æĦıåĳ³çĿĢ
ä¸ĭéĿ¢ å°±
æĬķåħ¥ åĪ°
Ġstand s
Ġstat istical
Ġdeb t
ĠâĪ Ĵ
1 19
T w
l ay
t own
Ġo scill
åıĳ çĥ§
åľ° åĲį
åĪĨ è¡Į
åħ¬ çº¦
ä¸ĭ æ¬¡
æľ¬ æĬ¥
æĽ´ éĢĤåĲĪ
éĽ ¯
å¤ĸ ä¼¤
å¾Ī ç®Ģåįķ
Ġwh om
ĠW here
ä¸ĸ ç´Ģ
çĭ Ħ
å¾Ģ æĿ¥
ĠK n
çĭ¬ ä¸ĢæĹł
æ½ į
éĶĢåĶ® æĶ¶åħ¥
çĸ«æĥħ çļĦ
çĥŁ èįī
ĠLe e
æ§ į
Ġcare fully
è¿Ļæ®µ æĸĩæľ¬
èĤ¾ èĦı
ä¸ºä¸»é¢ĺ çļĦ
G A
l ink
æľī ä»·åĢ¼
çĶŁ æ°Ķ
è¿Ļ éĢļå¸¸
ç¨ ½
æľº åŀĭ
ä¹ĭ æĺŁ
ĠM aster
æĸĻ éħĴ
åįĹ æŀģ
å¸ĥ èİ±
çĥŃ èĥ½
æĸĩåĮĸ ä¸Ń
Ġ4 7
æĬķèµĦ ç»ĦåĲĪ
ç¡®ä¿Ŀ äºĨ
èĩªçĦ¶ çķĮ
æ¦ Ĩ
å®¡ è§Ĩ
Ġsc ores
æĬĹ æĹ¥
Ġfind s
è´« è¡Ģ
æĻĤ æľŁ
æ¸©é¦¨ æıĲç¤º
Ġcollab or
é©¬æĭī æĿ¾
D ate
l am
ä¸Ģ å¦Ĥ
ä¸į åłª
äºĨ èµ·æĿ¥
åı¯ çĪ±çļĦ
Ġth in
èµ· çļĦ
ĠL ie
ç»Ļ åŃ©åŃĲ
çĽ´ éĶĢ
ĠG en
åıĪ åĲį
Ġapp s
æĸĩç«ł çļĦ
éĺ¿ æł¹
Ġtra ined
è±Ĩ ç±»
ĠNew ton
Ġel if
Ġpol l
æŁĶ æĢ§
me an
ĠInd ust
å¯º åºĻ
Ġimprove ment
éħįå¤ĩ äºĨ
æºĥ çĸ¡
Ġappreci ate
ç¾½æ¯Ľ çĲĥ
éħ° èĥº
çĭ¬ä¸ĢæĹł äºĮ
) ?
P erson
Ġs we
æĺ¯ åħ¶
æĹ¶ æķĪ
åıĳ è´§
Ġn an
æ³ķ åĴĮ
åı¯ä»¥ åĲĳ
æľĢ åıĹ
ä½ł åı¯ä»¥éĢļè¿ĩ
æĦı å¢ĥ
æīĭ èĩĤ
igh ter
è¿ĻäºĽ éĥ½
ä¸ĵä¸ļ äººåĳĺ
åĳ½ åĲįä¸º
è´¨éĩı ç®¡çĲĨ
çĻ¾ å¼º
Ġfun ding
ress ive
é£ŀ éĢŁ
æ¯Ľ åĪ©çİĩ
çĻ¼ çĶŁ
ateg ory
ç¨¿ ä»¶
equ iv
Ġconven ient
é¥º åŃĲ
æ²® ä¸§
O mega
t ag
½ åŃĲ
in em
ä¸Ń æµ·
Ġin fe
éģ ´
åħ¨ èµĦ
æĹ¥ çħ§
ä¿Ŀ æ´ģ
un s
æº ľ
ä¼ģä¸ļ åıĳå±ķ
å·² æĺ¯
å¦Ĥæŀľ è¯´
æİ§åĪ¶ çļĦ
èĳĹ ç§°
Ġval uable
Ġ9 5
èº«ä½ĵ çĬ¶åĨµ
æĪĺçķ¥ æĢ§
åħįè´¹ çļĦ
Ġincor por
Ġscient ists
ĠAng eles
ç½ĳçº¦ è½¦
T M
p op
Ġ æµĭè¯ķ
è¯ Ģ
éĩ ľ
æľī å¤§
äºº éĢī
ä»ĸ å°±
å¼Ģ åı£
ol s
å±ķ åĮº
um ing
Ġhe nce
å¸ĥ å°Ķ
ĠO b
èµĽ è½¦
èĢģ é¼ł
å¸®åĬ© çĶ¨æĪ·
çº¢ æľ¨
Ġbut ter
Ġapp lying
æĮģç»Ń çļĦ
çĶŁæĢģ ç³»ç»ŁçļĦ
åı¯èĥ½ä¼ļ å½±åĵį
éĻĪ ä»£è°¢
åĢĭ äºº
èµĦæł¼ è¯ģä¹¦
èĭĹ æľ¨
ç»ĻæĪĳ ä¸ĢäºĽ
Ġmar ks
Ð» ÑĮ
ç²Ĺ ç³Ļ
Ġclose ly
æĸ°åħ´ äº§ä¸ļ
Ġaffect ed
ä¹Ĵ ä¹ĵ
M on
o T
Ĥ ¬
åľ¨ éĩĳèŀį
ç¼ ļ
æĬĢæľ¯ çłĶåıĳ
Ġor bit
å¸¦ å®½
Ġsu it
ä½İ ä»·
éŁ³ ç®±
çĶ¨æĪ· è¾ĵåħ¥
ä¼Ĺ äºº
æ±Ł å¸Ĥ
åĤ »
æľīéĻĲ çļĦ
Ġrec ipe
Ġact ing
é¢Ĩå¯¼ ä¸ĭ
Ġaut o
ĠPh ot
ĠAr ts
èĻ« å®³
Ġcharacter istic
åīĬ å¼±
åıĳè¨Ģ äºº
Ġprot ocol
Ġdivis ible
éĺ¿æł¹ å»·
Z bl
çļĦ åĳĺå·¥
on ent
è® ½
Ġs orry
å¦ Ħ
Ġl it
ĠT O
å¼Ģ éĹ¨
èģ ŀ
ãĢĭ ï¼Ľ
ä¸ĵ çº¿
ĠN ULL
ĠG ame
Ġun ion
éĻį ä»·
Ġqu ot
çļĦä¸Ģ éĿ¢
ä½ı å»º
Ġsc an
å·¥ä¸ļ äºĴèģĶç½ĳ
çĹĽ çĤ¹
à¸ ²
Ġcr is
é¢ģ åıĳçļĦ
Ġhold ing
ï¼Ĵ ï¼Ĳ
å¥§æŀĹåĮ¹åħĭ éģĭåĭķæľĥ
[ -
Î ²
Î ¸
Ġ å¤ļ
ä¸Ģ èĤ¡
åľ¨ æĪĳä»¬çļĦ
Ġw est
Ġd f
æıĲ çĤ¼
åħ¨ åľº
åĬł åĵ¥
ul as
å¾Ī å°ı
ĠH ave
ant um
éĺŁ åľ¨
ç¤¾ä¼ļ åĲĦçķĮ
åı· çļĦ
12 6
å¸®åĬ© ä¼ģä¸ļ
äº¿ åĲ¨
åħļ æĶ¿
Ġte ch
éĶĢåĶ® çļĦ
æĹı èĩªæ²»
æ¯Ĵ ç´ł
ä»£çłģ ä¸Ń
åºĨ åħ¸
çļĦäºĭ çī©
els ius
36 5
39 34
åį³ä½¿ æĺ¯
æİ¥ä¸ĭæĿ¥ çļĦ
Ġsuggest ed
èĬĿ åĬłåĵ¥
mon th
æ³ķå®ļ ä»£è¡¨
Acc ording
ĠCommit tee
Ġ urban
ä¸Ģ åĪĨ
âĢ §
Ġc ake
ä¸į å®Įåħ¨
åħ¨ è¦ĨçĽĸ
ä¹ĭ å¹´
æ°´ ç®¡
æıĲä¾Ľ æľįåĬ¡
åı° åįĹ
æŀĦ æĢĿ
ĠO x
æĺŁ éĻħ
å¤ª åŃĲ
ç½ĳç»ľ ä¸Ĭ
éŃ ģ
ãĤ ī
Ġtest ed
âĦ ¢
sc ore
åĪĢ åħ·
æĶ¾æĿ¾ èº«å¿ĥ
rict ion
ĠComm unity
opp ed
çĴ° å¢ĥ
Ġsustain able
åĿĲèĲ½ äºİ
åĳķ åĲĲ
) **:
. $
/ \
C ount
ãĢģ `
æĺ¯ ä¸ĸçķĮ
Ġw indows
å¦Ĥ éľĢ
ve ll
Ġg ather
ĠC ond
æľŁ ä¸º
æ· ¬
éĩĳ çļĦ
æİ¥ çº³
æīĭ æĮģ
ĠF estival
èĬĤ æ°Ķ
19 50
èİ· æī¹
æ¿ Ĵ
Ġ6 00
16 00
æĭĽ æĶ¶
éĺ¿ å§¨
èĪªç©º èĪªå¤©
Ġlight ing
çºł ç¼ł
ç§¯ç´¯ äºĨ
åįłæľī çİĩ
æ¶¡ è½®
Ġsty les
éļıçĿĢæĹ¶éĹ´çļĦ æİ¨ç§»
M in
Ø ©
çļĦ æĳĦåħ¥
ä½ ¼
Ġb attle
ä¸ª åŁİå¸Ĥ
å¹´ åĪ°
st one
éĥ½ ä¸įä¼ļ
åįķ èº«
æł¼ éĩĮ
çº¦ æľī
ĠJ ack
è¯Ħ å§Ķ
åĽłä¸º åľ¨
åĲ¦ è®¤
ph abet
ä¸´ è¿ĳ
Ġ9 9
é¡º åºĶ
åķĨä¸ļ éĵ¶è¡Į
Ġcomb ine
çĨŁæĤī çļĦ
æ¸©æļĸ çļĦ
Ġmaintain ing
Ġsus p
Ġrepe ated
äººèĦ¸ è¯ĨåĪ«
Lu cy
å·´åŁº æĸ¯åĿ¦
çļĦ è·Ŀç¦»
æĺ Ĭ
on us
åĴĮ åĬŁèĥ½
åĴĮ äººç±»
ä¸į éĢĤåĲĪ
åı¯ ä½¿
ĠI reland
æľŁ æ»¡
çľĭ å¾Ĺ
åŃĹ èĬĤ
ĠO F
åħĭ èİ±
act ers
Ġper man
Ġspe ech
ç¬¬äºĮ åŃ£
æ¯ıä¸ª æľĭåıĭ
çĲĨè®º ä¸Ĭ
Ġsign als
è±Ĩ çĵ£
Ġdep loy
åĹ ¨
æ¡ĥ èĬ±
æµ¦ ä¸ľ
ç§ĳåŃ¦å®¶ ä»¬
ĠAut hor
Ġtransport ation
ĠHam ilton
Ġdiam eter
éģ´ éĢī
H R
l ast
s ing
åľ¨ æĹ¥å¸¸çĶŁæ´»ä¸Ń
Ġan onymous
ä¸ª çľģ
æĪĳ éĿŀå¸¸
ä¼ļ åľº
æ¸ ¤
èĩª æĮģ
æľ¬ åĬŀæ³ķ
å±ķ åİħ
å®ĥ åħ·æľī
ĠG auss
åĮĹ æĸĹ
Ġun iverse
æīĢä»¥ æĪĳä»¬
ãģ Ĩ
con fig
Ġro of
å¤ı å¨ģ
Ġfound ation
ç»ĻäºĪ äºĨ
åĹ ħ
æĤ² åī§
Ġfeature d
Ġatom ic
E lement
S am
it ness
æĸ° æīĭ
æľŁ å¾ĴåĪĳ
ç¥ Ľ
æ¯ı å½ĵ
è§Ĵ éĢĲ
æ²¹ çĶ»
åıĪ è¦ģ
ç¯ ¡
ç½ĳç»ľ çļĦ
ç«ŀ ä»·
äºĨä¸Ģ æĿ¡
æľĢåĲİ ä¸Ģä¸ª
åºŁ çº¸
æľŁéĹ´ çļĦ
çĶ° åĽŃ
æĹ¢ å¾Ģ
Ġsupp osed
åĢį æķ°
ç¥ŀç»ı åħĥ
æĬĢå·§ åĴĮ
requ ency
è¯·éĹ® æĤ¨
Ġris ks
çīµ å¼ķ
èĬĿ éº»
Ġcaus ing
ä¸ĵä¸ļæĬĢæľ¯ äººåĳĺ
Ġmount ain
Ġchann els
å¤ıå¨ģ å¤·
B E
ï¼ Ķ
ĠĠ ĊĠĠĠ
ä»¥ åĲİçļĦ
Ġp m
åĵ ĩ
æķ° çĽ®
ä¹ĭ ä»¥
èģĶ æīĭ
19 58
Ġch at
åĮħæĭ¬ äºĨ
éļı åľ°
ç¬¬ä¸Ģ åŃ£åº¦
æ³¢ éĤ£
ool s
æĬĺ å°Ħ
èļ ķ
ä»¿ çľŁ
Ġnear by
i ate
Ä ģ
çŃī åħ¶ä»ĸ
ä½ĵ èĥ½
å®ļ éĩı
ä¹ĭ ç§°
ä»İ è¿Ļç¯ĩæĸĩç«ł
ä¸ŃåĽ½ ä¼łç»Ł
çĪ± å°Ķ
iz z
çĽĳ å±Ģ
ç¢ ¼
æĹ© æľŁçļĦ
æĺ¥ å¤©çļĦ
è´£ä»» å¿ĥ
ä»Ĭå¹´ ä¸ĬåįĬå¹´
éķ¿æľŁ ä»¥æĿ¥
æİĮ å£°
äºĭä¸ļ éĥ¨
èŀº æłĵ
Ġhum ans
èµ¶ ç´§
æ¼Ĥ äº®çļĦ
èĬĿ å£«
Ġsymmet ric
Ġ åı¯ä»¥
Ġ rom
çļĦ å®ŀéĻħ
ï¼ļ $
ĠT er
éĥ½ èĥ½å¤Ł
ä½į ç§»
å¾Ī éķ¿
å®Į äºĨ
èĢģ èĻİ
ç»Ĩ å¿ĥ
æĵ ģ
é©¬ åĬĽ
æ¥ ·
å¾ģ æľį
Ġact s
Ġstud io
Ġent h
æĬ½ æŁ¥
æĥĬ åı¹
æ¨ª åĲĳ
Ġcomb inations
Ġwebs ites
M ike
å° ī
ä¸º éĩįçĤ¹
åŃ¦ åĲį
Ġh ar
ä¸ĭ è¾ĸ
æĹł æīĢ
æ°Ķ æµģ
å®ĥ èĥ½å¤Ł
å·² è¾¾
os c
éĺ² æ½®
æ¸ħ ç®Ĺ
åıį ä¹ĭ
iz za
è¡Įä¸ļ æłĩåĩĨ
å¾Ģ å¹´
å®£ è®²
çĤº äºĨ
ä¸Ģèµ· æĿ¥
åħ¨éĿ¢ åıĳå±ķ
æĲľ çĭĹ
æĶ¿æ²» äººçī©
æłĩå¿Ĺ æĢ§
ET C
ç¡ķå£« çłĶç©¶çĶŁ
Ġrot ation
Ġreplace ment
nab la
m al
n p
w an
é ĭ
Ġ ä½Ĩ
Ġ è¯¥
çļĦ ç»ıåİĨ
ä¸Ģ æīĭ
ä»¥ å¤ª
ou rier
è´ ŀ
å¹´ ä¼ļ
åĩº ä»»
Ġe ast
å°ı å°ıçļĦ
è¿ĺ éľĢ
è¿ĺ åħ·æľī
æİ¨ éĢģ
è¥¿ æ¹ĸ
éĻĲ éĩı
æ¢ §
og rap
ä¿® åīª
åĨľ ä½ľçī©
av en
çİ°åľ¨ æĺ¯
ĠAn other
æĺ¾ç¤º åĩº
ĠHe ad
ä¸»é¢ĺ çļĦ
æŃ£å¸¸ å·¥ä½ľ
åĨ³çŃĸ æłĳ
çĽ¸å¯¹ è®º
ç«Ń è¯ļ
Ġelectr ical
Ġhon est
çī¢è®° ä½¿åĳ½
èĥļ èĥİ
çļĦ å¢ŀåĬł
in et
ä¸Ģ å£°
å¼ ĵ
å¤§ åĲĮ
as tern
æĦ ļ
å°Ĩ ä¸İ
åħ¥ èģĮ
æ· ³
å¾Ī ä¸įéĶĻ
éĵ ²
Ġor b
æıĲé«ĺ å·¥ä½ľæķĪçİĩ
Ġab stract
åŁİå¸Ĥ è§ĦåĪĴ
éĥ¨åĪĨ çļĦ
çģ« èĬ±
åĲ¸ å°ĺ
å¼Ģåıĳ åĩº
ä¸įä»ħ è¦ģ
éĩĩçĶ¨ çļĦ
äº² çĪ±çļĦ
åħŃ å¤§
Ġequ als
åĽłç´ł çļĦå½±åĵį
æī¾åĪ° ä¸Ģä¸ª
æľĢè¿ĳ åľ¨
åĲĪçĲĨ å®īæİĴ
Ġpass age
ä¸¦ ä¸Ķ
åºŁæ°´ å¤ĦçĲĨ
è¿Ļåı¯èĥ½ åĮħæĭ¬
Ġsil ver
åĲĪä¼Ļ äºº
Ġcircum st
( ),
M ore
c ases
çļĦ çī©åĵģ
æĺ¯ ä»ĸ
åĴĮ çĶŁäº§
åĨ Ĺ
ut ch
ĠS em
æľĢ å°ĳ
éĥ½ åħ·æľī
ï¼Ľ âĢľ
Ġ$ -
æ²¡ ä»Ģä¹Ī
Ġne ural
å¸¦ ä¸Ĭ
è¾ĥ ä¸Ĭå¹´
Ġout come
ä½Ĩæĺ¯ æĪĳ
Ġ{ '
Ġrec y
èµ·æĿ¥ çļĦ
ãĤ ¢
ç§Ł è½¦
Ġknow ing
çļĦéĩįè¦ģ åĽłç´ł
æİ¥åıĹ äºĨ
æ¯Ľ åıĳ
Ġsk ill
èĶ¬èıľ åĴĮ
çĪ±æĥħ çļĦ
æ¡Į åŃĲ
éħ¿ éĢł
çĨ¬ å¤ľ
æĸĲ æ³¢éĤ£
% ï¼ī
. **
åľ¨ æ²¡æľī
åĴĮ æ´»åĬ¨
ä¸Ń ä¹ĭ
ä¸Ń ä¸ĵ
al and
ic ial
ä¸ĭ è°ĥ
è¿Ľ æĿ¥
ç¾ ¡
å¤ĸ æĺŁ
ers e
ä¸ŃåĽ½ å¤§éĻĨ
æĥ³ çŁ¥éģĵ
ä¸ĩ çļĦ
æ·± å±Ĥ
æ¸ħ çĪ½
çļĦä¸Ģ å¤©
æĳĦ åıĸ
å·§ å¦Ļ
çļĦé«ĺ çº§
éĩİ å¤ĸ
åįĸ åĩº
ĠAl gebra
ä¾§ éĿ¢
å§Ķåĳĺä¼ļ å§Ķåĳĺ
å®ĩ èĪª
è®¨è®º äºĨ
Python çļĦ
å¹´é¾Ħ æ®µ
æįķ èİ·
iam ent
Ġprec ision
ä»ħä¾Ľ åıĤèĢĥ
æĸĲæ³¢éĤ£ å¥ĳ
M ethod
åľ¨ çĶŁäº§
è¿Ļ çīĩ
æĸ¹ è¨Ģ
åħ¨ åĳĺ
éĥ¨ éĥ¨éķ¿
æīĢ å¸¦æĿ¥çļĦ
çī¹ è´¨
çī¹ æķĪ
æŀĦ çŃĳ
åŃ¦ä¹ł ç¼ĸç¨ĭ
åĪĹ è»Ĭ
ä¸ĵä¸ļ æĬĢèĥ½
ç¢ Ł
èį¯ åīĤ
çŁ³ çģ°
Ġ19 94
å¢ŀéķ¿ çļĦ
è´§ è½¦
æ¯Ķè¾ĥ å¤§
Ġown ers
è§ĤçĤ¹ åĴĮ
ç¬¬åįģ åĽĽ
èĤł èĥĥ
æķ°åŃĹåĮĸ è½¬åŀĭ
åıĻ äºĭ
ä¸Ģå¯¹ ä¸Ģ
E P
U M
b ur
i OS
çļĦ æŃ¥éª¤
æĺ¯ æł¹æį®
es ter
Ġn arr
æķ° åįĥ
çĽ¸ åĮ¹éħį
åı¸ ä»¤
æĢ» åĢ¼
è¯· å°Ĩ
æĶ¯ éħį
åıª æĺ¯ä¸Ģä¸ª
Ġcomm ands
äººæīį çļĦ
ç»¿èī² åıĳå±ķ
è¯º è´Ŀå°Ķ
æĤ¨åı¯ä»¥ ä½¿çĶ¨
ä¹Į åħĭåħ°
ç²¾å½© çļĦ
å¼ºåĪ¶ æĢ§
Ġsatisf y
Ġparticip ants
ä½łæľĢè¿ĳ æľīæ²¡æľī
Ġinstr ument
çĶ²çĬ¶ èħº
I BM
J ack
ä¸Ģ éģį
Ġm ort
Ġd inner
om atic
é«ĺ åĩº
è¿ĩ åī©
å°ı åĦ¿
Ġ** `
çī¹ åĪ¥
è´¨ æ£Ģ
äº¤ æĽ¿
Ġv ast
è·¯ çļĦ
èĦ ĸ
èģĶ è½´
åı£ å¾Ħ
åįĹ çĵľ
æĸ¹æ³ķ çļĦ
è¿ŀ ç»ĵ
æł¸ æ¡ĥ
ub ble
é»Ħ æ²¹
èįī åľ°
åĬ¨åĬĽ åŃ¦
Ġelect ro
åĴĸåķ¡ åĽł
ĠBe ach
çļĦä¸» ä½ĵ
Ġpriv acy
vare psilon
I O
d ays
ä¸į ç¦ģ
éĹ °
å®ŀ åĲį
ä¿Ŀ é²ľ
åºĶ æľīçļĦ
ĠA C
Ġbe at
çģ ¼
æīĭ éĩĮ
ä¸ŃåĽ½ çī¹èī²
çľĭ ä¸Ĭåİ»
Ġv ot
èĩªå·± åĴĮ
éĤ£ å¤©
åŃĹ æķ°
Ġwhe el
èµ° åĩºåİ»
ens us
Ġ8 00
---- --
æ±ī æĹı
å½ĵåľ° æĹ¶éĹ´
ĠZ h
å¯»æ±Ĥ ä¸ĵä¸ļ
ç¤¾äº¤åªĴä½ĵ ä¸Ĭ
Ġâī Ī
æĹłç¼Ŀ éĴ¢ç®¡
å°¤ä¸º éĩįè¦ģ
( ).
ì Ħ
çļĦ é£Łåĵģ
æľī åħ´è¶£
ed ge
è¦ģ ä»İ
è¾ Ĭ
Ġn arrow
Ġre actions
æľº æ²¹
å¼Ģ éĺĶ
el ly
åķĨ åŃ¦éĻ¢
ĠH aw
é© ´
Ġr id
åĽŀ äºĭ
Ġle ague
ak ed
Ġhas h
ĠĠĠĠĠĠĠĠ ĠĠ
è´µ éĺ³
æ¶Ĥ è£ħ
æĥĬ äººçļĦ
è¯ģæĺİ äºĨ
å¤º åĨł
Ġbro ken
éĹª çĥģ
æµ´ å®¤
ç¢± æĢ§
Ġfaith fully
Ġdra wn
M em
T op
n ic
æĺ¯ ä¼ģä¸ļ
åı¯ çĽ´æİ¥
é¢ ¤
å¯¹ æĸ°
éĿ¢ åĽ¢
ä¿Ŀ ä¿®
æĪĳä»¬ æĺ¯
åŁº çŁ³
éĻ¢ æīĢ
æĶ¾ åģĩ
è®¾å¤ĩ çŃī
äº¿ æ¬§åħĥ
æĺ¯ä¸Ģä¸ª éĿŀå¸¸
25 5
æķ°åŃĹ ç»ıæµİ
éĺ¶ çº§
ä¹ĺ ç§¯
ç©ºæ°Ķ åĩĢåĮĸ
ç¥Ŀ è´º
åĸĿ æ°´
Ġintegr ated
èµł éĢģ
ĠMed ical
åļ ´
çļĦ æľĢæĸ°
ä¸į éļ¾
Ġan s
è´ ¬
ï¼ļ ãĢĮ
è¦ģ çĶ¨
æĹ¥ è¶ĭ
åħ¶ åĲİ
æĪĸ ä¸ªäºº
æĪĳä»¬ æīĢ
æ±Ĥ ç²¾
Ġor th
åı¯èĥ½ åŃĺåľ¨
è§ģ è¿ĩ
æķĻèĤ² åŁ¹è®Ń
å¤± è°ĥ
çļĦä¸Ģ èĪ¬
æ¯Ĵ æĢ§
ç©ºæ°Ķ ä¸ŃçļĦ
umn i
Ġconne ctions
éĢĥ éģ¿
å¤ĸè§Ĥ è®¾è®¡
Ġperm ut
å¤¯ å®ŀ
> `
K e
M o
V S
f rame
o ption
à ª
ä¸Ģ å¤Ħ
Ġm erg
Ġe ating
é«ĺ ä½İ
èĩª åĪ¶
å» ³
å¼Ģ åĬŀ
èĢĮ çĶŁ
çī¹ éķ¿
ĠM ult
ä½¿çĶ¨ æĿĥ
éĢī åĿĢ
ĠF ood
æĪ¿ æºĲ
Ġpl enty
åĽłä¸º æĪĳ
Ġtr ouble
èīºæľ¯ ä½ľåĵģ
ç§ģ æľī
çĤİ çĥŃ
br id
Ġrespons es
Ġang ular
Ġwall s
åħ·æľīéĩįè¦ģ æĦıä¹ī
K W
t hen
ä½ µ
Ġf aces
ä¸į èĥľ
Ġp andas
æı Ľ
é«ĺ ç´łè´¨
è¿ĩ ç¡¬
åĬł ä¹ĭ
ĠS yn
åĪ¶ åīĤ
Ġ( `
çĻ Ĥ
éĥ½ çŁ¥éģĵ
ä¿¡ è®¿
æ´» å¡ŀ
å®ī å¸Ĥ
äº¤ ç»ĩ
ter ior
æĶ¶ åĪ°äºĨ
19 76
å¼ķ èµĦ
ost on
æ¼Ķ æĬĢ
ä»£çłģ çļĦ
Ġreg ional
çĺ ¾
Ġvis ible
æģĲ é¾Ļ
è®¾ç«ĭ äºĨ
çģĮ è£ħ
è¸ı å®ŀ
Ġbirth day
æĬĳéĥģ çĹĩ
ä¸»èĲ¥ ä¸ļåĬ¡
ste in
ĠGovern ment
Ġsympt oms
ï¼ ĺ
Ġp or
åľ° å°Ĩ
å½ĵ å±Ģ
å·¥ä½ľ åİĭåĬĽ
Ġor ient
èĬ± å¼Ģ
æħ ¶
æ¥ ŀ
ä¸įæĸŃ ä¼ĺåĮĸ
äººæ°ĳ ä»£è¡¨å¤§ä¼ļ
é¢Ŀ å®ļ
ä»·æł¼ ä¸º
åºŃ éĻ¢
åıĤä¸İ åĪ°
åºĶå½ĵ åľ¨
Ġsur faces
Ġcomput ation
XX X
èĩªçĦ¶ç§ĳåŃ¦ åŁºéĩĳ
H A
T wo
i Ã³n
Ġ åĪ©çĶ¨
Ġ Ùħ
çļĦ æİ§åĪ¶
it ative
ä¹Ł åĽłæŃ¤
Ġfor g
çĶµ å·¥
å¤ĸ æĿ¥
ç±» ä¸ĵä¸ļ
èµ· å§ĭ
è¿Ĳ æ²³
ĠF ollow
æµ· åºķ
ç®¡çĲĨ èĢħ
Ġr an
æĶ¹ è£ħ
èĲ½ ä¸ĭ
éĺ³ åİ¿
å¸ĮæľĽ å¤§å®¶
åıĳæĮ¥ ä½ľçĶ¨
éł Ĩ
åĪ· æĸ°
Ġsit ting
Ġcap abilities
ç¶ĵ æ¿Ł
åłĨ ç§¯
åŁİéķĩ åĮĸ
Ġbox es
ç¿»è¯ĳæĪĲ èĭ±æĸĩ
åī¥ ç¦»
ĠRich ard
ĠWed nesday
Y Y
Ġ å¤©
Ġ éģ¿åħį
å¸ §
æľī å¿ħè¦ģ
è¦ģ ä¿ĿæĮģ
åľ° æ¯¯
ĠM achine
çĿĢ çľ¼
èĪ Ĭ
å¢ŀ æķĪ
ĠĠĠ Ċ
åĩĨ èĢĥè¯ģ
ç¬¬ä¸Ģ åŃ£
Ġtr ick
éĢļå¸¸ çĶ±
æķ£ å°Ħ
Ġ& &
åĨ² åĬ¨
ç¡®å®ļ äºĨ
Ġra w
æĮĩå¯¼ æĦıè§ģ
æķı éĶĲ
Ġread ers
Ġown ed
Ġsupport ing
åĩī çĪ½
æµ·åįĹ çľģ
åħ½ åĮ»
è¶ĬæĿ¥è¶Ĭå¤ļ çļĦäºº
æ¾Ħ æ¸ħ
æłĸæģ¯ åľ°
Ġresearc hers
) \)
A ir
G E
x ide
çļĦ åģļæ³ķ
æķ Ľ
å¤§ è±¡
âĢĿ ï¼īï¼Į
ä¸İ ä¼łç»Ł
çĶµ åı°
çĤ¹ èµŀ
ç¾İ åĮĸ
åįķ é¡¹
è·¯ æĺĵ
æĶ¶ è§Ĩ
åĩł åįģå¹´
ç¿ ĺ
ä¸įæĸŃ å®ĮåĸĦ
çļ® æįŁ
ä½Ļ å®¶
æĺ¥ æĻļ
æ¸Ĳ è¿Ľ
Ġdep art
Ġdeterm in
æĤŁ ç©º
Ġintrodu ce
Ġassum ption
æ¯ĶåĪ© æĹ¶
ê ³
çļĦ è®¡ç®Ĺ
Ġm ur
Ġd ates
åŃ¦ åĪĨ
æģ ³
ĠF ull
è¶³ è¿¹
ult ane
Ġso le
Ġmod ul
æĻļ æľŁ
äº¤æĺĵ çļĦ
æĸ°éĹ» ç½ĳ
åĪ¸ åķĨ
é²ģ èĥ½
æº¶ äºİ
çīĽçļ®çĻ£ çļĦ
èľľ èľĤ
åĭĺ å¯Ł
ban ana
Ġsen ior
çļĦ ç¥ŀ
çļĦ è§£åĨ³æĸ¹æ¡Ī
Ġt on
ä¸Ģ éĺµ
or iginal
Ġp il
å·¥ æľŁ
éĩį åĨĻ
å°ı äºĭ
ir al
æĹł å¿§
åİŁ è°ħ
å² ¡
ç»´ å°Ķ
åı¤ è¿¹
äº¤éĢļ å¤§åŃ¦
æ°¸ ä¸į
çī¹çĤ¹ åĴĮ
å³° åĢ¼
æĺ¯æĮĩ åľ¨
æĹº çĽĽ
Ġsem i
Ġassign ed
åĵ¥ä¼¦ æ¯Ķäºļ
Ã ª
çļĦ è¡¨éĿ¢
åľ¨ æĬĢæľ¯
æľī æĽ´å¤ļçļĦ
ä¸į åħģè®¸
Ġl azy
æıĲ çĲ´
åı¯ä»¥ èĩªåĬ¨
ĠThe orem
ĠH D
çº¿ åĴĮ
è°ĥ éħį
å®Į å¤ĩ
ä¸ĩ å®¶
è¿Ļä¸ª è¯į
åĲĮæĹ¶ ä¹Łåı¯ä»¥
ä»¥ä¸ĭ éĹ®é¢ĺ
å·ŀ åĮº
åıĪ ä¸Ģæ¬¡
ä¸ªäºº éļĲç§ģ
ĠSt ore
æľīæķĪ æĢ§
æĹħæ¸¸ çĽ®çļĦåľ°
å¿ħé¡» æĺ¯
æĢ¥ éľĢ
åħ¬åħ± åľºæīĢ
åŃĺåĤ¨ åľ¨
ann el
æĬµ å¾¡
ertain ly
ä¿Ĺ ç§°
æĽ¿æį¢ ä¸º
Ġcollect ed
èĻķ çĲĨ
çļĦ éĿŀ
çļĦ åĮºåŁŁ
äº§ åŃ¦
å¼Ģ æľĹ
el a
éĩĳ é»Ħ
èī² è°±
ä¼ł çľŁ
ĠW atch
æ³¨ å®ļ
è¿Ļä¸ª äºº
ç»´ å¥ĩ
éļı åį³
å»ºè®¾ åįķä½į
åħĭ å°Ķ
æĺŁ ç©º
é¦Ļ èįī
å»ºçŃĳ è®¾è®¡
èĹ ¥
å¥ĩ å¦Ļ
Ġtra ding
}\ ]
Ġcomple ment
å¯¹è±¡ çļĦ
Ġcirc ular
èĢķ åľ°
Ġplatform s
2 11
æĺ¯ ä¸ĸçķĮä¸Ĭ
åĴĮ éĹ®é¢ĺ
al d
ä¿Ŀ ç®¡
ĠM ember
ĠR est
ä¸¤ äººçļĦ
æ·± å¤ľ
ç®Ģ æĺĵ
é©¬ è¾¾
Ġ[ {"
çĶŁçī© è´¨
æŃ¦ è£ħ
æĬ¥åĳĬ æĺ¾ç¤º
èĢĲ çĥŃ
æīĭæľº çļĦ
è®¢ è´Ń
Ġreg ister
ç»´æĬ¤ åĴĮ
Ġ: :
è£ģ å®ļ
Al so
Ġbr idge
è¯ģåĪ¸ äº¤æĺĵæīĢ
æŃ¦æ±ī å¸Ĥ
Ġport ion
æ©Ļ èī²
å¯Ĥ å¯ŀ
è¤Ĳ èī²
ç´Ĭ ä¹±
G PT
s en
} [
çļĦ å½¢è±¡
éĻ £
Ġl ibraries
æį ¡
æĹ¥ åĩº
éĹ´ è·Ŀ
å°± å¿ħé¡»
çĥ ĥ
æĬ¥ éĶĢ
éŁ ¶
åįĹ éĢļ
å±± å¤§
åĨį åĪ©çĶ¨
æ¶² æĢģ
", "
ä¸ĢèĪ¬ ä¸º
Ġrec o
Ġlist en
éľ² åĩº
Ġreg ul
æ»ĳ åĬ¨
ä¸¥éĩį å½±åĵį
Ġshe et
co pe
èİ« æĸ¯ç§ĳ
çģŃ ç»Ŀ
èŀº ä¸Ŀ
à¤ ¾
åįģäºĮ æĿ¡
æ»¨ æµ·
åĨ» ç»ĵ
å¤§åĬĽ åıĳå±ķ
erc ase
Ġfurn iture
$ {\
Ù Ĥ
çļĦ çī¹æ®Ĭ
åı¯ä»¥ æľīæķĪåľ°
çŁ £
éĹ´ æĸŃ
ä½ł å°Ĩ
è½¦ å±ķ
æ¬¡ äºİ
ç«ĭ æ¡Ī
äº§åĵģ è®¾è®¡
æĹ¶éĹ´ éĩĮ
æĸ½ èĤ¥
å¸Ĥåľº ä¸»ä½ĵ
åŃĺ éĩı
ç»´ äºļ
Ġle ct
å¥³ çİĭ
In f
Ġany where
æ±ĩ éĽĨ
çĶ° å¾Ħ
Ġsecond ary
ä½ıæĪ¿ åĴĮ
Ġenjoy ed
My SQL
è¡Ģæ¶² å¾ªçİ¯
Ġsal ary
Eng lish
y es
åľ¨ åĽ½å®¶
å¤§ åį«
æĿ¥ åĪ¤æĸŃ
il ation
ä¸İ åĽ½éĻħ
ä¿Ŀ èŃ·
ĠA rab
ĠC le
å·² ç¶ĵ
æĶ¹ æĢ§
Ġte ach
ç§¯æŀģ å¼Ģå±ķ
Ġco ach
æ¸©åº¦ ä¸º
Ġatt ached
åįļå£« åĲİ
Ġocc asion
è¾Ľ åĭ¤
Ø§ Ø
Ġwin ner
å±¬ æĸ¼
çĽ¸è¾ĥ äºİ
Ġgrad ient
ä¸Ń éĢīæĭ©
ä¸Ń åıĳçİ°
çī Ł
åĮĸ ç®¡çĲĨ
åı¯ä»¥ éĩĩåıĸ
ĠT uesday
us ep
å°± èĥ½å¤Ł
å½ĵ ä»ĸ
éľĢè¦ģ å¸®åĬ©
ĠW rite
è®© è§Ĥä¼Ĺ
ĠL in
ĠJ im
Ġ19 70
é»ĳ èĥ¡æ¤Ĵ
---- -
ç§Ł å®¢
è¿Ĳè¡Į çļĦ
åĢŁ çĶ±
åĪĨéĴŁ åĲİ
æĮĩå¯¼ ä¸ĭ
çĽĽ ä¼ļ
çº¯ åĩĢ
åı¬å¼Ģ äºĨ
Ġrad ical
è¿Ļä¹Ī å¤ļ
Ġput ting
æľ¬ç§ĳ çĶŁ
Ġlat ter
pa rent
å°½åı¯èĥ½ åľ°
Ġassum ing
point s
åŃ¦åīį æķĻèĤ²
7 50
a verage
g ent
çļĦ çħ§çīĩ
åĴĮ ä¿¡æģ¯
å¯¹ ä»ĸ
ï¼ī âĢĿ
åı¯ä»¥ ä¿ĥè¿Ľ
åĬł çĽĸ
éĩį å¿ĥ
æĽ´ å¼º
åĨħ æľī
å¹¶ æĹł
éĥ½ åºĶè¯¥
é¦ ı
ri age
ĠL ED
è¥¿ éĹ¨
è¾ĥ å¤ļçļĦ
çİ¯å¢ĥ å½±åĵį
ä¸»è¦ģ ä»¥
èĳ «
Ġad ults
å¦Ĥä½ķ å¤ĦçĲĨ
å¾® åŀĭ
æī§ çĿĢ
åı¶ è½®
éĿ¢ç§¯ ä¸º
åĢŁ æŃ¤
è¯¦ è§ģ
è®Ńç»ĥ æ¨¡åŀĭ
Ġdec ades
An other
val id
æľīåĬ©äºİ æıĲé«ĺ
æľĢåĪĿ çļĦ
Ġkin etic
) {
éĢ ®
Ġb read
Ġre versed
æĹ¥ æ¶Īæģ¯
éĽ ĸ
è¿ĺ åºĶ
è¯´ è¯´
æīĭ å¥Ĺ
åıĺ çİ°
ac c
ä¼ĺ ç¼ºçĤ¹
è¿ĻäºĽ æĸ¹æ³ķ
Ġme ets
è¿ĺæľī ä»Ģä¹Ī
Ġsol ved
çīĽ ä»Ķ
Ġsign s
ç¦ģ åĮº
å¡« è¡¥
åĽŀçŃĶ è¿Ļä¸ªéĹ®é¢ĺ
tr ue
Ġsepar ated
Ġchalleng ing
Ġinnov ation
ĠHot el
è¡ĮæĶ¿åĮº åĪĴ
Ġcub ic
Ġepis ode
F ROM
S V
çļĦ äº¤æĺĵ
åĴĮ ä¸ĢäºĽ
ä¸Ń èĢĥ
åı¯ å°Ĩ
le ctions
èĩ ¨
ä½ľ çļĦ
åĪĨ æĺİ
å®¶ åĴĮ
éĢļ å¾Ģ
æľ¬ æľĪ
å¿ĥ å¾Ĺ
å°± è¿ŀ
è¯´ èµ·
äº¤ æ±ĩ
è§Ħ éģ¿
è¯· æł¹æį®
åıª åľ¨
å·¥ç¨ĭ è®¾è®¡
ord ers
çĶ±äºİ åħ¶
æĭĽ åĭŁ
äºĨä¸Ģ æī¹
æľīåħ³ äºĭé¡¹
éĩĩåıĸ äºĨ
éĿ¢å¯¹ éĿ¢
åºĦ ä¸¥
å¤º å¾Ĺ
æľĢå°ı åĢ¼
M R
V ol
^ *
Ġc ra
Ġm ine
æĿ¥ éĢīæĭ©
æĹł èģĬ
åįķ æĽ²
å°ĳ äºĨ
19 49
å®īåħ¨ éĹ®é¢ĺ
ç»ıæµİ åĴĮ
åħĭ éĩĮæĸ¯
èĥ½å¤Ł æĽ´å¥½åľ°
ãģ ķ
åŁºç¡Ģ çŁ¥è¯Ĩ
å»ºç«ĭ èī¯å¥½çļĦ
AI çļĦ
ä¸ĥ å¹´
Ġvari ation
å®īè£ħ åľ¨
è¿Ŀ çºª
Ġfl ag
çļĩ é©¬
Ġmulti plied
åģ¥èº« æĪ¿
AB C
Ġrespons ibility
Ġmatch ing
ams ung
Ġdeath s
Ġinsp ired
Ġadminist r
Ġcollab oration
usep ackage
B ook
C ç½Ĺ
O ff
Ċ ĊĠ
çļĦ çī¹èī²
Ġa id
Ġb order
çĶ¨ ä»¥
è¦ģ æĺ¯
å¥ ķ
å¯¹ åŃ¦çĶŁ
ä¸ĭ è¾¾
æĸĩ ä¹¦
éĽ ľ
æīĢ è¯´
çł º
æº «
ä¸¤ é¡¹
Ġapp a
æĶ¿åºľ éĩĩè´Ń
çĽ´æİ¥ çļĦ
Ġam b
åĸľæ¬¢ åĲĥ
èģĮä¸ļ éģĵå¾·
æ¾ ¤
ä¹ĺ è½¦
Ġext ensive
ä½łåı¯ä»¥ åľ¨
æİĮæı¡ äºĨ
å¦Ĥä»Ĭ çļĦ
æĪªæŃ¢ æĹ¥æľŁ
æĶĢ åįĩ
åĿļå®ŀ çļĦåŁºç¡Ģ
å¥¥æŀĹåĮ¹åħĭ è¿ĲåĬ¨ä¼ļ
J SON
æľī è¶³å¤ŁçļĦ
Ġw al
ä¸į è¡Į
åľ° åľ¨
Ġl ux
ĠI de
ot hes
æľĢ çµĤ
å¤© èµĭ
ä»£ çļĦ
ç§ĳ åĮ»çĶŁ
ĠB ern
æ°Ķ ç®¡
å°ĳ è®¸
ĠL ar
ĠL td
å¦Ĥæŀľ æĤ¨çļĦ
çĶ¨æĪ· æıĲä¾Ľ
å·¥ç¨ĭ ä¸ĵä¸ļ
å£° ç§°
èĹ ©
ä¸Ģå®ļ æĺ¯
âĢĶâĢĶ âĢľ
Ġbu ff
ç§ģ å®¶
åºĬ ä¸Ĭ
99 9
ä¸ºä»Ģä¹Ī è¦ģ
çŀ Ħ
Ð¾Ð ¹
å®¾ å®¢
oper ator
B B
ä¸Ģ ä¸Ŀ
åĴ ı
é«ĺ æīĭ
ĠT oday
im s
æĽ´ éķ¿
se arch
æĶ¶ åĽŀ
åĳ¨ ä¸ī
ail ability
Ġi Phone
æł¸å¿ĥ ç«ŀäºīåĬĽ
ix el
æľºæ¢° åĮĸ
åľ¨çº¿ è¯¾ç¨ĭ
Ġinterest s
Ġestim ates
Ġbroad cast
ĠComput er
M D
f ront
i ro
çļĦ åİŁ
åľ¨ çİ°ä»£
Ġm it
ä¸ļ æľīéĻĲåħ¬åı¸
å¥ İ
å¦Ĥ åĽ¾
éĢļ ä¿Ĺ
æľ¬ ä¸ĵä¸ļ
ĠA st
å¤© èĬ±
äºĭ è¿¹
åĲį æł¡
ĠM ich
ä¸ŃåĽ½ å¸Ĥåľº
è·¯ çģ¯
å·² å®ĮæĪĲ
çĶŁäº§ è®¾å¤ĩ
çļĦäºº æķ°
è®² å¸Ī
è¿Ľä¸ĢæŃ¥ å®ĮåĸĦ
éĩįçĤ¹ é¡¹çĽ®
Ġsub stitute
è§Ħæ¨¡ çļĦ
è³ ¼
æĦıè¯Ĩ çļĦ
ä¸ĭéĻį äºĨ
çĥŁ æ°Ķ
æĪĲéķ¿ çļĦ
åĦ¿ç«¥ çļĦ
Ġefficient ly
æ¬º éªĹ
è°ľ é¢ĺ
ĠArm y
Ġrob ust
Ġrout ine
m ol
Ġ æĹ¶
Ġ åŃ¦ä¹ł
çļĦ é£İæł¼
æĺ¯ åħ³äºİ
æ± Ŀ
ä¸İ åĪĽæĸ°
ĠT H
å°ı çİĭ
ç¬ Ľ
å¤© æķ°
ad ium
ĠB ow
ç¥ ī
èĲ¥ åĪ©
æĬ¤ èĪª
æŀģ èĩ´
Ġ4 6
äºĨè§£ åĴĮ
ä»·æł¼ ä¸Ĭæ¶¨
é¢Ĩå¯¼ å¹²éĥ¨
Ġfac ility
è¯± æĥĳ
ĠNe xt
Ġunivers al
åĮ¿ åĲį
èģĮä¸ļæĬĢæľ¯ åŃ¦éĻ¢
s ince
Ġ ur
ä¸Ģ å¤ľ
Ġs ister
en ame
Ġw ra
è¿ĩ åĪĨ
æĹ¥ åĿĩ
å¤ĸ åľ°
æĬĢæľ¯ åºĶçĶ¨
æµ· åı£
ä¸ĩ æĪ·
åĽŀ è´Ń
åĳ¨ åħŃ
éĿŀå¸¸ é«ĺ
Ġme at
ä¸įæĸŃ å¢ŀåĬł
å°ģ éĿ¢
çļĦé«ĺ æķĪ
æ¯Ľ å·¾
åĬŀåħ¬ æ¥¼
è¿ĩåİ» äºĨ
å»ī æ´ģ
å¯¹åħ¶ è¿Ľè¡Į
æ±¡æ°´å¤ĦçĲĨ åİĤ
Ġdraw ing
Ġregard less
Ġconsum ers
å¿ĥçģµ çļĦ
ãĥ¼ ãĥ
Ġmanufact uring
Ġhous es
Ġarbit rary
Ġkilomet ers
ç¾İèģĶ åĤ¨
åĴĮ åĽ½éĻħ
ä¸º å®ŀçİ°
çĶŁ çĹħ
äºİ æŃ¤
ä¸İ ä¼ģä¸ļ
åĲİ åį«
å¤ĸ åķĨ
è¿ĺ èĥ½å¤Ł
å·¥ä½ľ åĿĬ
ĠB an
éĢī åĩº
pl ify
Ġsh ipping
ä»¥ä¸ĭ åı¥åŃĲ
Ġk id
èīº é¾Ļ
çĽĬ çĶŁ
ä¸ªäºº èµĦæĸĻ
åĲ¸ åıĸ
éĢĲ ä¸Ģ
è§Ħå®ļ äºĨ
çĬ¶æĢģ ä¸ĭ
çĶŁåĳ½ åĳ¨æľŁ
ä¸ĸçºª åĪĿ
éĺ´ å½±
éĺ´ éĺ³
ä¸¾è¡Į äºĨ
çº¿ä¸Ĭ çº¿ä¸ĭ
Ġpresent ation
å¼ķåıĳ äºĨ
Ġamount s
å¼¥ æ¼«
Ġsimpl ify
EE E
å°Ī è¼¯
çļĦç»ıèĲ¥ çĲĨå¿µ
è·¨å¢ĥ çĶµåķĨ
Ġstrug g
âĺ ħ
èĩªæĿ¥ æ°´
. [
9 000
W ord
çļĦ è¿½æ±Ĥ
ä¸Ģ æł¹
Ġc ov
es ian
çŃī è¯¸å¤ļ
è¿ĩ æľŁ
ä¹ĭ ç±»çļĦ
å°ı é¸Ł
æľĢ ç¾İ
æľĢ éĩįè¦ģ
èĩ³ æŃ¤
æİ¨ éĶĢ
æĶ¯ éĺŁ
ĠO S
ç«¯ åı£
éĢļå¸¸ æĮĩçļĦæĺ¯
åįł é¢Ĩ
èīºæľ¯ åĪĽä½ľ
éĤ£ä¹Ī å¤ļ
Ġsub mit
è¶ĬæĿ¥è¶Ĭ é«ĺ
å®½ å¸¦
æ³ī æ°´
æĸ°åĨł çĸ«æĥħ
ĠSc ot
ĠAt l
äººåĬĽèµĦæºĲ åĴĮç¤¾ä¼ļä¿Ŀéļľ
Ġexc iting
Ġwatch ing
Ġinnov ative
eli hood
) ```
C ur
o om
çļĦ åĪĨ
Ġs aving
åľ¨ å·¥ä½ľä¸Ń
åĴĮ æľī
en v
åı¯ åı¯
ä½¿ ä»ĸä»¬
å¤ĸ åĮħ
ĠM AT
æĹ¶éĹ´ éķ¿
ĠJ ud
åĩł çĻ¾
ç¬¬ä¸Ģ æĿ¡
è¾¹ éķ¿
ne q
ãģ Ĥ
ä¸įä»ħ å¦ĤæŃ¤
ç¥¨ ä»·
äº² äºº
èĽ Ļ
ä¼ĺåĬ¿ åĴĮ
æ·±åº¦ èŀįåĲĪ
èĲ¥åħ» ä»·åĢ¼
çº¤ç»´ ç´ł
æĹłçº¿ çĶµ
æİ¢æµĭ åĻ¨
ĠSec urity
c ape
d ir
çļĦ ç¨ĭåº¦
çļĦ ä¾ĭåŃĲ
Ġc lock
Ġw ww
ä¸į ä¸Ģèĩ´
èĥ½ æıĲä¾Ľ
å¤§ çº²
çŃ Ŀ
æĿ¥ è®¿
Ġl ens
Ġl unch
æį ı
æľº èº«
ĠT ry
ç®¡ æĿĲ
æ¯Ķ çİĩ
ers ey
æĬ¤ çħ§
Ġnot ed
åĨį æĿ¥
æĿĳ éĩĮ
è¿ľ å¤Ħ
Ġ19 92
èģļ åĲĪçī©
erm an
èįī èį¯
èµĦäº§ è´ŁåĢº
åħ¶å®ŀ æĺ¯
ç¹ģ çĲĲ
åıĮæĸ¹ çļĦ
æ¸ħæĻ° åľ°
åįĹäº¬ å¸Ĥ
æĭĽæłĩ æĸĩä»¶
æ£ī èĬ±
Ġsens itive
Ġalbum s
Ġexpert ise
ĠWhe ther
çļĦ éĻĲåĪ¶
Ġt ub
åħ¨ çº¿
éĢļ è¯Ŀ
å»º æľī
ig er
æ¼ ĵ
Ġsh ares
å¸®åĬ© åŃ¦çĶŁ
Ġj umps
å¤± èĲ½
are a
å»ºç«ĭ çļĦ
In dex
ä¼¤ äº¡
æ³ķå¾ĭ æľįåĬ¡
åĩĢ åĢ¼
Ġele v
è®¾ç½® äºĨ
æīĵéĢł çļĦ
Ġgraph s
å¼ĢåĲ¯ äºĨ
å¯¹å¤ĸ å¼ĢæĶ¾
Ġmechan ical
èĬĴ æŀľ
èĤ¢ ä½ĵ
h ab
Ã º
é ¨
on ly
Ġc rypt
ä¸º ä»ĸ
ä»ĸ ä¼ļ
éľ Ĩ
ĠP R
æĹł å½¢
æĹł å£°
è¢ į
è¢« å¹¿æ³Ľ
çľĭ ä½ľ
ĠD ate
æİ¨ åĲĳ
ç»Ļ ä»ĸä»¬
ä¸ĩ å¤ļ
äºĨè§£ èĩªå·±çļĦ
æĭī èĲ¨
ç¬¬ä¸Ģ å¤©
è¿ĲåĬ¨ åĴĮ
pr ice
æĦıä¹ī ä¸Ĭ
æľ¬æ¬¡ æ´»åĬ¨
Ġstand ing
åĲĦä¸ª æĸ¹éĿ¢
éĸĭ çĻ¼
å¿½ çĦ¶
Ġpurch ased
æīĵçł´ äºĨ
ëĭ Ī
Ġassess ment
Ġtick ets
Ġguaran te
ä¸Ńèı¯ æ°ĳåľĭ
å¿ħä¸įåı¯ å°ĳçļĦ
ï¼ Ļ
çļĦ åĮºåĪ«
Ġa ircraft
at ial
ä¸İ å®¶äºº
æľ¬ æ¡Ī
èĢĮ å®ļ
id ents
å¾Ĺ ä¸įåĪ°
çł ¸
æĺİ æľĪ
ç§ĳ å¤§åŃ¦
ä¸ī æľĪ
åĲĳ ä¸ĭ
è¾ĥ å°ıçļĦ
åĮĹ å¸Ĥ
å¦Ĥæŀľ ä¸Ģä¸ª
end ar
åĲ¬ åĲ¬
è¿Ļä¸Ģ æ¬¡
è¯¯ å¯¼
éĺ¶ å±Ĥ
Ġexp lo
åı¯ä»¥éĢļè¿ĩ åĪĨæŀĲ
åĨľä¸ļ çĶŁäº§
è¶ĭåĬ¿ åĴĮ
æĬĢæľ¯çļĦ åºĶçĶ¨
ĠUS B
åļ ¼
ä»¥ä¸ĭæĺ¯ä¸Ģ éģĵ
Ġpark ing
Ġgrav itational
S R
t z
Ã ´
ä¸į åıªæĺ¯
å¯¹ ä¸įèµ·
åı¯ä»¥ è¾¾åĪ°
å¹¶ ç»Ļåĩº
è± Ĳ
å¸® æĤ¨
Ġun like
åĩı åİĭ
è§£åĨ³ çļĦéĹ®é¢ĺ
ä¹ĭä¸Ģ æĺ¯
çľ¼ çļĦ
çľ¼ çĲĥ
åıĳå¸ĥ åħ¬åĳĬ
Ġdist ingu
Ġread er
éľĩ åĬ¨
çģµæ´» çļĦ
è´Ńçī© ä¸Ńå¿ĥ
ĠCent re
Ġweight s
Ġtre ated
Ġguid elines
Ġexperim ental
ĠDown load
çļĦ åĲįç§°
çļĦ çĶŁéķ¿
åĴĮ B
Ġf ox
ä»¥ èµ´
ä¸į å°½
èĥ½ éĩıçļĦ
ä¸İ ä¼Ĺ
åĵģ å¾·
å¹¶ æıĲé«ĺ
çĽ¸ è¿ĳ
é¢ĺ ä¸º
åĲį é¢Ŀ
æĶ¿ æ³ķ
åĻ ¬
è¿Ĳ éĢģ
ä¼ł éĢģ
èµĽ ä¸Ń
éŁ³ æķĪ
åĨį çĶ¨
ç¾¤ å²Ľ
åħ¨çĲĥ çļĦ
éĶĻ äºĨ
åİĨåı² åĴĮ
è¯Ĭ æ²»
Ġag ency
è¿Ķ æł¡
Ġext end
æĬĵ æīĭ
St ate
ç¥ŀç»ı ç³»ç»Ł
åıĥ åĬł
éĵ¸ ä»¶
èģ¯ è³½
æ¤ħ åŃĲ
éĺ²çģ« å¢Ļ
Ġeval uation
Ġseem ed
Ġpow ers
èĲİ ç¼©
F I
çĶŁ é²ľ
ä½ľ åĩºäºĨ
Ġn aturally
æĸ° æ¨¡å¼ı
im a
åħ¥ åħļ
èµ· æºĲäºİ
èį Ķ
ĠF ort
ive red
åħĪ å¤©
éĤ£ æĹ¶åĢĻ
æŀģ é«ĺ
çĶ¨æĪ· çķĮéĿ¢
åħ¶ä¸Ń åĮħåĲ«
form at
è¯» åĨĻ
çĽ®æłĩ åıĹä¼Ĺ
çŁŃ çīĩ
erv ing
Ġ8 9
Ġgr ass
å¡ĳ æĢ§
åıĹåĪ° å½±åĵį
ãĤ ĵ
Ġele g
app ed
èµĦæł¼ å®¡æŁ¥
Ġbr ings
Ġident ical
Ġkeep s
aren ess
ĠIsra el
E B
H ope
N ET
P LC
n ormal
Ġ æį®
åľ¨ é¦Ļæ¸¯
å¤§ åŁİå¸Ĥ
Ġd ump
å¸Ĥ äººæ°ĳæĶ¿åºľ
åĲİ ç«¯
æĪĳä»¬ å¸ĮæľĽ
èĬ ľ
åĽ¢ å§Ķ
ĠU lt
å¤ª å¤ª
è´Ń ç¥¨
äººå·¥æĻºèĥ½ åı¯ä»¥
æ¦ ´
ç»ĵæŀĦ è°ĥæķ´
æĽ´åĬł æ³¨éĩį
Ġdis k
ç¨ĭåºı çļĦ
éº ¥
çļĦé«ĺ éĢŁ
ok ing
è¹ Ħ
çļĦæ°´ åĪĨ
å°±åı¯ä»¥ äºĨ
Ġhous ing
ç²¾çĽĬ æ±Ĥç²¾
H ome
Ġ ç±³
çļĦ ä¸Ńå¿ĥ
çļĦ åĲĮåŃ¦
al i
ä¼ļ å°Ĩ
åħ¬ è®¤
çİ° éĺ¶æ®µ
ĠA wards
ä½ł åı¯èĥ½éľĢè¦ģ
æ¯Ķ èµ·
Ġcon sec
Ġ6 2
å·¥ä¸ļ åĽŃåĮº
ä»»ä½ķ ä¸Ģä¸ª
ä¸Ģèµ· åİ»
Ġacc ident
åĪļ å¥½
æĿŁ ç¼ļ
çļĦæĹ¶éĹ´ åĨħ
æĦıæĢĿ æĺ¯
place ment
ĠQu estions
Ġaccur ately
ä¸įè®º æĺ¯
Ġtut orial
L AB
p end
Ġ å®ļä¹ī
åĴĮ å¤ļ
æĭ £
Ġn a
äº§ åĲİ
ä¹Ł å¥½
æİ¥ çº¿
åįķ çīĩ
æķ°æį® éļĲç§ģ
æĤ¨ å¯¹
Ġsu c
èĢģ åħ¬
çĶŁæ´» åŀĥåľ¾
Ġ5 2
çļĦä¸Ģ ç³»åĪĹ
ä¾ĭå¦Ĥ åľ¨
äº¿åħĥ çļĦ
ä½Ľ æ³ķ
é¦ĸåħĪ æĺ¯
æĸĩæľ¬ åĨħå®¹
ĠÐ ±
viron ments
stit uting
æķĪçİĩåĴĮ è´¨éĩı
Ġassoci ation
åħ¨åĬĽ ä»¥èµ´
åıĻ åĪ©äºļ
M ichael
m es
åį ¦
å¤§ è±Ĩ
æĿ¥ è¡¨è¾¾
é«ĺ ç²¾åº¦
il der
Ġfor t
æľĪ åı°
å·¥ä½ľ çİ¯å¢ĥ
ĠD ie
åģļ è¿ĩ
Ġde als
æķ´ éĻ¤
è¯¥ åĩ½æķ°
æĶ¹ åĪ¶
åĽŀ æļĸ
å¤į åı¤
çĶŁæ´» åĴĮ
çľŁ èıĮ
ä»ħ æ¬¡äºİ
Ġdis h
çľ¼ ä¸Ń
æĴŃ ç§į
æĪĲåĬŁ çİĩ
åľĭ æ°ĳ
å·¨ äºº
yn c
AR CH
çĽ¸æ¯Ķ ä¹ĭä¸ĭ
ç¥Ŀ æĦ¿
ä¸ªæľĪ åĨħ
AL L
ĠMed ic
çº² è¦ģ
Ab stract
Ġcandid ate
æĮª å¨ģ
b et
v y
Â ³
Ã ±
çļĦ è®¤è¯Ĩ
is c
ä¸º ä¹ĭ
æ³ķ åľĭ
é£ Ļ
å¤© æīį
Ġst im
äºĭ çī©çļĦ
ä½Ĩ å¯¹äºİ
å½± åŃĲ
æİ¥ å£¤
ä¼ł æİĪ
æĢ» äººåı£
åģļ ä¸º
æĶ¹ å»º
äººæ°ĳ çļĦ
Ġpr oud
ç»į åħ´
Ġ$$ (
åĬ± å¿Ĺ
åĨ² åİĭ
å¨ģ å°¼æĸ¯
è¡ĮæĶ¿ å¤įè®®
åĪĨéĴŁ çļĦ
Ġsee king
æĹħè¡Į èĢħ
Ġbel ief
æģĴ æ¸©
Ġobject ive
çĶŁæĪĲä¸Ģä¸ª åħ³äºİ
çĩķ éº¦
æĽĿ æ°Ķ
åĨĻåŃĹ æ¥¼
G R
G reat
o or
çļĦ æĬĹ
çļĦ æĸĩä»¶
çļĦ ç»ıåħ¸
it age
Ġf le
ä¸į å±ŀäºİ
æĮ ł
æĺİ åªļ
å¼º è¿«
æĶ¶ çĽĺ
åĽŀ é¦Ī
çĽ´ è§ī
ä¸ĢäºĽ éĹ®é¢ĺ
å½±åĵį çĿĢ
ä»Ģ éº¼
åİĨ æĹ¶
æĪ¿ ä¸ľ
åį³ ä¸º
çĽ¸åħ³ ä¸ĵä¸ļ
ä¿® è¡¥
éĺ³ åı°
å»ºçŃĳ æĿĲæĸĻ
æĭ¥æľī çļĦ
åĪ¤ å®ļ
Ġint u
æµĭè¯ķ åĴĮ
åŃ¸ éĻ¢
è·¨ åŃ¦ç§ĳ
çĥŁ èĬ±
æıĲåıĸ åĩº
èĤº çĻĮ
ĠCon nect
èī¾ æ»ĭ
è¢Ń åĩ»
åĤ³ çµ±
Ġdepend ent
æĭĺ çķĻ
N T
[ "
çļĦ å®¶
çļĦ ç³»ç»Ł
çļĦ åķĨä¸ļ
äº Ł
åĲ Ł
ä¸Ģ ç±»
åº ļ
Ġd ust
è¦ģ æł¹æį®
åıĳ è¡ĮçļĦ
åı¯ä»¥ èİ·å¾Ĺ
åºĶ æł¹æį®
um a
éħ ĭ
ĠP rem
æİ¨ æµĭ
è¯· èģĶç³»
pl ed
Ġch ocolate
è¶Ĭ éĩİ
çŁ³ èĨı
äºĳ æľįåĬ¡
æĽ´åĬł çļĦ
å¼Ĥ æŃ¥
ç¾İåħĥ çļĦ
æµĵ åİļ
äº¦ æĺ¯
è½¦è¾Ĩ çļĦ
ä¸¹ éº¦
åħįçĸ« ç³»ç»Ł
Ġmom ents
æĢ»éĥ¨ ä½įäºİ
onal d
äººæĢ§ åĮĸ
å¸ĮæľĽè¿ĻäºĽ å»ºè®®
çļĦ åıį
æ± ķ
ç»ı æĸĩ
ith ub
åķĨ æľº
ĠH ence
ĠL ive
ĠG re
19 75
ä¹Ĳ äºİ
ä½İ è¿·
ä¸»è¦ģ ä¸º
éĿŀå¸¸ å¹¿æ³Ľ
Ġcomp osed
ç¬¬ä¸Ģ å®¶
ĠY oung
Ġman ip
çľ¼ æ³ª
Ġpo et
çĶŁæĢģ å¹³è¡¡
vel ength
æĦıè§ģ åĴĮå»ºè®®
å¼ĢæĶ¾ å¼ı
ÑĤ Ð°
æĬķåħ¥ ä½¿çĶ¨
Ġstrong ly
çĩĥæĸĻ çĶµæ±ł
cont ent
Cons ider
Ġtot ally
â Ĩ
æĺ ¼
æľī ä¸ī
it ems
è¿Ļ åı¯ä»¥
ä¸İ çİ¯å¢ĥ
èĢĮ è¿Ļ
éĹ® æĪĳ
æĮģ å¹³
æĬĢæľ¯ çŃī
æµģ è½¬
çŁ¥ æĥħ
æĹ¶éĹ´ æĿ¥
ç²¾ ç¾İçļĦ
èĩ´ åĳ½
èį¯ å¸Ī
ç§¯æŀģ æİ¨è¿Ľ
äº² èº«
çŃĸçķ¥ åĴĮ
å®½ æķŀ
Ġterm inal
èĴ¸ æ°Ķ
è£Ĥ ç¼Ŀ
çĽĪåĪ© èĥ½åĬĽ
åıĬä»¥ä¸Ĭ åŃ¦åİĨ
æķ£çĥŃ åĻ¨
èıĬ èĬ±
ĠRad io
à¸² à¸
f rak
åľ¨ å°ı
Ġh int
ĠA D
ĠC H
ä¾Ľ è´§
å¤Ħ éķ¿
åķĨ åľĪ
ç¤¾ ç§ĳ
åĮħ åĽ´
Ġcom plain
åı¯èĥ½ åĩºçİ°
åįİ ä¸Ń
ĠIn vest
çº¢ åĮħ
åĨħå®¹ åĮħæĭ¬
åĪĩ åħ¥
èµ° å»Ĭ
çļ® å¸¦
Ġfe es
pr ise
Ġmat ters
ç¬¬ä¸ī æ¬¡
éľ² èĲ¥
é¡µ ç¬¬
ĠAl ternative
Ġgu ys
åħµ åĽ¢
å¤ļåħĥ åĮĸçļĦ
ĠIm plement
Ġconver gence
å¤¸ å¼ł
d ri
v ised
ë ¥
çļĦ çĲĨæĥ³
er ver
äºº é¡ŀ
æĹ¶ è®¸
ä¹Ł ç§°ä¸º
ä¿Ŀ è´¨
ä½ł å·²ç»ı
çī¹ è®¸
Ġcon vent
se ction
æ» ķ
åİŁ æłĩé¢ĺ
19 0
å±± ä¸Ĭ
å¸ĥ æľĹ
ä»Ĭ åĲİçļĦ
æ¹ ĥ
æĿ¿ å¼ı
éĵģ éģĵ
16 8
Ġdis pl
ç§» éĻ¤
ian o
è¯Ĭ æīĢ
èĢĲ ä¹ħ
Ġlight s
çĸı æķ£
Ġregular ly
Ġmechan ics
Ġafford able
èıł èıľ
" ).
m ond
r as
Ġ æĺ¯çļĦ
çļĦ æŃ£
çļĦ åı¯èĥ½
çļĦ å¥³
at ivity
åº Ĳ
Ġc odes
æľī ä¸įå°ĳ
an gh
Ġf ro
çĶ¨ åľ¨
ä¸ª é¡¹çĽ®
Ġth reshold
æı ī
èĩª æĿĢ
ä»ĸ æĽ¾
åº¦ é«ĺ
çĶµ éķĢ
è®¡ æĹ¶
æĪĳä»¬ åħ¬åı¸
æ´» åĬĽçļĦ
åĲį å®¶
ä½Ĩ ä»į
Ġas ks
éľĢè¦ģ æľī
ç¥ ł
å°ĳ åĲĥ
æľª è¢«
æīĵ å¥½
ĠV irgin
13 00
æľ¨ æĺŁ
Ġfe els
éĤ£ä¹Ī åľ¨
éĿĻ éĿĻ
Ġcur ves
çļĦå·¥ä½ľ äººåĳĺ
ĠLe vel
ä»¥ä¾¿ æĽ´å¥½åľ°
Ġsequ ences
Ġexplain ed
ĠInt roduction
ĠTw itter
Ġguaran tee
éŁĵ åľĭ
D et
M ed
b ot
y r
çļĦ åĪĨæŀĲ
çļĦ æĹ¶åĪ»
æĺ¯ åħ¨åĽ½
äºº è¡Į
ä¸į å¹³çŃī
Ġp ray
è¡Į éĶĢ
st ar
ç¨ ļ
ä¿Ŀ åĪ©
å¼Ģ åĩº
ä¹ĭ åĬĽ
åĢ ļ
çĥ Ľ
èµ· åĪĿ
ĠH or
äº§åĵģ åľ¨
æĸ¯ å¡Ķ
[...]
