{
  "version": "1.0",
  "truncation": null,
  "padding": null,
  "added_tokens": [
    {
      "id": 0,
      "content": "<|endoftext|>",
      "single_word": false,
      "lstrip": false,
      "rstrip": false,
      "normalized": false,
      "special": true
    },
    {
      "id": 1,
      "content": "<|im_start|>",
      "single_word": false,
      "lstrip": false,
      "rstrip": false,
      "normalized": false,
      "special": true
    },
    {
      "id": 2,
      "content": "<|im_end|>",
      "single_word": false,
      "lstrip": false,
      "rstrip": false,
      "normalized": false,
      "special": true
    }
  ],
  "normalizer": null,
  "pre_tokenizer": {
    "type": "ByteLevel",
    "add_prefix_space": false,
    "trim_offsets": true,
    "use_regex": true
  },
  "post_processor": null,
  "decoder": {
    "type": "ByteLevel",
    "add_prefix_space": true,
    "trim_offsets": true,
    "use_regex": true
  },
  "model": {
    "type": "BPE",
    "dropout": null,
    "unk_token": null,
    "continuing_subword_prefix": null,
    "end_of_word_suffix": null,
    "fuse_unk": false,
    "byte_fallback": false,
    "ignore_merges": false,
    "vocab": {
      "<|endoftext|>": 0,
      "<|im_start|>": 1,
      "<|im_end|>": 2,
      "!": 3,
      "\"": 4,
      "#": 5,
      "$": 6,
      "%": 7,
      "&": 8,
      "'": 9,
      "(": 10,
      ")": 11,
      "*": 12,
      "+": 13,
      ",": 14,
      "-": 15,
      ".": 16,
      "/": 17,
      "0": 18,
      "1": 19,
      "2": 20,
      "3": 21,
      "4": 22,
      "5": 23,
      "6": 24,
      "7": 25,
      "8": 26,
      "9": 27,
      ":": 28,
      ";": 29,
      "<": 30,
      "=": 31,
      ">": 32,
      "?": 33,
      "@": 34,
      "A": 35,
      "B": 36,
      "C": 37,
      "D": 38,
      "E": 39,
      "F": 40,
      "G": 41,
      "H": 42,
      "I": 43,
      "J": 44,
      "K": 45,
      "L": 46,
      "M": 47,
      "N": 48,
      "O": 49,
      "P": 50,
      "Q": 51,
      "R": 52,
      "S": 53,
      "T": 54,
      "U": 55,
      "V": 56,
      "W": 57,
      "X": 58,
      "Y": 59,
      "Z": 60,
      "[": 61,
      "\\": 62,
      "]": 63,
      "^": 64,
      "_": 65,
      "`": 66,
      "a": 67,
      "b": 68,
      "c": 69,
      "d": 70,
      "e": 71,
      "f": 72,
      "g": 73,
      "h": 74,
      "i": 75,
      "j": 76,
      "k": 77,
      "l": 78,
      "m": 79,
      "n": 80,
      "o": 81,
      "p": 82,
      "q": 83,
      "r": 84,
      "s": 85,
      "t": 86,
      "u": 87,
      "v": 88,
      "w": 89,
      "x": 90,
      "y": 91,
      "z": 92,
      "{": 93,
      "|": 94,
      "}": 95,
      "~": 96,
      "¡": 97,
      "¢": 98,
      "£": 99,
      "¤": 100,
      "¥": 101,
      "¦": 102,
      "§": 103,
      "¨": 104,
      "©": 105,
      "ª": 106,
      "«": 107,
      "¬": 108,
      "®": 109,
      "¯": 110,
      "°": 111,
      "±": 112,
      "²": 113,
      "³": 114,
      "´": 115,
      "µ": 116,
      "¶": 117,
      "·": 118,
      "¸": 119,
      "¹": 120,
      "º": 121,
      "»": 122,
      "¼": 123,
      "½": 124,
      "¾": 125,
      "¿": 126,
      "À": 127,
      "Á": 128,
      "Â": 129,
      "Ã": 130,
      "Ä": 131,
      "Å": 132,
      "Æ": 133,
      "Ç": 134,
      "È": 135,
      "É": 136,
      "Ê": 137,
      "Ë": 138,
      "Ì": 139,
      "Í": 140,
      "Î": 141,
      "Ï": 142,
      "Ð": 143,
      "Ñ": 144,
      "Ò": 145,
      "Ó": 146,
      "Ô": 147,
      "Õ": 148,
      "Ö": 149,
      "×": 150,
      "Ø": 151,
      "Ù": 152,
      "Ú": 153,
      "Û": 154,
      "Ü": 155,
      "Ý": 156,
      "Þ": 157,
      "ß": 158,
      "à": 159,
      "á": 160,
      "â": 161,
      "ã": 162,
      "ä": 163,
      "å": 164,
      "æ": 165,
      "ç": 166,
      "è": 167,
      "é": 168,
      "ê": 169,
      "ë": 170,
      "ì": 171,
      "í": 172,
      "î": 173,
      "ï": 174,
      "ð": 175,
      "ñ": 176,
      "ò": 177,
      "ó": 178,
      "ô": 179,
      "õ": 180,
      "ö": 181,
      "÷": 182,
      "ø": 183,
      "ù": 184,
      "ú": 185,
      "û": 186,
      "ü": 187,
      "ý": 188,
      "þ": 189,
      "ÿ": 190,
      "Ā": 191,
      "ā": 192,
      "Ă": 193,
      "ă": 194,
      "Ą": 195,
      "ą": 196,
      "Ć": 197,
      "ć": 198,
      "Ĉ": 199,
      "ĉ": 200,
      "Ċ": 201,
      "ċ": 202,
      "Č": 203,
      "č": 204,
      "Ď": 205,
      "ď": 206,
      "Đ": 207,
      "đ": 208,
      "Ē": 209,
      "ē": 210,
      "Ĕ": 211,
      "ĕ": 212,
      "Ė": 213,
      "ė": 214,
      "Ę": 215,
      "ę": 216,
      "Ě": 217,
      "ě": 218,
      "Ĝ": 219,
      "ĝ": 220,
      "Ğ": 221,
      "ğ": 222,
      "Ġ": 223,
      "ġ": 224,
      "Ģ": 225,
      "ģ": 226,
      "Ĥ": 227,
      "ĥ": 228,
      "Ħ": 229,
      "ħ": 230,
      "Ĩ": 231,
      "ĩ": 232,
      "Ī": 233,
      "ī": 234,
      "Ĭ": 235,
      "ĭ": 236,
      "Į": 237,
      "į": 238,
      "İ": 239,
      "ı": 240,
      "Ĳ": 241,
      "ĳ": 242,
      "Ĵ": 243,
      "ĵ": 244,
      "Ķ": 245,
      "ķ": 246,
      "ĸ": 247,
      "Ĺ": 248,
      "ĺ": 249,
      "Ļ": 250,
      "ļ": 251,
      "Ľ": 252,
      "ľ": 253,
      "Ŀ": 254,
      "ŀ": 255,
      "Ł": 256,
      "ł": 257,
      "Ń": 258,
      "ï¼": 259,
      "ä¸": 260,
      "ï¼Į": 261,
      "ãĢ": 262,
      "çļ": 263,
      "çļĦ": 264,
      "äº": 265,
      "ãĢĤ": 266,
      "åı": 267,
      "æľ": 268,
      "ä»": 269,
      "Ġt": 270,
      "åħ": 271,
      "Ġa": 272,
      "å¤": 273,
      "in": 274,
      "å®": 275,
      "åĪ": 276,
      "ä½": 277,
      "he": 278,
      "è¿": 279,
      "çĶ": 280,
      "åľ": 281,
      "ãĢģ": 282,
      "åĲ": 283,
      "åĬ": 284,
      "æĪ": 285,
      "æĺ": 286,
      "on": 287,
      "re": 288,
      "ç»": 289,
      "æĸ": 290,
      "er": 291,
      "ä¸Ģ": 292,
      "Ġthe": 293,
      "è¯": 294,
      "ä¹": 295,
      "è®": 296,
      "åĽ": 297,
      "âĢ": 298,
      "å¹": 299,
      "at": 300,
      "æĹ": 301,
      "ä¼": 302,
      "å°": 303,
      "Ġs": 304,
      "æĺ¯": 305,
      "åŃ": 306,
      "åĴ": 307,
      "åľ¨": 308,
      "or": 309,
      "åĴĮ": 310,
      "åº": 311,
      "å¸": 312,
      "æĿ": 313,
      "Ġc": 314,
      "åį": 315,
      "en": 316,
      "éĩ": 317,
      "å·": 318,
      "éĢ": 319,
      "æľī": 320,
      "åĮ": 321,
      "is": 322,
      "es": 323,
      "æķ": 324,
      "it": 325,
      "è¡": 326,
      "Ġw": 327,
      "an": 328,
      "Ġo": 329,
      "ĥ½": 330,
      "ĠĠ": 331,
      "å¼": 332,
      "äºº": 333,
      "ä¸Ń": 334,
      "al": 335,
      "æī": 336,
      "Ġf": 337,
      "ä»¥": 338,
      "åĩ": 339,
      "åĨ": 340,
      "å¯": 341,
      "èĢ": 342,
      "ä¸į": 343,
      "Ġp": 344,
      "çĽ": 345,
      "è§": 346,
      "å¾": 347,
      "ä¸º": 348,
      "æĬ": 349,
      "äºĨ": 350,
      "Ġan": 351,
      "ing": 352,
      "ou": 353,
      "Ġb": 354,
      "æł": 355,
      "ç§": 356,
      "æĢ": 357,
      "çİ": 358,
      "ar": 359,
      "çĶ¨": 360,
      "ed": 361,
      "çī": 362,
      "è´": 363,
      "èĥ½": 364,
      "å±": 365,
      "ä¸ª": 366,
      "Ġm": 367,
      "ion": 368,
      "Ġin": 369,
      "ï¼ļ": 370,
      "åı¯": 371,
      "Ġof": 372,
      "å¤§": 373,
      "le": 374,
      "ä¿": 375,
      "æ°": 376,
      "è¦": 377,
      "çĶŁ": 378,
      "çŃ": 379,
      "ic": 380,
      "éĹ": 381,
      "èµ": 382,
      "æĶ": 383,
      "Ġto": 384,
      "Ġd": 385,
      "éĻ": 386,
      "ä¸ļ": 387,
      "æ³": 388,
      "è¦ģ": 389,
      "å¥": 390,
      "å½": 391,
      "çĲ": 392,
      "å¹´": 393,
      "Ġand": 394,
      "æŃ": 395,
      "èĩ": 396,
      "æŀ": 397,
      "åŃ¦": 398,
      "æİ": 399,
      "éĿ": 400,
      "æĪĳ": 401,
      "å¿": 402,
      "æĹ¶": 403,
      "è¿Ļ": 404,
      "è¡Į": 405,
      "åİ": 406,
      "é¢": 407,
      "åĽ½": 408,
      "çº": 409,
      "åıĳ": 410,
      "ä¼ļ": 411,
      "æµ": 412,
      "åĵ": 413,
      "ä¸Ĭ": 414,
      "om": 415,
      "åĳ": 416,
      "**": 417,
      "as": 418,
      "ä½ľ": 419,
      "å·¥": 420,
      "æĪĲ": 421,
      "âĢľ": 422,
      "âĢĿ": 423,
      "äºİ": 424,
      "å¯¹": 425,
      "æĿ¥": 426,
      "æĭ": 427,
      "åĪ°": 428,
      "20": 429,
      "çĲĨ": 430,
      "ä¾": 431,
      "æĮ": 432,
      "è¾": 433,
      "æ¯": 434,
      "åŁ": 435,
      "ä»¬": 436,
      "ct": 437,
      "åľ°": 438,
      "å¦": 439,
      "è½": 440,
      "æĸ¹": 441,
      "åĩº": 442,
      "æ²": 443,
      "æĥ": 444,
      "çŃī": 445,
      "æĦ": 446,
      "Ġth": 447,
      "åĪĨ": 448,
      "æı": 449,
      "ent": 450,
      "Ġh": 451,
      "ç®": 452,
      "ro": 453,
      "Ġn": 454,
      "æ±": 455,
      "é«": 456,
      "åĬ¨": 457,
      "st": 458,
      "Ġe": 459,
      "å¤ļ": 460,
      "ç«": 461,
      "é«ĺ": 462,
      "åĮĸ": 463,
      "åħ¬": 464,
      "et": 465,
      "å®¶": 466,
      "è¿ĩ": 467,
      "æ¸": 468,
      "ä¸ĭ": 469,
      "éĺ": 470,
      "æĽ": 471,
      "Ġl": 472,
      "Ġre": 473,
      "åī": 474,
      "è¿Ľ": 475,
      "å¦Ĥ": 476,
      "èĩª": 477,
      "il": 478,
      "Ġis": 479,
      "ç¨": 480,
      "çľ": 481,
      "æ´": 482,
      "äº§": 483,
      "æĸ°": 484,
      "ve": 485,
      "æĢ§": 486,
      "ä½ĵ": 487,
      "çİ°": 488,
      "ä¸İ": 489,
      "æį": 490,
      "æľº": 491,
      "åĬĽ": 492,
      "ç½": 493,
      "éģ": 494,
      "åĲĮ": 495,
      "æıĲ": 496,
      "æĻ": 497,
      "åĲĪ": 498,
      "å®ļ": 499,
      "æķ°": 500,
      "ï¼ī": 501,
      "ï¼Ī": 502,
      "å»": 503,
      "åħ¨": 504,
      "æ³ķ": 505,
      "åı¯ä»¥": 506,
      "éĿ¢": 507,
      "åĵģ": 508,
      "å®ŀ": 509,
      "éĢļ": 510,
      "èĤ": 511,
      "æ¬": 512,
      "ç»ı": 513,
      "ĠT": 514,
      "å¸Ĥ": 515,
      "ä»ĸ": 516,
      "çĤ": 517,
      "æĹ¥": 518,
      "éĥ": 519,
      "åº¦": 520,
      "im": 521,
      "ä¹Ł": 522,
      "ra": 523,
      "éķ": 524,
      "åĬł": 525,
      "åģ": 526,
      "æĸĩ": 527,
      "ut": 528,
      "åĲİ": 529,
      "åħ¶": 530,
      "é¡": 531,
      "Ġy": 532,
      "ä¿Ŀ": 533,
      "æľ¬": 534,
      "ly": 535,
      "ĠI": 536,
      "åħ³": 537,
      "é£": 538,
      "éľ": 539,
      "Ġg": 540,
      "ç¤": 541,
      "ot": 542,
      "è®¾": 543,
      "åºĶ": 544,
      "Ġ1": 545,
      "å¥½": 546,
      "ĠS": 547,
      "èī": 548,
      "å»º": 549,
      "å¼Ģ": 550,
      "å¢": 551,
      "ol": 552,
      "éĩı": 553,
      "éĥ¨": 554,
      "ation": 555,
      "éĩį": 556,
      "æĽ´": 557,
      "è¶": 558,
      "å±ķ": 559,
      "Ġfor": 560,
      "çĶµ": 561,
      "ä¹ĭ": 562,
      "ce": 563,
      "åĬ¡": 564,
      "èĢĮ": 565,
      "ä¸»": 566,
      "éĽ": 567,
      "çī©": 568,
      "ow": 569,
      "ç³": 570,
      "åıĬ": 571,
      "æľĪ": 572,
      "id": 573,
      "us": 574,
      "å°ı": 575,
      "ig": 576,
      "å°Ĩ": 577,
      "åŃĲ": 578,
      "èģ": 579,
      "00": 580,
      "ĠA": 581,
      "æĬĢ": 582,
      "åĪ¶": 583,
      "èĢħ": 584,
      "çŁ": 585,
      "æĪĸ": 586,
      "è·": 587,
      "ç¬": 588,
      "ç¨ĭ": 589,
      "è°": 590,
      "åĢ": 591,
      "æľĢ": 592,
      "ä½¿": 593,
      "éĹ´": 594,
      "ĠC": 595,
      "å¾Ĺ": 596,
      "el": 597,
      "å¿ĥ": 598,
      "ä¸Ģä¸ª": 599,
      "å°±": 600,
      "ur": 601,
      "ch": 602,
      "è®¡": 603,
      "ç±": 604,
      "æ°´": 605,
      "am": 606,
      "æīĢ": 607,
      "ç¾": 608,
      "Ġyou": 609,
      "ç§į": 610,
      "åĨħ": 611,
      "çł": 612,
      "éķ¿": 613,
      "å¹¶": 614,
      "ç¡": 615,
      "éľĢ": 616,
      "ä½ł": 617,
      "éļ": 618,
      "æį®": 619,
      "ĠĠĠĠ": 620,
      "Ġ(": 621,
      "äºĽ": 622,
      "åīį": 623,
      "çĽ®": 624,
      "åľº": 625,
      "æľ¯": 626,
      "èµĦ": 627,
      "un": 628,
      "åĿ": 629,
      "æĥħ": 630,
      "Ġon": 631,
      "ç³»": 632,
      "ç©": 633,
      "è¡¨": 634,
      "æĪĳä»¬": 635,
      "æ¶": 636,
      "çĦ": 637,
      "çĻ": 638,
      "åĽł": 639,
      "æŁ": 640,
      "ul": 641,
      "éĶ": 642,
      "Ġ**": 643,
      "åħ¥": 644,
      "èĬ": 645,
      "ver": 646,
      "um": 647,
      "Ġbe": 648,
      "çĿ": 649,
      "æŀľ": 650,
      "åĮº": 651,
      "éĥ½": 652,
      "çĽ¸": 653,
      "ç®¡": 654,
      "è§£": 655,
      "å¼ı": 656,
      "å¤©": 657,
      "Ġst": 658,
      "çķ": 659,
      "ä¿¡": 660,
      "å¸¸": 661,
      "ç´": 662,
      "çĤ¹": 663,
      "ith": 664,
      "æģ": 665,
      "åı¸": 666,
      "æĤ": 667,
      "äºĭ": 668,
      "çĸ": 669,
      "éħ": 670,
      "ä½į": 671,
      "æľŁ": 672,
      "å¤ĸ": 673,
      "ay": 674,
      "æĦı": 675,
      "é¢ĺ": 676,
      "if": 677,
      "Ġthat": 678,
      "æ¯Ķ": 679,
      "èĲ": 680,
      "å¹³": 681,
      "çī¹": 682,
      "å§": 683,
      "æ´»": 684,
      "å®ī": 685,
      "æķĻ": 686,
      "æĺİ": 687,
      "åħ¬åı¸": 688,
      "çĦ¶": 689,
      "çĥ": 690,
      "åĲį": 691,
      "Ġ=": 692,
      "ĠM": 693,
      "åĳĺ": 694,
      "å½ĵ": 695,
      "ä»İ": 696,
      "Ġ\\": 697,
      "201": 698,
      "ä»£": 699,
      "Ġwith": 700,
      "åŀ": 701,
      "ĠP": 702,
      "éĹ®": 703,
      "ç§ĳ": 704,
      "æŃ¤": 705,
      "ir": 706,
      "è´¨": 707,
      "é¦": 708,
      "è¿ĺ": 709,
      "ç½ĳ": 710,
      "æĮģ": 711,
      "æ·": 712,
      "ad": 713,
      "ï¼Ľ": 714,
      "åĪ©": 715,
      "ç¾İ": 716,
      "éĩĳ": 717,
      "ä½Ĩ": 718,
      "ä¸ī": 719,
      "ç¬¬": 720,
      "éģĵ": 721,
      "qu": 722,
      "æľį": 723,
      "åħ·": 724,
      "ç¼": 725,
      "çĹ": 726,
      "Ġcon": 727,
      "od": 728,
      "Ġpro": 729,
      "æ¡": 730,
      "æĦŁ": 731,
      "åŁº": 732,
      "æłĩ": 733,
      "ers": 734,
      "çĿĢ": 735,
      "ä»¶": 736,
      "Ġit": 737,
      "ä¾Ľ": 738,
      "Ġas": 739,
      "ge": 740,
      "åķ": 741,
      "ç»Ł": 742,
      "å·¥ä½ľ": 743,
      "Ġ$": 744,
      "ï¼Ł": 745,
      "è¯´": 746,
      "æĬĢæľ¯": 747,
      "ãĢĭ": 748,
      "ate": 749,
      "èĪ": 750,
      "è½¦": 751,
      "se": 752,
      "éĤ": 753,
      "æº": 754,
      "ãĢĬ": 755,
      "æ¬¡": 756,
      "ç²": 757,
      "ä½¿çĶ¨": 758,
      "å¾Ī": 759,
      "åıĳå±ķ": 760,
      "ç±»": 761,
      "æ±Ĥ": 762,
      "åħĥ": 763,
      "èĭ": 764,
      "ç»ĵ": 765,
      "æŃ£": 766,
      "éĵ": 767,
      "ç¡®": 768,
      "å½±": 769,
      "éª": 770,
      "æĹł": 771,
      "è¢": 772,
      "ä¼ģ": 773,
      "è¿Ľè¡Į": 774,
      "åĪĽ": 775,
      "èµ·": 776,
      "é¡¹": 777,
      "##": 778,
      "ä¸ĵ": 779,
      "äº¤": 780,
      "Ġal": 781,
      "å¤Ħ": 782,
      "th": 783,
      "ist": 784,
      "ĠB": 785,
      "éľĢè¦ģ": 786,
      "æĶ¿": 787,
      "åŀĭ": 788,
      "æ°Ķ": 789,
      "è§Ħ": 790,
      "æķĪ": 791,
      "çİ¯": 792,
      "æİ¥": 793,
      "é£İ": 794,
      "ç¥": 795,
      "çģ": 796,
      "éĩĮ": 797,
      "Ġare": 798,
      "Ġ-": 799,
      "éĴ": 800,
      "èį": 801,
      "ä»»": 802,
      "åĲĦ": 803,
      "å¼º": 804,
      "åĻ": 805,
      "ab": 806,
      "èī²": 807,
      "å£": 808,
      "ri": 809,
      "æ°ĳ": 810,
      "çĶ±": 811,
      "ä¼ģä¸ļ": 812,
      "æµģ": 813,
      "ter": 814,
      "æīĭ": 815,
      "èĥ": 816,
      "her": 817,
      "è¿Ĳ": 818,
      "Ġor": 819,
      "æĪ·": 820,
      "ä¸ŃåĽ½": 821,
      "ĠThe": 822,
      "åıĺ": 823,
      "è£": 824,
      "å¢ŀ": 825,
      "pp": 826,
      "åįķ": 827,
      "ç»Ħ": 828,
      "est": 829,
      "Ġwh": 830,
      "åĬ©": 831,
      "åĻ¨": 832,
      "æ»": 833,
      "å®ĥ": 834,
      "è¢«": 835,
      "çĪ": 836,
      "çłĶ": 837,
      "åĸ": 838,
      "éĢī": 839,
      "åķĨ": 840,
      "ä¹Ī": 841,
      "çľĭ": 842,
      "éĢł": 843,
      "æł¼": 844,
      "ç¤¾": 845,
      "å¯¼": 846,
      "åĮħ": 847,
      "Ġv": 848,
      "éĢļè¿ĩ": 849,
      "Ġcom": 850,
      "å¤ĩ": 851,
      "ç¤º": 852,
      "çŁ¥": 853,
      "æ¨": 854,
      "Ġex": 855,
      "åıĹ": 856,
      "em": 857,
      "Ġ2": 858,
      "ĠĠĠ": 859,
      "æºĲ": 860,
      "æľįåĬ¡": 861,
      "ç«ĭ": 862,
      "ĠF": 863,
      "**ï¼ļ": 864,
      "and": 865,
      "ĠH": 866,
      "èº": 867,
      "ĠD": 868,
      "æģ¯": 869,
      "ke": 870,
      "èĢĥ": 871,
      "éĹ®é¢ĺ": 872,
      "æıĲä¾Ľ": 873,
      "Ġ\"": 874,
      "çĲĥ": 875,
      "æĸĻ": 876,
      "è·¯": 877,
      "ä¼ł": 878,
      "çº¿": 879,
      "res": 880,
      "æĢ»": 881,
      "åİŁ": 882,
      "ĠW": 883,
      "åĲĳ": 884,
      "æĥ³": 885,
      "éĻ¢": 886,
      "å·²": 887,
      "Ġwe": 888,
      "æĶ¶": 889,
      "æµ·": 890,
      "è°ĥ": 891,
      "igh": 892,
      "æ¯ı": 893,
      "éĽĨ": 894,
      "åı¯èĥ½": 895,
      "åĮ»": 896,
      "ac": 897,
      "ç¦": 898,
      "ill": 899,
      "æł·": 900,
      "èº«": 901,
      "ä¹ł": 902,
      "æĬ¥": 903,
      "è®©": 904,
      "ĠR": 905,
      "å°ĳ": 906,
      "10": 907,
      "ä»·": 908,
      "ç®¡çĲĨ": 909,
      "æ£": 910,
      "ä¼ĺ": 911,
      "èĻ": 912,
      "åıĸ": 913,
      "ity": 914,
      "èĩ³": 915,
      "æ¸¸": 916,
      "è¾¾": 917,
      "ess": 918,
      "æ®": 919,
      "te": 920,
      "æĻº": 921,
      "rom": 922,
      "å½¢": 923,
      "pe": 924,
      "æķ°æį®": 925,
      "èİ": 926,
      "Ġat": 927,
      "åİ»": 928,
      "ment": 929,
      "äºĮ": 930,
      "æ³¨": 931,
      "å·±": 932,
      "åĩĨ": 933,
      "æİ¨": 934,
      "os": 935,
      "é©": 936,
      "åģļ": 937,
      "éĹ¨": 938,
      "èĦ": 939,
      "åı°": 940,
      "Ġde": 941,
      "ä¸¤": 942,
      "ĠL": 943,
      "æķ´": 944,
      "çº§": 945,
      "é¢Ĩ": 946,
      "``": 947,
      "åħ±": 948,
      "è¯¥": 949,
      "èĩªå·±": 950,
      "åĪ«": 951,
      "ç»Ļ": 952,
      "è¥": 953,
      "å¹¿": 954,
      "äº§åĵģ": 955,
      "èĮ": 956,
      "ĠE": 957,
      "ore": 958,
      "èĬĤ": 959,
      "éĿŀ": 960,
      "èģĶ": 961,
      "Ġus": 962,
      "èĤ²": 963,
      "æĤ¨": 964,
      "oun": 965,
      "ive": 966,
      "æĮĩ": 967,
      "åħĪ": 968,
      "æŀĦ": 969,
      "ction": 970,
      "Ġr": 971,
      "æĹ¶éĹ´": 972,
      "è¥¿": 973,
      "æ²¡": 974,
      "æĶ¹": 975,
      "åĨ³": 976,
      "æŃ¥": 977,
      "å¢ĥ": 978,
      "å®¢": 979,
      "åŁİ": 980,
      "ä¾ĭ": 981,
      "æ¨¡": 982,
      "å®Į": 983,
      "å®¹": 984,
      "æĶ¾": 985,
      "åı£": 986,
      "æ¼": 987,
      "è®¤": 988,
      "ld": 989,
      "å¸Ī": 990,
      "èĲ¥": 991,
      "çĹħ": 992,
      "åıĤ": 993,
      "æ²»": 994,
      "çİĩ": 995,
      "Ġhe": 996,
      "éŁ": 997,
      "ä¸ĩ": 998,
      "è¯ģ": 999,
      "è¯·": 1000,
      "ç®Ĺ": 1001,
      "Ġby": 1002,
      "åĽŀ": 1003,
      "iv": 1004,
      "æł¡": 1005,
      "Ġcan": 1006,
      "Ġne": 1007,
      "Ġse": 1008,
      "éªĮ": 1009,
      "éĤ£": 1010,
      "è¯Ń": 1011,
      "ain": 1012,
      "ant": 1013,
      "é»": 1014,
      "åįĹ": 1015,
      "--": 1016,
      "ĠN": 1017,
      "ç©º": 1018,
      "lo": 1019,
      "è´¹": 1020,
      "æĶ¯": 1021,
      "çĽ´": 1022,
      "è¯ķ": 1023,
      "æ·±": 1024,
      "åıª": 1025,
      "å¤į": 1026,
      "åĽ¢": 1027,
      "è§Ĩ": 1028,
      "è®®": 1029,
      "ĠG": 1030,
      "é£Ł": 1031,
      "pt": 1032,
      "19": 1033,
      "åŃĹ": 1034,
      "ä½ķ": 1035,
      "æł¹": 1036,
      "âĢĻ": 1037,
      "æĬķ": 1038,
      "åĵį": 1039,
      "æĸ½": 1040,
      "ort": 1041,
      "æĬ¤": 1042,
      "å¸¦": 1043,
      "ä¸ĸ": 1044,
      "å±±": 1045,
      "åĶ": 1046,
      "Ġsu": 1047,
      "Ġha": 1048,
      "éĢĤ": 1049,
      "è§Ĥ": 1050,
      "åħī": 1051,
      "è¾ĥ": 1052,
      "ple": 1053,
      "åįģ": 1054,
      "åĮĹ": 1055,
      "è£ħ": 1056,
      "å¸ĥ": 1057,
      "Ġ3": 1058,
      "å¸Ĥåľº": 1059,
      "art": 1060,
      "ight": 1061,
      "è±": 1062,
      "éĺ²": 1063,
      "åĬŁ": 1064,
      "é¥": 1065,
      "ç³»ç»Ł": 1066,
      "å¦Ĥæŀľ": 1067,
      "çľģ": 1068,
      "è¯Ĩ": 1069,
      "ä¸ľ": 1070,
      "Ġthis": 1071,
      "çĥŃ": 1072,
      "æŁ¥": 1073,
      "éĢŁ": 1074,
      "åĢ¼": 1075,
      "ä¿¡æģ¯": 1076,
      "ç©¶": 1077,
      "ç²¾": 1078,
      "æľª": 1079,
      "éĺŁ": 1080,
      "è®°": 1081,
      "çķĮ": 1082,
      "æĿ¡": 1083,
      "çĻ½": 1084,
      "çħ": 1085,
      "è¿ĳ": 1086,
      "ä¹¦": 1087,
      "åŁŁ": 1088,
      "ren": 1089,
      "æµĭ": 1090,
      "æ¶Ī": 1091,
      "Ġfrom": 1092,
      "çĬ": 1093,
      "éĻħ": 1094,
      "ies": 1095,
      "åŃ¦ä¹ł": 1096,
      "ç´ł": 1097,
      "ç»Ń": 1098,
      "æĻºèĥ½": 1099,
      "å²": 1100,
      "åŃĺ": 1101,
      "ä¸ĢäºĽ": 1102,
      "end": 1103,
      "æ¡Ī": 1104,
      "pl": 1105,
      "éĻĲ": 1106,
      "è¨": 1107,
      "å¿«": 1108,
      "Ġch": 1109,
      "æĢģ": 1110,
      "æ¸ħ": 1111,
      "æİ§": 1112,
      "è¿Ļä¸ª": 1113,
      "è½¬": 1114,
      "å¼ķ": 1115,
      "ine": 1116,
      "ial": 1117,
      "çĸĹ": 1118,
      "ure": 1119,
      "åĪĹ": 1120,
      "æ²¡æľī": 1121,
      "ä¹Ĳ": 1122,
      "æīĵ": 1123,
      "åĨµ": 1124,
      "Ġnot": 1125,
      "ä½İ": 1126,
      "ä»ĸä»¬": 1127,
      "å®īåħ¨": 1128,
      "all": 1129,
      "å¸®": 1130,
      "å½±åĵį": 1131,
      "çłĶç©¶": 1132,
      "é¢Ħ": 1133,
      "per": 1134,
      "æĪĺ": 1135,
      "ĠO": 1136,
      "ç«Ļ": 1137,
      "oc": 1138,
      "æĺĵ": 1139,
      "æ¢": 1140,
      "é¡¹çĽ®": 1141,
      "æĿĲ": 1142,
      "é¦ĸ": 1143,
      "è®¾è®¡": 1144,
      "èµĽ": 1145,
      "åģ¥": 1146,
      "åįĩ": 1147,
      "éĩįè¦ģ": 1148,
      "ä»Ĭ": 1149,
      "çĭ": 1150,
      "Ġwas": 1151,
      "200": 1152,
      "è®º": 1153,
      "åĬŀ": 1154,
      "è¿ĻäºĽ": 1155,
      "æĸŃ": 1156,
      "'s": 1157,
      "ust": 1158,
      "åĳĬ": 1159,
      "èĢģ": 1160,
      "ç§¯": 1161,
      "ä¸įåĲĮ": 1162,
      "éĩĩ": 1163,
      "åĽĽ": 1164,
      "éħį": 1165,
      "åĪĴ": 1166,
      "ä¸ŃçļĦ": 1167,
      "åĪĻ": 1168,
      "Ġsh": 1169,
      "çİ¯å¢ĥ": 1170,
      "Ġhave": 1171,
      "çĶŁæ´»": 1172,
      "æ¸©": 1173,
      "æİĴ": 1174,
      "åıį": 1175,
      "æĸ¯": 1176,
      "ag": 1177,
      "çľŁ": 1178,
      "å¥½çļĦ": 1179,
      "å§ĭ": 1180,
      "åĲĮæĹ¶": 1181,
      "ç»´": 1182,
      "Ġyour": 1183,
      "int": 1184,
      "éŁ³": 1185,
      "è¶Ĭ": 1186,
      "Ġun": 1187,
      "æĿĥ": 1188,
      "å¤Ł": 1189,
      "æĻ¯": 1190,
      "è§ģ": 1191,
      "ud": 1192,
      "age": 1193,
      "èĩ´": 1194,
      "æ®µ": 1195,
      "The": 1196,
      "åºĶçĶ¨": 1197,
      "Ġle": 1198,
      "æīį": 1199,
      "æĭ¬": 1200,
      "ĊĠĠĠ": 1201,
      "èİ·": 1202,
      "ç¤¾ä¼ļ": 1203,
      "fe": 1204,
      "æķĻèĤ²": 1205,
      "ä»¥åıĬ": 1206,
      "æŀģ": 1207,
      "å±Ģ": 1208,
      "ç¥ŀ": 1209,
      "our": 1210,
      "åı·": 1211,
      "åĽ½å®¶": 1212,
      "æĸ¹éĿ¢": 1213,
      "å¤´": 1214,
      "ç½®": 1215,
      "æĺ¯ä¸Ģ": 1216,
      "ä¸»è¦ģ": 1217,
      "åįİ": 1218,
      "åº·": 1219,
      "ï¼ģ": 1220,
      "ä»Ģ": 1221,
      "ä¸Ķ": 1222,
      "èı": 1223,
      "oo": 1224,
      "åİĭ": 1225,
      "æĭ©": 1226,
      "æ´»åĬ¨": 1227,
      "å¤ĦçĲĨ": 1228,
      "çĶŁäº§": 1229,
      "çŃĸ": 1230,
      "åĮħæĭ¬": 1231,
      "æł¹æį®": 1232,
      "åĨį": 1233,
      "è¶³": 1234,
      "åİĨ": 1235,
      "åĩı": 1236,
      "ical": 1237,
      "æµİ": 1238,
      "ult": 1239,
      "éĶĢ": 1240,
      "æ£Ģ": 1241,
      "ard": 1242,
      "å¡": 1243,
      "çº¦": 1244,
      "èģĮ": 1245,
      "çīĩ": 1246,
      "ber": 1247,
      "ä»¥ä¸ĭ": 1248,
      "ide": 1249,
      "éĢīæĭ©": 1250,
      "æĸĩåĮĸ": 1251,
      "è¯Ŀ": 1252,
      "12": 1253,
      "ĠJ": 1254,
      "æıĲé«ĺ": 1255,
      "èĬ±": 1256,
      "åĽ¾": 1257,
      "ä»Ģä¹Ī": 1258,
      "ould": 1259,
      "åĭ": 1260,
      "âĢĶ": 1261,
      "çı": 1262,
      "ome": 1263,
      "æĥħåĨµ": 1264,
      "å·ŀ": 1265,
      "ich": 1266,
      "æĳ": 1267,
      "ue": 1268,
      "ind": 1269,
      "å¸®åĬ©": 1270,
      "éļı": 1271,
      "è¶ħ": 1272,
      "æĺ¾": 1273,
      "ç§°": 1274,
      "è¯Ħ": 1275,
      "çĪ±": 1276,
      "éĻ¤": 1277,
      "ä¸ĵä¸ļ": 1278,
      "åħ»": 1279,
      "ost": 1280,
      "æĪ¿": 1281,
      "è´£": 1282,
      "ç±³": 1283,
      "åĳ¨": 1284,
      "iz": 1285,
      "ç»Ĩ": 1286,
      "æĹħ": 1287,
      "æĸ¹å¼ı": 1288,
      "Ġk": 1289,
      "æ¹": 1290,
      "è¡Įä¸ļ": 1291,
      "åĩł": 1292,
      "out": 1293,
      "ĠIn": 1294,
      "èĳ": 1295,
      "çĬ¶": 1296,
      "ä¾¿": 1297,
      "æĢĿ": 1298,
      "èŀ": 1299,
      "èīº": 1300,
      "è¨Ģ": 1301,
      "Ġwor": 1302,
      "ä¹ī": 1303,
      "å¾·": 1304,
      "red": 1305,
      "çīĮ": 1306,
      "æ»¡": 1307,
      "èĮĥ": 1308,
      "ie": 1309,
      "ç»ıæµİ": 1310,
      "åį³": 1311,
      "éĻ©": 1312,
      "..": 1313,
      "æĵ": 1314,
      "æĴ": 1315,
      "å»ºè®¾": 1316,
      "Ġ4": 1317,
      "çª": 1318,
      "åħĭ": 1319,
      "åŃ¦çĶŁ": 1320,
      "å§Ķ": 1321,
      "è±¡": 1322,
      "orm": 1323,
      "æ¼Ķ": 1324,
      "Ġpl": 1325,
      "å¿ħ": 1326,
      "og": 1327,
      "Ġ+": 1328,
      "éļ¾": 1329,
      "Ġab": 1330,
      "å¥³": 1331,
      "ĊĠĠĠĠ": 1332,
      "ä»ħ": 1333,
      "çĮ": 1334,
      "åħ¶ä»ĸ": 1335,
      "èĥ½åĬĽ": 1336,
      "çĽ¸åħ³": 1337,
      "åĥ": 1338,
      "çħ§": 1339,
      "å®ŀçİ°": 1340,
      "åįı": 1341,
      "ĠU": 1342,
      "è®¾å¤ĩ": 1343,
      "éĿŀå¸¸": 1344,
      "åħį": 1345,
      "æĲ": 1346,
      "çĽĳ": 1347,
      "act": 1348,
      "è®¸": 1349,
      "èħ": 1350,
      "Ġwill": 1351,
      "åĬ¿": 1352,
      "able": 1353,
      "æħ": 1354,
      "ak": 1355,
      "èĥ½å¤Ł": 1356,
      "æļ": 1357,
      "Ġme": 1358,
      "åĽłä¸º": 1359,
      "éĻį": 1360,
      "Ġ5": 1361,
      "æĺŁ": 1362,
      "ä»½": 1363,
      "ime": 1364,
      "æŀĲ": 1365,
      "å£«": 1366,
      "äºĶ": 1367,
      "çĶ¨æĪ·": 1368,
      "ions": 1369,
      "æĬĬ": 1370,
      "11": 1371,
      "ä¼Ĺ": 1372,
      "å·¥ç¨ĭ": 1373,
      "ans": 1374,
      "è¾ĵ": 1375,
      "éħĴ": 1376,
      "ç¢": 1377,
      "äº¬": 1378,
      "ast": 1379,
      "up": 1380,
      "è¦ģæ±Ĥ": 1381,
      "åĨĻ": 1382,
      "å¤ª": 1383,
      "æĸ¹æ³ķ": 1384,
      "åĳ½": 1385,
      "åºĹ": 1386,
      "Ġall": 1387,
      "èĭ±": 1388,
      "æĪĲä¸º": 1389,
      "ame": 1390,
      "ç¦»": 1391,
      "è§Ĵ": 1392,
      "Ġwhe": 1393,
      "ks": 1394,
      "ä¿®": 1395,
      "Ġ0": 1396,
      "Ġen": 1397,
      "åģ¥åº·": 1398,
      "èĤ¡": 1399,
      "æľĽ": 1400,
      "å°Ķ": 1401,
      "å¹²": 1402,
      "ated": 1403,
      "æ²¹": 1404,
      "å¥¹": 1405,
      "äºĴ": 1406,
      "åħ·æľī": 1407,
      "å°±æĺ¯": 1408,
      "ä¸ĸçķĮ": 1409,
      "åºı": 1410,
      "ç®Ģ": 1411,
      "âĢĿï¼Į": 1412,
      "gh": 1413,
      "ach": 1414,
      "åºľ": 1415,
      "ell": 1416,
      "çļĦäºº": 1417,
      "èŀį": 1418,
      "å±Ĥ": 1419,
      "æ¬¾": 1420,
      "åĿĩ": 1421,
      "è´¨éĩı": 1422,
      "xt": 1423,
      "å±ŀ": 1424,
      "ass": 1425,
      "æŀĹ": 1426,
      "Ġim": 1427,
      "Ġdo": 1428,
      "du": 1429,
      "è¿ĩç¨ĭ": 1430,
      "ice": 1431,
      "é¢ĨåŁŁ": 1432,
      "è¿ŀ": 1433,
      "ib": 1434,
      "ç¼ĸ": 1435,
      "Ġnum": 1436,
      "åĪĨæŀĲ": 1437,
      "åĨľ": 1438,
      "åħħ": 1439,
      "åĥı": 1440,
      "ãĢĤâĢĿ": 1441,
      "Ġad": 1442,
      "ĠTh": 1443,
      "ase": 1444,
      "der": 1445,
      "```": 1446,
      "Ġj": 1447,
      "åĢĻ": 1448,
      "15": 1449,
      "ations": 1450,
      "Ġar": 1451,
      "åĽłæŃ¤": 1452,
      "$$": 1453,
      "è´Ł": 1454,
      "å·²ç»ı": 1455,
      "Ġres": 1456,
      "å¼ł": 1457,
      "rac": 1458,
      "åĽŃ": 1459,
      "åıĪ": 1460,
      "å¯¹äºİ": 1461,
      "ä½ľä¸º": 1462,
      "æĿ¿": 1463,
      "èį¯": 1464,
      "åĦ": 1465,
      "åĶ®": 1466,
      "è¿°": 1467,
      "ite": 1468,
      "æĮī": 1469,
      "ry": 1470,
      "äº¿": 1471,
      "èĩªå·±çļĦ": 1472,
      "30": 1473,
      "ound": 1474,
      "é©¬": 1475,
      "ther": 1476,
      "ip": 1477,
      "åıĭ": 1478,
      "ç»ĩ": 1479,
      "ear": 1480,
      "Ġqu": 1481,
      "cl": 1482,
      "Âł": 1483,
      "å¦Ĥä½ķ": 1484,
      "èĲ½": 1485,
      "æĬķèµĦ": 1486,
      "æ±Ł": 1487,
      "å¾ĭ": 1488,
      "åĽ´": 1489,
      "æł¸": 1490,
      "åĲ«": 1491,
      "åı²": 1492,
      "å®¤": 1493,
      "å¤±": 1494,
      "ary": 1495,
      "çĽĬ": 1496,
      "é¾": 1497,
      "ç«ł": 1498,
      "ä¸ªäºº": 1499,
      "Ġwhich": 1500,
      "å¤§çļĦ": 1501,
      "Ġcomp": 1502,
      "çº¢": 1503,
      "ep": 1504,
      "ç§ĳæĬĢ": 1505,
      "Ġhas": 1506,
      "äºĨè§£": 1507,
      "åŁİå¸Ĥ": 1508,
      "ap": 1509,
      "åł": 1510,
      "ong": 1511,
      "æķħ": 1512,
      "ĊĠĠ": 1513,
      "éĥ¨åĪĨ": 1514,
      "åĨħå®¹": 1515,
      "è´Ń": 1516,
      "å¨": 1517,
      "è®¡ç®Ĺ": 1518,
      "ack": 1519,
      "æĭī": 1520,
      "å¾Ģ": 1521,
      "to": 1522,
      "åŁ¹": 1523,
      "å¯Ĩ": 1524,
      "çģ«": 1525,
      "äººåĳĺ": 1526,
      "éĺ³": 1527,
      "ä¾Ŀ": 1528,
      "æī¿": 1529,
      "è§ī": 1530,
      "ath": 1531,
      "çļĦä¸Ģ": 1532,
      "å¾®": 1533,
      "ub": 1534,
      "ä¸Ńå¿ĥ": 1535,
      "èµĦæºĲ": 1536,
      "cc": 1537,
      "è½»": 1538,
      "Ġbut": 1539,
      "æī¾": 1540,
      "å¼Ģå§ĭ": 1541,
      "Ġapp": 1542,
      "ance": 1543,
      "çŁ³": 1544,
      "æĶ¿åºľ": 1545,
      "ence": 1546,
      "###": 1547,
      "åĲ¦": 1548,
      "ä½ı": 1549,
      "ough": 1550,
      "ç»Ī": 1551,
      "åĳ³": 1552,
      "ph": 1553,
      "äººå·¥": 1554,
      "çİĭ": 1555,
      "one": 1556,
      "äºļ": 1557,
      "å¿µ": 1558,
      "åĦ¿": 1559,
      "Ġif": 1560,
      "Ġcont": 1561,
      "æĿĳ": 1562,
      "so": 1563,
      "å¯Į": 1564,
      "åĪĽæĸ°": 1565,
      "ign": 1566,
      "åĲĪä½ľ": 1567,
      "Ġcl": 1568,
      "éľĢæ±Ĥ": 1569,
      "è®Ń": 1570,
      "åŃ£": 1571,
      "ä¸¥": 1572,
      "ang": 1573,
      "ile": 1574,
      "av": 1575,
      "åĽ½éĻħ": 1576,
      "è§£åĨ³": 1577,
      "æĤ£": 1578,
      "åĸĦ": 1579,
      "ç¯": 1580,
      "ç»ľ": 1581,
      "ä¿ĿæĬ¤": 1582,
      "ace": 1583,
      "æ¬¢": 1584,
      "åĪĩ": 1585,
      "æĪı": 1586,
      "çłģ": 1587,
      "ç¬¬ä¸Ģ": 1588,
      "äº§ä¸ļ": 1589,
      "ç¿": 1590,
      "åħ¶ä¸Ń": 1591,
      "ĠK": 1592,
      "form": 1593,
      "Ġ|": 1594,
      "è¡¨ç¤º": 1595,
      "ç¡®ä¿Ŀ": 1596,
      "æľªæĿ¥": 1597,
      "000": 1598,
      "ous": 1599,
      "èµ°": 1600,
      "åĸľ": 1601,
      "è¯»": 1602,
      "ike": 1603,
      "ä¾ĭå¦Ĥ": 1604,
      "çĻ¾": 1605,
      "åĤ": 1606,
      "Â·": 1607,
      "èī¯": 1608,
      "ire": 1609,
      "ç»Ħç»ĩ": 1610,
      "åĲ¸": 1611,
      ").": 1612,
      "åľŁ": 1613,
      "Ġso": 1614,
      "è¯¾": 1615,
      "å£°": 1616,
      "æĿĲæĸĻ": 1617,
      "æ¥": 1618,
      "æīĢæľī": 1619,
      "å¾Īå¤ļ": 1620,
      "çĽ®åīį": 1621,
      "æłĩåĩĨ": 1622,
      "Ġout": 1623,
      "äºī": 1624,
      "å½ķ": 1625,
      "Ġone": 1626,
      "åĬŁèĥ½": 1627,
      "are": 1628,
      "è¾¹": 1629,
      "çķ¥": 1630,
      "å¼Ģåıĳ": 1631,
      "éĿĴ": 1632,
      "ia": 1633,
      "æĻ®": 1634,
      "ake": 1635,
      "è¿ľ": 1636,
      "ally": 1637,
      "æ¤": 1638,
      "ĠV": 1639,
      "æ±½": 1640,
      "Ġ19": 1641,
      "ition": 1642,
      "æĶ¯æĮģ": 1643,
      "åı¤": 1644,
      "yth": 1645,
      "åİ¿": 1646,
      "åħ´": 1647,
      "å¹³åı°": 1648,
      "ail": 1649,
      "}{": 1650,
      "Ġper": 1651,
      "äººå·¥æĻºèĥ½": 1652,
      "å®¢æĪ·": 1653,
      "50": 1654,
      "ne": 1655,
      "ç½ĳç»ľ": 1656,
      "åħļ": 1657,
      "åĪĿ": 1658,
      "äº«": 1659,
      "çĭ¬": 1660,
      "ä½Ĩæĺ¯": 1661,
      "Ġmore": 1662,
      "æīĢä»¥": 1663,
      "ï¼īï¼Į": 1664,
      "å¤§åŃ¦": 1665,
      "rent": 1666,
      "ç§ĳåŃ¦": 1667,
      "æ²³": 1668,
      "çļĦæĺ¯": 1669,
      "åĨĽ": 1670,
      "åĩºçİ°": 1671,
      "ru": 1672,
      "è´¢": 1673,
      "ä¸įæĸŃ": 1674,
      "18": 1675,
      "âĢĵ": 1676,
      "åŃ©": 1677,
      "èĩªçĦ¶": 1678,
      "æ¿": 1679,
      "è¿Ļæł·": 1680,
      "âĢĿãĢĤ": 1681,
      "ç´¢": 1682,
      "Ġgo": 1683,
      "ä»ĭ": 1684,
      "ĠY": 1685,
      "æį¢": 1686,
      "çīĪ": 1687,
      "çĸ«": 1688,
      "),": 1689,
      "å¸Į": 1690,
      "ä»¥ä¸Ĭ": 1691,
      "å®ļçļĦ": 1692,
      "ç¾¤": 1693,
      "åĪ°äºĨ": 1694,
      "äººçļĦ": 1695,
      "å®ĮæĪĲ": 1696,
      "è¯į": 1697,
      "å»ºè®®": 1698,
      "æ²»çĸĹ": 1699,
      "å±ħ": 1700,
      "ä¸¾": 1701,
      "ff": 1702,
      "Ġ'": 1703,
      "çļ®": 1704,
      "çĶ¨äºİ": 1705,
      "ft": 1706,
      "æİ§åĪ¶": 1707,
      "Ġfun": 1708,
      "op": 1709,
      "Ġ`": 1710,
      "çŃĳ": 1711,
      "æĪĸèĢħ": 1712,
      "çĶ»": 1713,
      "åĵģçīĮ": 1714,
      "ä¹Łæĺ¯": 1715,
      "ä¸įæĺ¯": 1716,
      "æ¦": 1717,
      "ount": 1718,
      "é¦Ļ": 1719,
      "port": 1720,
      "å¢ŀåĬł": 1721,
      "å¥ĸ": 1722,
      "Ġ6": 1723,
      "Ġ[": 1724,
      "ll": 1725,
      "è¿Ļç§į": 1726,
      "çĽ®æłĩ": 1727,
      "ord": 1728,
      "åıĮ": 1729,
      "æŁĵ": 1730,
      "ãģ": 1731,
      "åħ³äºİ": 1732,
      "Ġte": 1733,
      "åįķä½į": 1734,
      "Ġup": 1735,
      "å°½": 1736,
      "å®¡": 1737,
      "ens": 1738,
      "è®¡åĪĴ": 1739,
      "ä¿ĿæĮģ": 1740,
      "æĽ´å¤ļ": 1741,
      "åŁºç¡": 1742,
      "con": 1743,
      "ç¬¦": 1744,
      "åĿļ": 1745,
      "åŁºç¡Ģ": 1746,
      "æī§": 1747,
      "æ½": 1748,
      "éĵ¶": 1749,
      "çĨ": 1750,
      "äººæ°ĳ": 1751,
      "ç»ĵæŀĦ": 1752,
      "Ġtr": 1753,
      "ä½ľçĶ¨": 1754,
      "ç¦ı": 1755,
      "urn": 1756,
      "ress": 1757,
      "æĹ©": 1758,
      "å¿Ĺ": 1759,
      "éĶ®": 1760,
      "ree": 1761,
      "æŃ¢": 1762,
      "Ġ201": 1763,
      "çİ°åľ¨": 1764,
      "ç¨³": 1765,
      "ä¹ĭéĹ´": 1766,
      "é¢ĳ": 1767,
      "åŃ¦æł¡": 1768,
      "æ¿Ģ": 1769,
      "éĵģ": 1770,
      "é¢Ŀ": 1771,
      "frac": 1772,
      "åºĶè¯¥": 1773,
      "åİĤ": 1774,
      "é»Ħ": 1775,
      "äºĳ": 1776,
      "Ġsp": 1777,
      "çĵ": 1778,
      "low": 1779,
      "æıĲåįĩ": 1780,
      "16": 1781,
      "Ġman": 1782,
      "Ġspe": 1783,
      "åĵª": 1784,
      "ook": 1785,
      "æĺ¯ä¸Ģä¸ª": 1786,
      "ĠSt": 1787,
      "èİ·å¾Ĺ": 1788,
      "åĪ©çĶ¨": 1789,
      "åįĬ": 1790,
      "ents": 1791,
      "Ġtheir": 1792,
      "çªģ": 1793,
      "æŁĲ": 1794,
      "æĽ´åĬł": 1795,
      "åĩıå°ĳ": 1796,
      "åı¦": 1797,
      "åıĳçİ°": 1798,
      "èĻĳ": 1799,
      "å¢ŀéķ¿": 1800,
      "å»ºçŃĳ": 1801,
      "åĲ¬": 1802,
      "ç«¯": 1803,
      "æľīéĻĲ": 1804,
      "ç»ĥ": 1805,
      "é¸": 1806,
      "æ¸¸æĪı": 1807,
      "æ±¡": 1808,
      "çŁŃ": 1809,
      "ä¹°": 1810,
      "æī¹": 1811,
      "Ġsc": 1812,
      "éĴ¢": 1813,
      "éģ¿": 1814,
      "åħ¨çĲĥ": 1815,
      "åºķ": 1816,
      "é²": 1817,
      "å®Ŀ": 1818,
      "åį°": 1819,
      "è®²": 1820,
      "own": 1821,
      "Ġ{": 1822,
      "çıŃ": 1823,
      "æľºæŀĦ": 1824,
      "Ġpr": 1825,
      "æľīæķĪ": 1826,
      "æ¶Īè´¹": 1827,
      "æ³¨æĦı": 1828,
      "å·®": 1829,
      "é¤": 1830,
      "Ġtime": 1831,
      "ä¿ĥ": 1832,
      "å·´": 1833,
      "èŃ": 1834,
      "è®¤ä¸º": 1835,
      "éĽĨåĽ¢": 1836,
      "æĭħ": 1837,
      "é¡»": 1838,
      "éĥ¨éĹ¨": 1839,
      "å¼Ĥ": 1840,
      "Ġlike": 1841,
      "æĹħæ¸¸": 1842,
      "çŁ¥è¯Ĩ": 1843,
      "ä½łçļĦ": 1844,
      "ect": 1845,
      "æĵį": 1846,
      "ors": 1847,
      "æĸ°çļĦ": 1848,
      "ç«ŀ": 1849,
      "è¡Ģ": 1850,
      "Ġother": 1851,
      "åįļ": 1852,
      "æİ¢": 1853,
      "Ġabout": 1854,
      "ython": 1855,
      "åı¥": 1856,
      "æĹ¶åĢĻ": 1857,
      "Ġalso": 1858,
      "14": 1859,
      "æ³¢": 1860,
      "de": 1861,
      "çŃĶ": 1862,
      "æĮģç»Ń": 1863,
      "æŃĮ": 1864,
      "åŃĺåľ¨": 1865,
      "åį¡": 1866,
      "éĶĻ": 1867,
      "çł´": 1868,
      "åľ°åĮº": 1869,
      "å®³": 1870,
      "åħ³ç³»": 1871,
      "Ġdis": 1872,
      "Ġpart": 1873,
      "ç¾İåĽ½": 1874,
      "åħ·ä½ĵ": 1875,
      "ata": 1876,
      "æĺ¯åĲ¦": 1877,
      "å¾ģ": 1878,
      "éĢģ": 1879,
      "wo": 1880,
      "ces": 1881,
      "çĶ³": 1882,
      "ory": 1883,
      "vers": 1884,
      "irst": 1885,
      "çĩ": 1886,
      "very": 1887,
      "ĠIt": 1888,
      "ck": 1889,
      "æĿİ": 1890,
      "å»ºç«ĭ": 1891,
      "å¯¼èĩ´": 1892,
      "__": 1893,
      "èĪª": 1894,
      "ram": 1895,
      "åĮĹäº¬": 1896,
      "äººç±»": 1897,
      "ä¸ļåĬ¡": 1898,
      "é¥®": 1899,
      "åį«": 1900,
      "åıĳçĶŁ": 1901,
      "Ġro": 1902,
      "æĸĩç«ł": 1903,
      "çķĻ": 1904,
      "ä¸įä»ħ": 1905,
      "25": 1906,
      "å¤§å®¶": 1907,
      "Ġthey": 1908,
      "ove": 1909,
      "ä¹ĭä¸Ģ": 1910,
      "åĲĦç§į": 1911,
      "ç§»": 1912,
      "èĪ¬": 1913,
      "åĲĥ": 1914,
      "éĥ½æĺ¯": 1915,
      "é¾Ļ": 1916,
      "âĢ¢": 1917,
      "åħ¨åĽ½": 1918,
      "äººä»¬": 1919,
      "æ±½è½¦": 1920,
      "çĶ±äºİ": 1921,
      "com": 1922,
      "In": 1923,
      "è½¯": 1924,
      "13": 1925,
      "ĠThis": 1926,
      "éĢļå¸¸": 1927,
      "AI": 1928,
      "çľ¼": 1929,
      "èıľ": 1930,
      "we": 1931,
      "å®ĺ": 1932,
      "äº§çĶŁ": 1933,
      "ä¸´": 1934,
      "åĮ»çĸĹ": 1935,
      "ä¸°": 1936,
      "Ġev": 1937,
      "åŃ©åŃĲ": 1938,
      "ä»·æł¼": 1939,
      "æĴŃ": 1940,
      "åĲĹ": 1941,
      "èĴ": 1942,
      "åįł": 1943,
      "æĸ¹æ¡Ī": 1944,
      "çºª": 1945,
      "åį´": 1946,
      "æĭĽ": 1947,
      "æĤ£èĢħ": 1948,
      "èīºæľ¯": 1949,
      "åİĨåı²": 1950,
      "æĭ¥": 1951,
      "éĩĩçĶ¨": 1952,
      "ä¸ĬçļĦ": 1953,
      "é¤Ĳ": 1954,
      "ä½Ļ": 1955,
      "æĿĤ": 1956,
      "éļľ": 1957,
      "è¯¢": 1958,
      "é»ĳ": 1959,
      "ç§¯æŀģ": 1960,
      "èģļ": 1961,
      "ä¸ºäºĨ": 1962,
      "Ġsome": 1963,
      "ates": 1964,
      "åº§": 1965,
      "å¸ĮæľĽ": 1966,
      "æľ¨": 1967,
      "Ġfe": 1968,
      "ï¼ļâĢľ": 1969,
      "ys": 1970,
      "erv": 1971,
      "è¡¥": 1972,
      "åī§": 1973,
      "éĤ£ä¹Ī": 1974,
      "Ġx": 1975,
      "Ġ10": 1976,
      "ç»¼": 1977,
      "å®£": 1978,
      "è¿ĲåĬ¨": 1979,
      "ç»§": 1980,
      "Ġneed": 1981,
      "è½½": 1982,
      "åĩ»": 1983,
      "å·¥ä¸ļ": 1984,
      "å¾ħ": 1985,
      "2020": 1986,
      "ç¥¨": 1987,
      "Ġnew": 1988,
      "ĠCh": 1989,
      "åĿĹ": 1990,
      "è´§": 1991,
      "ä¸ĢæŃ¥": 1992,
      "èĹ": 1993,
      "ç»ĵæŀľ": 1994,
      "ç½Ĺ": 1995,
      "æĶ¿çŃĸ": 1996,
      "åħ³éĶ®": 1997,
      "ater": 1998,
      "æĪĳä»¬çļĦ": 1999,
      "Ġpo": 2000,
      "äºĨä¸Ģ": 2001,
      "ä¼łç»Ł": 2002,
      "ish": 2003,
      "åıĺåĮĸ": 2004,
      "é¼": 2005,
      "å®ĥä»¬": 2006,
      "åºĵ": 2007,
      "éĺ¿": 2008,
      "éķĩ": 2009,
      "ç£": 2010,
      "åª": 2011,
      "åī¯": 2012,
      "ä¸įèĥ½": 2013,
      "åĽ¢éĺŁ": 2014,
      "çĲĨè§£": 2015,
      "erm": 2016,
      "äº²": 2017,
      "ings": 2018,
      "è¡Įä¸º": 2019,
      "ç´§": 2020,
      "ç»¿": 2021,
      "Ġfunction": 2022,
      "ric": 2023,
      "èĳĹ": 2024,
      "çĶµåŃĲ": 2025,
      "Ġits": 2026,
      "Ġany": 2027,
      "ĠAn": 2028,
      "ä»¤": 2029,
      "æ¸¯": 2030,
      "æľºåĻ¨": 2031,
      "æ¯Ķè¾ĥ": 2032,
      "èĩªåĬ¨": 2033,
      "åģĩ": 2034,
      "ï¼īãĢĤ": 2035,
      "ä»·åĢ¼": 2036,
      "ä»»åĬ¡": 2037,
      "è¯Ńè¨Ģ": 2038,
      "put": 2039,
      "å®ŀéĻħ": 2040,
      "èª": 2041,
      "å¸¦æĿ¥": 2042,
      "ari": 2043,
      "ä»£è¡¨": 2044,
      "åºŃ": 2045,
      "ĊĠĠĠĠĠĠĠ": 2046,
      "è¿ĺæĺ¯": 2047,
      "éĶĢåĶ®": 2048,
      "Ġthere": 2049,
      "Ġwork": 2050,
      "Ġnumber": 2051,
      "Ġmy": 2052,
      "17": 2053,
      "æĺ¥": 2054,
      "ays": 2055,
      "Ġuse": 2056,
      "éļıçĿĢ": 2057,
      "åŁºæľ¬": 2058,
      "ark": 2059,
      "ific": 2060,
      "24": 2061,
      "ĠĠĠĠĠĠĠĠ": 2062,
      "ov": 2063,
      "Ġsy": 2064,
      "pr": 2065,
      "Ġval": 2066,
      "2019": 2067,
      "ç¬¬äºĮ": 2068,
      "è°¢": 2069,
      "Ġ7": 2070,
      "æłĳ": 2071,
      "è¯ī": 2072,
      "æ¹ĸ": 2073,
      "æĽ²": 2074,
      "æĽ¾": 2075,
      "æĬĹ": 2076,
      "ç»į": 2077,
      "Ġ8": 2078,
      "\":": 2079,
      "Ġkn": 2080,
      "å¹´çļĦ": 2081,
      "èĢĥèĻĳ": 2082,
      "éģ¿åħį": 2083,
      "ject": 2084,
      "æľīåħ³": 2085,
      "ä¸¤ä¸ª": 2086,
      "åĨ·": 2087,
      "Ġform": 2088,
      "çĶ·": 2089,
      "æ¯į": 2090,
      "ble": 2091,
      "é£İéĻ©": 2092,
      "Ġhow": 2093,
      "æįŁ": 2094,
      "Ġdes": 2095,
      "åħ¸": 2096,
      "ç¨İ": 2097,
      "åħŃ": 2098,
      "æľīéĻĲåħ¬åı¸": 2099,
      "è¶£": 2100,
      "ç¯ĩ": 2101,
      "åįĥ": 2102,
      "_{": 2103,
      "Ġpre": 2104,
      "éĿ©": 2105,
      "Ġhis": 2106,
      "æĵįä½ľ": 2107,
      "éģĩ": 2108,
      "äº¤éĢļ": 2109,
      "æ°´å¹³": 2110,
      "Ġ$$": 2111,
      "100": 2112,
      "å³": 2113,
      "Ġtwo": 2114,
      "è®¸å¤ļ": 2115,
      "çº³": 2116,
      "æĿ¡ä»¶": 2117,
      "Ġwould": 2118,
      "çİ¯ä¿Ŀ": 2119,
      "èĽ": 2120,
      "Ġget": 2121,
      "Ġour": 2122,
      "æĿ¾": 2123,
      "ç½ĳç«Ļ": 2124,
      "Ġover": 2125,
      "æ¤į": 2126,
      "tern": 2127,
      "èĻ½": 2128,
      "èĤī": 2129,
      "ĠâĢĵ": 2130,
      "å½¢æĪĲ": 2131,
      "Ġbet": 2132,
      "çĶµå½±": 2133,
      "æķ°åŃĹ": 2134,
      "ä»ĺ": 2135,
      "Ġdif": 2136,
      "çĽ´æİ¥": 2137,
      "ian": 2138,
      "----": 2139,
      "æĹı": 2140,
      "åªĴ": 2141,
      "eth": 2142,
      "Ġprov": 2143,
      "åīĤ": 2144,
      "æĪĲåĬŁ": 2145,
      "åĽ½åĨħ": 2146,
      "ç¼º": 2147,
      "æİª": 2148,
      "æ¶²": 2149,
      "åĳ¢": 2150,
      "è´£ä»»": 2151,
      "åıĤä¸İ": 2152,
      "ange": 2153,
      "ä»ĭç»į": 2154,
      "les": 2155,
      "çĹĩ": 2156,
      "text": 2157,
      "éĨ": 2158,
      "Ġmod": 2159,
      "å©": 2160,
      "Ġthan": 2161,
      "ä¼¤": 2162,
      "Ġfirst": 2163,
      "æķĪæŀľ": 2164,
      "ax": 2165,
      "Ġcomm": 2166,
      "å¯Ł": 2167,
      "åĽº": 2168,
      "å¿ħé¡»": 2169,
      "Ġret": 2170,
      "Ġwho": 2171,
      "äº¿åħĥ": 2172,
      "æ³Ľ": 2173,
      "Ġcol": 2174,
      "å¥ĩ": 2175,
      "Ġwhen": 2176,
      "é¦Ĩ": 2177,
      "çŁ¥éģĵ": 2178,
      "ç»ıèĲ¥": 2179,
      "é£ŀ": 2180,
      "éĩĬ": 2181,
      "çĤº": 2182,
      "åĪ¶éĢł": 2183,
      "clud": 2184,
      "ä»»ä½ķ": 2185,
      "è¾¾åĪ°": 2186,
      "éĢĲ": 2187,
      "çī¹åĪ«": 2188,
      "æĭ¥æľī": 2189,
      "\",": 2190,
      "æ¯Ĵ": 2191,
      "ä¸ĢèĪ¬": 2192,
      "æķĪçİĩ": 2193,
      "row": 2194,
      "èĨ": 2195,
      "çļĦåıĳå±ķ": 2196,
      "ative": 2197,
      "èĥĮ": 2198,
      "lic": 2199,
      "åĪ»": 2200,
      "è¿Ļä¸Ģ": 2201,
      "Ġinto": 2202,
      "æ¨¡å¼ı": 2203,
      "lect": 2204,
      "éħ¸": 2205,
      "Ġyear": 2206,
      "ä»į": 2207,
      "çİ©": 2208,
      "åħ°": 2209,
      "æ´²": 2210,
      "å½©": 2211,
      "è¿½": 2212,
      "è¿ĺæľī": 2213,
      "Ġ*": 2214,
      "Ġequ": 2215,
      "ics": 2216,
      "ä¸įåĲĮçļĦ": 2217,
      "60": 2218,
      "å¼Ģå±ķ": 2219,
      "æĦ¿": 2220,
      "åĽ°": 2221,
      "åģľ": 2222,
      "ä¼¼": 2223,
      "ener": 2224,
      "çģµ": 2225,
      "è°ĥæķ´": 2226,
      "éĵ¾": 2227,
      "åıĳå¸ĥ": 2228,
      "ï¼ĮâĢľ": 2229,
      "çĶŁæĪĲ": 2230,
      "æĪĲæľ¬": 2231,
      "aus": 2232,
      "è¯¯": 2233,
      "è§Ħå®ļ": 2234,
      "æĺ¯ä¸Ģç§į": 2235,
      "æĻļ": 2236,
      "ç¨ĭåºı": 2237,
      "æ³ķå¾ĭ": 2238,
      "éº": 2239,
      "æĢ§èĥ½": 2240,
      "éħĴåºĹ": 2241,
      "ä½ĵéªĮ": 2242,
      "ä¸Ģèµ·": 2243,
      "Ġadd": 2244,
      "Ġ\\(": 2245,
      "^{": 2246,
      "éĢı": 2247,
      "çĸ¾": 2248,
      "å°¼": 2249,
      "æıı": 2250,
      "ating": 2251,
      "ual": 2252,
      "imes": 2253,
      "Ġacc": 2254,
      "æĿ¥è¯´": 2255,
      "åŃ¦éĻ¢": 2256,
      "ode": 2257,
      "Ġam": 2258,
      "ç»¼åĲĪ": 2259,
      "âĢ¦": 2260,
      "Ġsol": 2261,
      "æľĭ": 2262,
      "åıĤåĬł": 2263,
      "22": 2264,
      "ä¹¡": 2265,
      "æ£ĢæŁ¥": 2266,
      "Ġtra": 2267,
      "è½®": 2268,
      "å¥Ĺ": 2269,
      "çĻ»": 2270,
      "ä½ľåĵģ": 2271,
      "Ġco": 2272,
      "åľ°æĸ¹": 2273,
      "å¤ı": 2274,
      "çīĽ": 2275,
      "ç»©": 2276,
      "éĴŁ": 2277,
      "ments": 2278,
      "ä¿ĥè¿Ľ": 2279,
      "éĴĪ": 2280,
      "ä¸Ģå®ļ": 2281,
      "éĹ»": 2282,
      "æķĻåŃ¦": 2283,
      "è´Łè´£": 2284,
      "å°Ħ": 2285,
      "ob": 2286,
      "Ġwhat": 2287,
      "éĩĳèŀį": 2288,
      "èĥ½æºĲ": 2289,
      "å¾ĹåĪ°": 2290,
      "ç³»åĪĹ": 2291,
      "Ġset": 2292,
      "ĠĊ": 2293,
      "èĭı": 2294,
      "stem": 2295,
      "Th": 2296,
      "%ï¼Į": 2297,
      "éŃ": 2298,
      "21": 2299,
      "()": 2300,
      "åĩĢ": 2301,
      "éŁ³ä¹Ĳ": 2302,
      "æ¬§": 2303,
      "çĳ": 2304,
      "Ġspec": 2305,
      "40": 2306,
      "è¿ĩç¨ĭä¸Ń": 2307,
      "ink": 2308,
      "èŃ¦": 2309,
      "ick": 2310,
      "ä¼°": 2311,
      "èĵ": 2312,
      "æİĪ": 2313,
      "ç²¾ç¥ŀ": 2314,
      "çĮ®": 2315,
      "æĺ¾ç¤º": 2316,
      "ç»ĵåĲĪ": 2317,
      "Ġ9": 2318,
      "æĮĳ": 2319,
      "Ġpos": 2320,
      "åħ±åĲĮ": 2321,
      "å²ģ": 2322,
      "åĬ³": 2323,
      "çĦ¶åĲİ": 2324,
      "Ġthem": 2325,
      "æ´Ĺ": 2326,
      "åĤ¨": 2327,
      "å®ŀæĸ½": 2328,
      "Ġoff": 2329,
      "æŀ¶": 2330,
      "èįī": 2331,
      "æĢ§çļĦ": 2332,
      "æĢİ": 2333,
      "ons": 2334,
      "çİ°ä»£": 2335,
      "æľĢåĲİ": 2336,
      "ä»İèĢĮ": 2337,
      "åĮ»éĻ¢": 2338,
      "bers": 2339,
      "æķħäºĭ": 2340,
      "ps": 2341,
      "æī§è¡Į": 2342,
      "ä¸½": 2343,
      "è¿Ľä¸ĢæŃ¥": 2344,
      "Ġhel": 2345,
      "æľĭåıĭ": 2346,
      "ç²ī": 2347,
      "çĽĸ": 2348,
      "ĠâĢľ": 2349,
      "ç§Ģ": 2350,
      "çĶŁçī©": 2351,
      "æķ£": 2352,
      "23": 2353,
      "èº«ä½ĵ": 2354,
      "è¡¨çİ°": 2355,
      "è·Ł": 2356,
      "åĬ±": 2357,
      "è¿Ľåħ¥": 2358,
      "ä¸įä¼ļ": 2359,
      "ds": 2360,
      "åĸľæ¬¢": 2361,
      "èĮĥåĽ´": 2362,
      "åĬłå¼º": 2363,
      "ä¸Ĭæµ·": 2364,
      "è¿İ": 2365,
      "ç»ıéªĮ": 2366,
      "èĢĮä¸Ķ": 2367,
      "è¯Ĭ": 2368,
      "ĠHe": 2369,
      "æŃ¦": 2370,
      "æ¦Ĥ": 2371,
      "åħ³æ³¨": 2372,
      "cess": 2373,
      "ution": 2374,
      "æĢ¥": 2375,
      "æĹłæ³ķ": 2376,
      "èĻ½çĦ¶": 2377,
      "âĢĶâĢĶ": 2378,
      "å¯»": 2379,
      "æ¨¡åŀĭ": 2380,
      "æīĺ": 2381,
      "Ġ&": 2382,
      "ä½Ľ": 2383,
      "cre": 2384,
      "}$": 2385,
      "rit": 2386,
      "ä¸»é¢ĺ": 2387,
      "Ġag": 2388,
      "æİªæĸ½": 2389,
      "åľĭ": 2390,
      "rib": 2391,
      "æŃ¤å¤ĸ": 2392,
      "æĳĦ": 2393,
      "è§ĦåĪĴ": 2394,
      "åĨ²": 2395,
      "ä½³": 2396,
      "åĨł": 2397,
      "ample": 2398,
      "éĿł": 2399,
      "æĬ¥åĳĬ": 2400,
      "å®¶åºŃ": 2401,
      "å·¥åħ·": 2402,
      "rough": 2403,
      "å¹¿æ³Ľ": 2404,
      "ç©ºéĹ´": 2405,
      "åĽłç´ł": 2406,
      "åĪ¤": 2407,
      "å®Ī": 2408,
      "éĺ¶": 2409,
      "ring": 2410,
      "è®¨": 2411,
      "è®¿": 2412,
      "ä¼ļè®®": 2413,
      "Ġeach": 2414,
      "åĩ½": 2415,
      "æĪĳçļĦ": 2416,
      "ild": 2417,
      "Ġem": 2418,
      "ular": 2419,
      "80": 2420,
      "è¿Ļæĺ¯": 2421,
      "èĢĲ": 2422,
      "åħ«": 2423,
      "çĸ«æĥħ": 2424,
      "åĲ¯": 2425,
      "Ġthen": 2426,
      "èģĶç½ĳ": 2427,
      "æıĲåĩº": 2428,
      "Ġcons": 2429,
      "ä¸Ģç§į": 2430,
      "é¡º": 2431,
      "çĶŁæĢģ": 2432,
      "åİŁåĽł": 2433,
      "Ġass": 2434,
      "ç»Ŀ": 2435,
      "ĠRe": 2436,
      "ĠWe": 2437,
      "'t": 2438,
      "ä¸°å¯Į": 2439,
      "Ġonly": 2440,
      "ä»ĸçļĦ": 2441,
      "ç®Ģåįķ": 2442,
      "oth": 2443,
      "æ°§": 2444,
      "éĩıçļĦ": 2445,
      "ning": 2446,
      "èĦĳ": 2447,
      "éĢĤåĲĪ": 2448,
      "æĮīçħ§": 2449,
      "ľé£İ": 2450,
      "èģĮä¸ļ": 2451,
      "åİĭåĬĽ": 2452,
      "æ©": 2453,
      "ä¼ĺåĮĸ": 2454,
      "çŃ¾": 2455,
      "ä»£çłģ": 2456,
      "çĻ½çĻ": 2457,
      "è´µ": 2458,
      "ility": 2459,
      "ãĥ": 2460,
      "é¦ĸåħĪ": 2461,
      "Ġprodu": 2462,
      "Ġwere": 2463,
      "ä»Ĭå¹´": 2464,
      "Ġfol": 2465,
      "çĻ½çĻľé£İ": 2466,
      "è¶ħè¿ĩ": 2467,
      "æ¥¼": 2468,
      "Ġdiffe": 2469,
      "Ġgr": 2470,
      "ise": 2471,
      "éĢłæĪĲ": 2472,
      "éĩįçĤ¹": 2473,
      "ç³ĸ": 2474,
      "Ġusing": 2475,
      "åŁ¹è®Ń": 2476,
      "ased": 2477,
      "åĬª": 2478,
      "Ġrec": 2479,
      "å¡ĳ": 2480,
      "ose": 2481,
      "æī©": 2482,
      "hen": 2483,
      "æĮ¥": 2484,
      "æ±ī": 2485,
      "èµ·æĿ¥": 2486,
      "æĽ´å¥½": 2487,
      "å»¶": 2488,
      "åİħ": 2489,
      "Ġ200": 2490,
      "Ġ20": 2491,
      "éĽ¨": 2492,
      "æĤ¨çļĦ": 2493,
      "æĸĩä»¶": 2494,
      "ew": 2495,
      "åı¶": 2496,
      "Ġwhere": 2497,
      "Ġ$\\": 2498,
      "çĶ³è¯·": 2499,
      "æ²Ļ": 2500,
      "å¨ģ": 2501,
      "èĮ¶": 2502,
      "æĪĳåĽ½": 2503,
      "åĳĺå·¥": 2504,
      "å·¦": 2505,
      "çĿ£": 2506,
      "Ġ#": 2507,
      "ä¹ĭåĲİ": 2508,
      "äº¤æµģ": 2509,
      "Ġsub": 2510,
      "åı³": 2511,
      "Ġpe": 2512,
      "Ġmat": 2513,
      "åħ¨éĿ¢": 2514,
      "Ġph": 2515,
      "æĸĩæľ¬": 2516,
      "Ġno": 2517,
      "ç»§ç»Ń": 2518,
      "åıĹåĪ°": 2519,
      "Ġinclud": 2520,
      "å¿«éĢŁ": 2521,
      "Ġinte": 2522,
      "å¹¶ä¸Ķ": 2523,
      "Ġreturn": 2524,
      "éĴ±": 2525,
      "Ġfind": 2526,
      "æ¯ĶèµĽ": 2527,
      "é¥°": 2528,
      "åªĴä½ĵ": 2529,
      "%ãĢĤ": 2530,
      "èĭ¥": 2531,
      "éĵ¶è¡Į": 2532,
      "åı¯èĥ½ä¼ļ": 2533,
      "ä»ª": 2534,
      "ç¬¬ä¸ī": 2535,
      "Ġunder": 2536,
      "æİ¨åĬ¨": 2537,
      "ient": 2538,
      "é£Łåĵģ": 2539,
      "Ġbeen": 2540,
      "ä½ĵç³»": 2541,
      "æ¯ıä¸ª": 2542,
      "Ġsim": 2543,
      "Ġdata": 2544,
      "éĻĦ": 2545,
      "é¡¾": 2546,
      "Ġrel": 2547,
      "çļĦéĹ®é¢ĺ": 2548,
      "its": 2549,
      "Ġind": 2550,
      "ful": 2551,
      "ä¸Ģä¸ĭ": 2552,
      "fect": 2553,
      "Ġbec": 2554,
      "æīĭæľº": 2555,
      "è®¢": 2556,
      "Ġjust": 2557,
      "**:": 2558,
      "çĨŁ": 2559,
      "ä¹ħ": 2560,
      "æ¯Ķå¦Ĥ": 2561,
      "è§Ħæ¨¡": 2562,
      "hat": 2563,
      "ãĤ": 2564,
      "åĬªåĬĽ": 2565,
      "ä¸ĢçĽ´": 2566,
      "ible": 2567,
      "2018": 2568,
      "Ġtrans": 2569,
      "åĪ¶ä½ľ": 2570,
      "çĸ¾çĹħ": 2571,
      "çļĦæĹ¶åĢĻ": 2572,
      "ĠÐ": 2573,
      "fter": 2574,
      "math": 2575,
      "ç«ŀäºī": 2576,
      "äº¤æĺĵ": 2577,
      "å¤ľ": 2578,
      "æ¶ī": 2579,
      "æ±¡æŁĵ": 2580,
      "reat": 2581,
      "è¡¡": 2582,
      "èĸ": 2583,
      "Ġdet": 2584,
      "ç¿»": 2585,
      "å¤«": 2586,
      "çĶļ": 2587,
      "äºĪ": 2588,
      "èĥľ": 2589,
      "éĿĻ": 2590,
      "ç¡®å®ļ": 2591,
      "199": 2592,
      "ä¸Ģæ¬¡": 2593,
      "å±Ĭ": 2594,
      "è®¯": 2595,
      "æ±ł": 2596,
      "èĹı": 2597,
      "æĭŁ": 2598,
      "hed": 2599,
      "æĹ¥æľ¬": 2600,
      "å®ģ": 2601,
      "ert": 2602,
      "éĢĢ": 2603,
      "æŃ£åľ¨": 2604,
      "Ġra": 2605,
      "Ġgiv": 2606,
      "æŃ»": 2607,
      "å½Ĵ": 2608,
      "èĽĭ": 2609,
      "ç®±": 2610,
      "æ´ģ": 2611,
      "Ġact": 2612,
      "æ¢°": 2613,
      "Ġi": 2614,
      "æĭį": 2615,
      "):": 2616,
      "å®¹æĺĵ": 2617,
      "åĺ": 2618,
      "è·Ŀ": 2619,
      "æĢ§åĴĮ": 2620,
      "Ġthese": 2621,
      "æ¶¦": 2622,
      "éĩįè¦ģçļĦ": 2623,
      "Ġob": 2624,
      "Ġmost": 2625,
      "éĽ¶": 2626,
      "å¤įæĿĤ": 2627,
      "sw": 2628,
      "iew": 2629,
      "Ġdef": 2630,
      "olog": 2631,
      "é±": 2632,
      "ç§Ł": 2633,
      "åĪĽéĢł": 2634,
      "ict": 2635,
      "Ġknow": 2636,
      "æł¸å¿ĥ": 2637,
      "ä¼ĳ": 2638,
      "ä¸ĵå®¶": 2639,
      "éĻįä½İ": 2640,
      "æĥħæĦŁ": 2641,
      "Ġlist": 2642,
      "}\\": 2643,
      "ĠIf": 2644,
      "ä¸ĥ": 2645,
      "çļĦéĩįè¦ģ": 2646,
      "ational": 2647,
      "ues": 2648,
      "ĠUn": 2649,
      "é½": 2650,
      "inal": 2651,
      "äº®": 2652,
      "åį±": 2653,
      "Ġfollow": 2654,
      "ç¨³å®ļ": 2655,
      "Ġused": 2656,
      "ween": 2657,
      "Ġhelp": 2658,
      "get": 2659,
      "è¡Ĺ": 2660,
      "...": 2661,
      "çļĦå¤§": 2662,
      "ä¸ĩåħĥ": 2663,
      "æ··": 2664,
      "åĩ½æķ°": 2665,
      "æ»¡è¶³": 2666,
      "aw": 2667,
      "åºĨ": 2668,
      "æ²Ł": 2669,
      "åįĪ": 2670,
      "æ¯ķ": 2671,
      "æīįèĥ½": 2672,
      "ä¼ĺåĬ¿": 2673,
      "æĭ¿": 2674,
      "è®°èĢħ": 2675,
      "Ġresult": 2676,
      "åıªæľī": 2677,
      "éļĲ": 2678,
      "ä»Ĭå¤©": 2679,
      "èĦ±": 2680,
      "é±¼": 2681,
      "éĸ": 2682,
      "hes": 2683,
      "çµ": 2684,
      "æ¸Ĳ": 2685,
      "é²ľ": 2686,
      "å·¨": 2687,
      "Ġbu": 2688,
      "æĮĳæĪĺ": 2689,
      "ied": 2690,
      "æĶ¶åħ¥": 2691,
      "Ġcur": 2692,
      "{\\": 2693,
      "Ġmay": 2694,
      "åıĬæĹ¶": 2695,
      "å½¢å¼ı": 2696,
      "ced": 2697,
      "è¯Ĺ": 2698,
      "Ġinst": 2699,
      "è½¯ä»¶": 2700,
      "æ£Ģæµĭ": 2701,
      "cul": 2702,
      "é¢Ĩå¯¼": 2703,
      "æĸ¼": 2704,
      "å¸ģ": 2705,
      "ix": 2706,
      "ç§ģ": 2707,
      "28": 2708,
      "åĪ¶å®ļ": 2709,
      "ract": 2710,
      "ause": 2711,
      "Ġthrough": 2712,
      "ç¬Ķ": 2713,
      "çĬ¶æĢģ": 2714,
      "å¹ħ": 2715,
      "æħ¢": 2716,
      "åĨĮ": 2717,
      "å¿ĥçĲĨ": 2718,
      "éĺħ": 2719,
      "ting": 2720,
      "è¿Ĳè¡Į": 2721,
      "åĮĸçļĦ": 2722,
      "æĶ»": 2723,
      "éĿ¢ç§¯": 2724,
      "æ±ĩ": 2725,
      "ss": 2726,
      "Ġsuch": 2727,
      "è°Ī": 2728,
      "çĽĺ": 2729,
      "Ġbetween": 2730,
      "Ġcre": 2731,
      "çļĦå½±åĵį": 2732,
      "æĺ¯åľ¨": 2733,
      "ont": 2734,
      "æľĿ": 2735,
      "ä¿Ŀè¯ģ": 2736,
      "æķĻå¸Ī": 2737,
      "Ġpoint": 2738,
      "èĪŀ": 2739,
      "åĪĨåĪ«": 2740,
      "çģ¯": 2741,
      "ç±»åŀĭ": 2742,
      "è§¦": 2743,
      "ä¹Ŀ": 2744,
      "æľºä¼ļ": 2745,
      "æ¾": 2746,
      "å·Ŀ": 2747,
      "åıĸå¾Ĺ": 2748,
      "Ġint": 2749,
      "æ°¸": 2750,
      "ize": 2751,
      "ople": 2752,
      "ities": 2753,
      "elf": 2754,
      "ĠPro": 2755,
      "ures": 2756,
      "éĻĪ": 2757,
      "ä¿Ŀéļľ": 2758,
      "åĪļ": 2759,
      "Ġke": 2760,
      "è¡¨è¾¾": 2761,
      "å¥¥": 2762,
      "èĶ": 2763,
      "éľ²": 2764,
      "ork": 2765,
      "Ġhad": 2766,
      "ç«¥": 2767,
      "ç¬¦åĲĪ": 2768,
      "åĢŁ": 2769,
      "æĬĢèĥ½": 2770,
      "Ġsystem": 2771,
      "als": 2772,
      "æ¸©åº¦": 2773,
      "å°ļ": 2774,
      "çº¸": 2775,
      "Ġ<": 2776,
      "ĊĠ": 2777,
      "æĪĲç«ĭ": 2778,
      "right": 2779,
      "iss": 2780,
      "æµĭè¯ķ": 2781,
      "æııè¿°": 2782,
      "ption": 2783,
      "è¡ĮæĶ¿": 2784,
      "Ġchar": 2785,
      "fore": 2786,
      "å°ģ": 2787,
      "cy": 2788,
      "ç¡¬": 2789,
      "åºĬ": 2790,
      "èįĲ": 2791,
      "Ġgener": 2792,
      "Ġexp": 2793,
      "åºŁ": 2794,
      "æľŁéĹ´": 2795,
      "æľĢç»Ī": 2796,
      "å°Ŀ": 2797,
      "åĨ³å®ļ": 2798,
      "Ġvari": 2799,
      "ä¹ĭéĹ´çļĦ": 2800,
      "çĶ²": 2801,
      "æĿ¥è¶Ĭ": 2802,
      "é¼ĵ": 2803,
      "æĸ¹åĲĳ": 2804,
      "vel": 2805,
      "ower": 2806,
      "ç»ıè¿ĩ": 2807,
      "ç¤¼": 2808,
      "ood": 2809,
      "çĶļèĩ³": 2810,
      "Ġreg": 2811,
      "è¶ĬæĿ¥è¶Ĭ": 2812,
      "åĮºåŁŁ": 2813,
      "è¯¦": 2814,
      "blem": 2815,
      "åĪĨéĴŁ": 2816,
      "çľĭåĪ°": 2817,
      "çĪ¶": 2818,
      "çĩĥ": 2819,
      "è¿ĻéĩĮ": 2820,
      "æĹ¶ä»£": 2821,
      "è¾ĳ": 2822,
      "ä»¥ä¸ĭæĺ¯": 2823,
      "å°¤": 2824,
      "å¾Ħ": 2825,
      "Ġcomple": 2826,
      "çłĶåıĳ": 2827,
      "åŁ¹åħ»": 2828,
      "èģĶç³»": 2829,
      "å°ıæĹ¶": 2830,
      "æ¢¦": 2831,
      "iel": 2832,
      "26": 2833,
      "é«ĺçļĦ": 2834,
      "æļĸ": 2835,
      "Ġmake": 2836,
      "èį£": 2837,
      "Ġshould": 2838,
      "Ġ/": 2839,
      "27": 2840,
      "mer": 2841,
      "æ´ĭ": 2842,
      "æİ¨èįĲ": 2843,
      "ices": 2844,
      "ĠCom": 2845,
      "è³": 2846,
      "åĩĨå¤ĩ": 2847,
      "æĶ¹åıĺ": 2848,
      "åı¯ä»¥å¸®åĬ©": 2849,
      "ä»ĸä»¬çļĦ": 2850,
      "æİ¥åıĹ": 2851,
      "çĶ°": 2852,
      "çĤİ": 2853,
      "åħĥç´ł": 2854,
      "éĢŁåº¦": 2855,
      "åĴ¨": 2856,
      "çĸĳ": 2857,
      "åĬłåħ¥": 2858,
      "è·µ": 2859,
      "åŁºéĩĳ": 2860,
      "ä¸įè¦ģ": 2861,
      "Ġrem": 2862,
      "è¶ĭ": 2863,
      "åĩĨç¡®": 2864,
      "ä¼´": 2865,
      "Ġinv": 2866,
      "æĸ°éĹ»": 2867,
      "ç®Ĺæ³ķ": 2868,
      "éĻ¤äºĨ": 2869,
      "çĽŁ": 2870,
      "å½ĵçĦ¶": 2871,
      "åĲ§": 2872,
      "è¾Ĩ": 2873,
      "æĺİç¡®": 2874,
      "Ġwant": 2875,
      "çĶŁåĳ½": 2876,
      "æĽ´å¥½åľ°": 2877,
      "åłĤ": 2878,
      "ç¼©": 2879,
      "Ð¾": 2880,
      "formation": 2881,
      "å¾ª": 2882,
      "åĴ¨è¯¢": 2883,
      "pect": 2884,
      "æľºæ¢°": 2885,
      "æĮĩå¯¼": 2886,
      "ä¹İ": 2887,
      "èµĦéĩĳ": 2888,
      "ä¹ĺ": 2889,
      "io": 2890,
      "eng": 2891,
      "çİ°åľº": 2892,
      "ond": 2893,
      "å®ŀéªĮ": 2894,
      "è¯Ħä¼°": 2895,
      "å®Ĺ": 2896,
      "å¢ŀå¼º": 2897,
      "ç¾İåħĥ": 2898,
      "Ġcor": 2899,
      "è¯ļ": 2900,
      "ä¸įè¿ĩ": 2901,
      "è¯¾ç¨ĭ": 2902,
      "çī¹çĤ¹": 2903,
      "éĩĩåıĸ": 2904,
      "åĮ»çĶŁ": 2905,
      "éķ¿æľŁ": 2906,
      "å§Ķåĳĺ": 2907,
      "äººæīį": 2908,
      "ç´¯": 2909,
      "å¤®": 2910,
      "å®īè£ħ": 2911,
      "åķĨä¸ļ": 2912,
      "pro": 2913,
      "å²Ľ": 2914,
      "Ġsm": 2915,
      "ä»¥æĿ¥": 2916,
      "è®¾æĸ½": 2917,
      "éĺ¶æ®µ": 2918,
      "éĤ®": 2919,
      "Ġmany": 2920,
      "è®Ńç»ĥ": 2921,
      "ool": 2922,
      "ç¹": 2923,
      "æĢİä¹Ī": 2924,
      "Ġmin": 2925,
      "velo": 2926,
      "èĢģå¸Ī": 2927,
      "ä¸Ģæł·": 2928,
      "æĸ½å·¥": 2929,
      "æ¶Īè´¹èĢħ": 2930,
      "ä¸Ŀ": 2931,
      "Ġdist": 2932,
      "ç¼ĵ": 2933,
      "Ġty": 2934,
      "Ġac": 2935,
      "Ġdoes": 2936,
      "æķĳ": 2937,
      "äºĴèģĶç½ĳ": 2938,
      "çŁ¿": 2939,
      "æŃ£ç¡®": 2940,
      "ty": 2941,
      "ng": 2942,
      "è¸": 2943,
      "è¡ĮåĬ¨": 2944,
      "éĢĶ": 2945,
      "è¡£": 2946,
      "Ġinter": 2947,
      "æ´¾": 2948,
      "åĿļæĮģ": 2949,
      "ç©¿": 2950,
      "è´Ńä¹°": 2951,
      "æİ¨è¿Ľ": 2952,
      "Ġher": 2953,
      "Ġâ": 2954,
      "éģĹ": 2955,
      "åĪ¶åº¦": 2956,
      "alcul": 2957,
      "æ»ĳ": 2958,
      "åĳ¼": 2959,
      "æ¡¥": 2960,
      "åħħåĪĨ": 2961,
      "è¿Ŀ": 2962,
      "åŁºäºİ": 2963,
      "æĿŁ": 2964,
      "Ġstud": 2965,
      "åĵĪ": 2966,
      "å·§": 2967,
      "Ġdifferent": 2968,
      "çĹĽ": 2969,
      "é¢ľ": 2970,
      "æ½ľ": 2971,
      "çļĦé«ĺ": 2972,
      "ä½įç½®": 2973,
      "èĥ¶": 2974,
      "70": 2975,
      "Ġrequ": 2976,
      "å®Įåħ¨": 2977,
      "ä¼¦": 2978,
      "æĩ": 2979,
      "æī¾åĪ°": 2980,
      "éĴĪå¯¹": 2981,
      "å¸Ń": 2982,
      "çĥĪ": 2983,
      "æķ°éĩı": 2984,
      "ox": 2985,
      "æĦıè¯Ĩ": 2986,
      "ä¸¥éĩį": 2987,
      "ï¼īãĢģ": 2988,
      "å¹´æĿ¥": 2989,
      "Ġ.": 2990,
      "è¯ĨåĪ«": 2991,
      "åİļ": 2992,
      "Ġloc": 2993,
      "è»": 2994,
      "ily": 2995,
      "é¡¶": 2996,
      "æ£®": 2997,
      "éĥ½æľī": 2998,
      "æĪĺçķ¥": 2999,
      "ç©ºæ°Ķ": 3000,
      "åĬłå·¥": 3001,
      "Ġsa": 3002,
      "Ġwell": 3003,
      "åĵªäºĽ": 3004,
      "Ġserv": 3005,
      "hem": 3006,
      "è§Ī": 3007,
      "Ġpeople": 3008,
      "çĽ®çļĦ": 3009,
      "old": 3010,
      "Ġsee": 3011,
      "èľ": 3012,
      "Ġent": 3013,
      "æĽ´å¤ļçļĦ": 3014,
      "æľĢè¿ĳ": 3015,
      "æķ´ä¸ª": 3016,
      "æĹ¢": 3017,
      "è¯ĳ": 3018,
      "æľīçļĦ": 3019,
      "è´«": 3020,
      "å¤ļä¸ª": 3021,
      "Ġcould": 3022,
      "çŃĸçķ¥": 3023,
      "åĨ°": 3024,
      "åģı": 3025,
      "ade": 3026,
      "Ġsupp": 3027,
      "ä½įäºİ": 3028,
      "Ġquest": 3029,
      "Ġatt": 3030,
      "ci": 3031,
      "Ġplay": 3032,
      "29": 3033,
      "åĪĨç±»": 3034,
      "ethod": 3035,
      "è§Ĵèī²": 3036,
      "æı¡": 3037,
      "åĲİçļĦ": 3038,
      "ature": 3039,
      "èĻļ": 3040,
      "åĬ¨çī©": 3041,
      "ãĢĢ": 3042,
      "å³°": 3043,
      "æĦıè§ģ": 3044,
      "swer": 3045,
      "è§ĦèĮĥ": 3046,
      "æ¯Ľ": 3047,
      "çī©è´¨": 3048,
      "è§Ĩé¢ĳ": 3049,
      "ä¹ĭåīį": 3050,
      "éļĶ": 3051,
      "Ġele": 3052,
      "ä¸įåı¯": 3053,
      "è´¸": 3054,
      "åĮħåĲ«": 3055,
      "ex": 3056,
      "åį«çĶŁ": 3057,
      "2017": 3058,
      "ç»ĦæĪĲ": 3059,
      "æİĮ": 3060,
      "Ġproblem": 3061,
      "åĲĪçĲĨ": 3062,
      "å®ľ": 3063,
      "gram": 3064,
      "wn": 3065,
      "åĲī": 3066,
      "æĥħåĨµä¸ĭ": 3067,
      "uring": 3068,
      "ĠFor": 3069,
      "åĪĽå»º": 3070,
      "èĢĥè¯ķ": 3071,
      "éĩİ": 3072,
      "è²": 3073,
      "æĲŃ": 3074,
      "å®ŀè·µ": 3075,
      "ward": 3076,
      "å·¥èīº": 3077,
      "erg": 3078,
      "æĿ¥èĩª": 3079,
      "èī¯å¥½çļĦ": 3080,
      "Ðµ": 3081,
      "}}": 3082,
      "ç¤¾åĮº": 3083,
      "å±ŀäºİ": 3084,
      "ãĢĭï¼Į": 3085,
      "æĶ¹éĿ©": 3086,
      "ince": 3087,
      "ç§ĭ": 3088,
      "æĥł": 3089,
      "åıĳæĮ¥": 3090,
      "ctions": 3091,
      "å½ĵåľ°": 3092,
      "åıĳå±ķçļĦ": 3093,
      "90": 3094,
      "è¾ĵåħ¥": 3095,
      "resent": 3096,
      "ts": 3097,
      "æµª": 3098,
      "éª¤": 3099,
      "This": 3100,
      "Ġway": 3101,
      "æľºåĪ¶": 3102,
      "æ¡£": 3103,
      "ten": 3104,
      "é¹": 3105,
      "é©¾": 3106,
      "çī¹èī²": 3107,
      "æĦıä¹ī": 3108,
      "ec": 3109,
      "ç»´æĬ¤": 3110,
      "ä¼ĺç§Ģ": 3111,
      "è¿ĲèĲ¥": 3112,
      "çĴ": 3113,
      "æ³°": 3114,
      "ä¸ĭéĻį": 3115,
      "ically": 3116,
      "èĤ¤": 3117,
      "åĩłä¸ª": 3118,
      "Ġsame": 3119,
      "åħ¬åħ±": 3120,
      "))": 3121,
      "åĿĲ": 3122,
      "gr": 3123,
      "ruct": 3124,
      "åĪĺ": 3125,
      "Ġstart": 3126,
      "æİ¢ç´¢": 3127,
      "åľĨ": 3128,
      "å¡Ķ": 3129,
      "ĠYou": 3130,
      "æ·±åħ¥": 3131,
      "èıĮ": 3132,
      "çļĦäºĭ": 3133,
      "åı¯ä»¥éĢļè¿ĩ": 3134,
      "åĨľä¸ļ": 3135,
      "35": 3136,
      "æķ´ä½ĵ": 3137,
      "irect": 3138,
      "é¡µ": 3139,
      "Ġappro": 3140,
      "å¤©æ°Ķ": 3141,
      "æ²ŁéĢļ": 3142,
      "ç¨ĭåº¦": 3143,
      "è´´": 3144,
      "uch": 3145,
      "å¹¸": 3146,
      "Ġhigh": 3147,
      "ray": 3148,
      "èĥŀ": 3149,
      "æħ§": 3150,
      "the": 3151,
      "åĩºäºĨ": 3152,
      "èģĺ": 3153,
      "èģĶåĲĪ": 3154,
      "å®£ä¼ł": 3155,
      "line": 3156,
      "æĺł": 3157,
      "æŃ£å¼ı": 3158,
      "åŃ¸": 3159,
      "åĿı": 3160,
      "ash": 3161,
      "åĿĢ": 3162,
      "æ¹¿": 3163,
      "çĦ¦": 3164,
      "å¹ķ": 3165,
      "arch": 3166,
      "æĻĤ": 3167,
      "åįĸ": 3168,
      "é£Łçī©": 3169,
      "èĭ¦": 3170,
      "Ġback": 3171,
      "ug": 3172,
      "45": 3173,
      "ĠEx": 3174,
      "æľīä¸Ģ": 3175,
      "ĠAl": 3176,
      "èµĦäº§": 3177,
      "æĪª": 3178,
      "æľ«": 3179,
      "çļĦå·¥ä½ľ": 3180,
      "è§£éĩĬ": 3181,
      "ines": 3182,
      "å®½": 3183,
      "ator": 3184,
      "éĽª": 3185,
      "',": 3186,
      "âĢĿãĢģ": 3187,
      "print": 3188,
      "è·¨": 3189,
      "èµĦæĸĻ": 3190,
      "æĽ¿": 3191,
      "æ·»": 3192,
      "å©ļ": 3193,
      "ç§ĺ": 3194,
      "åĩºçļĦ": 3195,
      "æŃ¥éª¤": 3196,
      "åħ¬åı¸çļĦ": 3197,
      "air": 3198,
      "èĨľ": 3199,
      "å¤ļç§į": 3200,
      "Ġconst": 3201,
      "erson": 3202,
      "æ³¨åĨĮ": 3203,
      "æĺİæĺ¾": 3204,
      "Ġexper": 3205,
      "çĶ¨çļĦ": 3206,
      "day": 3207,
      "åĪ¸": 3208,
      "åĳĬè¯ī": 3209,
      "èĦļ": 3210,
      "è®¡ç®Ĺæľº": 3211,
      "æľĥ": 3212,
      "è´·": 3213,
      "åģļå¥½": 3214,
      "é©¶": 3215,
      "çĥŁ": 3216,
      "åĲ¸å¼ķ": 3217,
      "å°Ŀè¯ķ": 3218,
      "å±ķç¤º": 3219,
      "åı«": 3220,
      "ä¿ĿéĻ©": 3221,
      "åĳĪ": 3222,
      "èĵĿ": 3223,
      "éĢĴ": 3224,
      "Ġgiven": 3225,
      "aking": 3226,
      "ident": 3227,
      "è©": 3228,
      "ages": 3229,
      "raph": 3230,
      "å¹³åĿĩ": 3231,
      "æĸĹ": 3232,
      "çĬ¯": 3233,
      "è·ĳ": 3234,
      "ffect": 3235,
      "ify": 3236,
      "ute": 3237,
      "åıįåºĶ": 3238,
      "Ġvalue": 3239,
      "æĥ¯": 3240,
      "å¹¶ä¸į": 3241,
      "è¶ĭåĬ¿": 3242,
      "æĶ¹åĸĦ": 3243,
      "æ²ī": 3244,
      "æľĢå¤§": 3245,
      "åħ¬éĩĮ": 3246,
      "å²Ĺ": 3247,
      "çİī": 3248,
      "åĲĮæ¯Ķ": 3249,
      "åĩºæĿ¥": 3250,
      "éĽ·": 3251,
      "Ġeven": 3252,
      "æ¤įçī©": 3253,
      "çĲĨè®º": 3254,
      "Ġshe": 3255,
      "çĶµè§Ĩ": 3256,
      "python": 3257,
      "åĢº": 3258,
      "å±ĭ": 3259,
      "Ġinformation": 3260,
      "ç¬ĳ": 3261,
      "ç¤¾äº¤": 3262,
      "ever": 3263,
      "ç»¿èī²": 3264,
      "Ġboth": 3265,
      "æŃ£å¸¸": 3266,
      "chn": 3267,
      "åĮĸåŃ¦": 3268,
      "ä¹Łæľī": 3269,
      "Ġafter": 3270,
      "oh": 3271,
      "è¯¦ç»Ĩ": 3272,
      "è®°å½ķ": 3273,
      "æ¶īåıĬ": 3274,
      "å¦Ī": 3275,
      "æĲľ": 3276,
      "çĦ¶èĢĮ": 3277,
      "éĺħè¯»": 3278,
      "çĽĽ": 3279,
      "å¹³æĸ¹": 3280,
      "ited": 3281,
      "ä½ĵèĤ²": 3282,
      "Ġlook": 3283,
      "éĻĨ": 3284,
      "Ġcall": 3285,
      "ãĢĤâĢľ": 3286,
      "äºĭä»¶": 3287,
      "åħ¶å®ŀ": 3288,
      "çīĻ": 3289,
      "Ġvery": 3290,
      "è§īå¾Ĺ": 3291,
      "els": 3292,
      "åķĨåĵģ": 3293,
      "èĪ¹": 3294,
      "å®ĮåĸĦ": 3295,
      "éĢĤåºĶ": 3296,
      "Ġclass": 3297,
      "Ġpar": 3298,
      "è®¾ç½®": 3299,
      "ull": 3300,
      "app": 3301,
      "Ð°": 3302,
      "ãĢĮ": 3303,
      "æĪĲç»©": 3304,
      "ãĢį": 3305,
      "ined": 3306,
      "å°¤åħ¶": 3307,
      "å¼ĢæĶ¾": 3308,
      "Ġdec": 3309,
      "ĠQ": 3310,
      "âĢĺ": 3311,
      "éª¨": 3312,
      "å®ĥçļĦ": 3313,
      "ows": 3314,
      "éĶĻè¯¯": 3315,
      "è°ĥæŁ¥": 3316,
      "é¢Ħæµĭ": 3317,
      "æĢĢ": 3318,
      "æĪĲéķ¿": 3319,
      "æĬĺ": 3320,
      "å®īæİĴ": 3321,
      "æĪĲåĳĺ": 3322,
      "èĦĤ": 3323,
      "oup": 3324,
      "å¥¶": 3325,
      "Ġcar": 3326,
      "any": 3327,
      "åĨ³çŃĸ": 3328,
      "éĿ¢å¯¹": 3329,
      "cond": 3330,
      "åĬ¨åĬĽ": 3331,
      "åĲĪåĲĮ": 3332,
      "çļĦæĸ°": 3333,
      "çĪĨ": 3334,
      "æ¯ıå¤©": 3335,
      "å´": 3336,
      "ta": 3337,
      "çľŁæŃ£": 3338,
      "å°Ĭ": 3339,
      "åĬŀåħ¬": 3340,
      "æĿ¯": 3341,
      "è¯º": 3342,
      "çŃīçŃī": 3343,
      "åı¦å¤ĸ": 3344,
      "Ġend": 3345,
      "Ġyears": 3346,
      "eg": 3347,
      "åĪĨäº«": 3348,
      "åħ´è¶£": 3349,
      "Ġright": 3350,
      "Ġsign": 3351,
      "Ġ18": 3352,
      "rt": 3353,
      "èĢĹ": 3354,
      "çĥ§": 3355,
      "æ®Ĭ": 3356,
      "åħĪè¿Ľ": 3357,
      "éĽĦ": 3358,
      "è¿Ķ": 3359,
      "æ·±åº¦": 3360,
      "é«ĺæķĪ": 3361,
      "Ġlong": 3362,
      "Ġbecause": 3363,
      "ç½²": 3364,
      "ven": 3365,
      "åĬĽéĩı": 3366,
      "hip": 3367,
      "æ¶Ĥ": 3368,
      "é¸¡": 3369,
      "ç§»åĬ¨": 3370,
      "ier": 3371,
      "åįıä¼ļ": 3372,
      "2016": 3373,
      "velop": 3374,
      "èļ": 3375,
      "ĠHow": 3376,
      "ç¢³": 3377,
      "æĪĳä»¬åı¯ä»¥": 3378,
      "Ġrep": 3379,
      "å·¦åı³": 3380,
      "è¡¨éĿ¢": 3381,
      "ä¾ĽåºĶ": 3382,
      "Ġprocess": 3383,
      "èĲ¥éĶĢ": 3384,
      "åºĶå½ĵ": 3385,
      "ç¹ģ": 3386,
      "ç»Ĩèĥŀ": 3387,
      "Ġ12": 3388,
      "ious": 3389,
      "è¿Ĳè¾ĵ": 3390,
      "num": 3391,
      "tt": 3392,
      "éģį": 3393,
      "ç¶": 3394,
      "æīĵéĢł": 3395,
      "feren": 3396,
      "ĠĠĊĠĠ": 3397,
      "æĦŁè§ī": 3398,
      "å¤ªéĺ³": 3399,
      "æĹ¥å¸¸": 3400,
      "Ġimport": 3401,
      "æ¬¢è¿İ": 3402,
      "æĹ§": 3403,
      "ä¸īä¸ª": 3404,
      "å¤ļå°ĳ": 3405,
      "çģ¾": 3406,
      "Ġfact": 3407,
      "Ġsur": 3408,
      "è¯´æĺİ": 3409,
      "å¾Į": 3410,
      "ä½ĵçļĦ": 3411,
      "An": 3412,
      "Ġfil": 3413,
      "ins": 3414,
      "---": 3415,
      "äºĭä¸ļ": 3416,
      "èĪĴ": 3417,
      "é¥®é£Ł": 3418,
      "99": 3419,
      "æ¯ķä¸ļ": 3420,
      "ank": 3421,
      "è¿ŀæİ¥": 3422,
      "å½ĵåīį": 3423,
      "èĩªæĪĳ": 3424,
      "ä¸Ńå¤®": 3425,
      "åĶ±": 3426,
      "åıĤèĢĥ": 3427,
      "Ġline": 3428,
      "çĿ¡": 3429,
      "å¼ķèµ·": 3430,
      "ç»ª": 3431,
      "mm": 3432,
      "iqu": 3433,
      "ife": 3434,
      "Ġ15": 3435,
      "åĪĽä½ľ": 3436,
      "Ġfl": 3437,
      "å°ıæĺİ": 3438,
      "è¾ħ": 3439,
      "ffic": 3440,
      "é£İæł¼": 3441,
      "cri": 3442,
      "åĢį": 3443,
      "çĽ¸å¯¹": 3444,
      "æĢĿæĥ³": 3445,
      "è¿ĩåİ»": 3446,
      "Ġsum": 3447,
      "éĺ»": 3448,
      "Ġwhile": 3449,
      "æµĵ": 3450,
      "ather": 3451,
      "éĽħ": 3452,
      "val": 3453,
      "We": 3454,
      "Ġstr": 3455,
      "31": 3456,
      "ality": 3457,
      "ik": 3458,
      "åıªæĺ¯": 3459,
      "ç½ª": 3460,
      "æ³¡": 3461,
      "ok": 3462,
      "èªī": 3463,
      "Ġexample": 3464,
      "è±Ĩ": 3465,
      "çĭ¬çī¹": 3466,
      "æıĲä¾ĽäºĨ": 3467,
      "oy": 3468,
      "ets": 3469,
      "ale": 3470,
      "æķı": 3471,
      "é¦Ļæ¸¯": 3472,
      "ivers": 3473,
      "åľ£": 3474,
      "æ¼«": 3475,
      "çħ¤": 3476,
      "ä¸ĭæĿ¥": 3477,
      "Ġcurrent": 3478,
      "çī¹å¾ģ": 3479,
      "Ġext": 3480,
      "Ġdep": 3481,
      "è¿·": 3482,
      "cept": 3483,
      "å¢Ļ": 3484,
      "Ġed": 3485,
      "åľ¨çº¿": 3486,
      "pen": 3487,
      "Ġz": 3488,
      "è´¡": 3489,
      "éł": 3490,
      "æĤī": 3491,
      "èĥĮæĻ¯": 3492,
      "åĢĴ": 3493,
      "Ġread": 3494,
      "åľºæĻ¯": 3495,
      "ĠX": 3496,
      "è¿Ļæł·çļĦ": 3497,
      "ä¾§": 3498,
      "Ġgood": 3499,
      "åĵģè´¨": 3500,
      "36": 3501,
      "æĹħè¡Į": 3502,
      "å¹¿åĳĬ": 3503,
      "çĭĹ": 3504,
      "éĢļçŁ¥": 3505,
      "land": 3506,
      "åĬ©äºİ": 3507,
      "èħĲ": 3508,
      "çº¯": 3509,
      "ç£¨": 3510,
      "æ¶¨": 3511,
      "é½Ĳ": 3512,
      "æĶ¯ä»ĺ": 3513,
      "Ġche": 3514,
      "çļĦå°ı": 3515,
      "Ġmult": 3516,
      "ï¼ļ**": 3517,
      "çº·": 3518,
      "æµģç¨ĭ": 3519,
      "å¹´åº¦": 3520,
      "Ġevery": 3521,
      "ä¹łæĥ¯": 3522,
      "Ġdown": 3523,
      "±ä¹Ĳ": 3524,
      "æĸ¹ä¾¿": 3525,
      "çĲĨå¿µ": 3526,
      "çĽĳçĿ£": 3527,
      "ä¸¥æł¼": 3528,
      "ized": 3529,
      "åı¥åŃĲ": 3530,
      "Ġnumbers": 3531,
      ".\"": 3532,
      "åĩĿ": 3533,
      "è´¹çĶ¨": 3534,
      "Ġterm": 3535,
      "éģµ": 3536,
      "èĤ¥": 3537,
      "chool": 3538,
      "ç»Łè®¡": 3539,
      "Ġav": 3540,
      "åĬĽçļĦ": 3541,
      ".,": 3542,
      "æĻºæħ§": 3543,
      "è°·": 3544,
      "è¾ĵåĩº": 3545,
      "èĲ½å®ŀ": 3546,
      "å¹³è¡¡": 3547,
      "ually": 3548,
      "æĬĵ": 3549,
      "Ġlar": 3550,
      "åĭĩ": 3551,
      "ÃĹ": 3552,
      "èĩªèº«": 3553,
      "å¸¸è§ģ": 3554,
      "åĪº": 3555,
      "ger": 3556,
      "éķľ": 3557,
      "æĬĢæľ¯çļĦ": 3558,
      "ä¹Łåı¯ä»¥": 3559,
      "èĲ¥åħ»": 3560,
      "å±ı": 3561,
      "ĠSe": 3562,
      "Ġbel": 3563,
      "æģ¢": 3564,
      "Ġnow": 3565,
      "Ġins": 3566,
      "æĥ³è¦ģ": 3567,
      "æĸ¹éĿ¢çļĦ": 3568,
      "ving": 3569,
      "ĠĠĠĠĠĠĠ": 3570,
      "æİ¨å¹¿": 3571,
      "éĹŃ": 3572,
      "Ġdon": 3573,
      "æĻ®éĢļ": 3574,
      "çļĦæĹ¶éĹ´": 3575,
      "left": 3576,
      "ç¦ģ": 3577,
      "500": 3578,
      "ĠZ": 3579,
      "åĦ¿ç«¥": 3580,
      "çĶµè¯Ŀ": 3581,
      "å®ļæľŁ": 3582,
      "é¢ľèī²": 3583,
      "æľīäºĽ": 3584,
      "åĨ¬": 3585,
      "èĩªçĶ±": 3586,
      "ĠNew": 3587,
      "Ġprovid": 3588,
      "ä¸įå¾Ĺ": 3589,
      "gan": 3590,
      "çĺ": 3591,
      "ÑĤ": 3592,
      "åĢĭ": 3593,
      ");": 3594,
      "ton": 3595,
      "è¦Ĩ": 3596,
      "Ġgu": 3597,
      "az": 3598,
      "æ³¥": 3599,
      "ĠçļĦ": 3600,
      "Ġser": 3601,
      "åĪĹè¡¨": 3602,
      "ä¸ĭéĿ¢": 3603,
      "Ġanswer": 3604,
      "rest": 3605,
      "ĠDe": 3606,
      "çĽĲ": 3607,
      "åĽ°éļ¾": 3608,
      "æĹłè®º": 3609,
      "ĥåľ": 3610,
      "ç»ıåİĨ": 3611,
      "Ġprogram": 3612,
      "Ġcode": 3613,
      "ä¸ĭçļĦ": 3614,
      "é¼ĵåĬ±": 3615,
      "åħµ": 3616,
      "å§Ķåĳĺä¼ļ": 3617,
      "åĨħéĥ¨": 3618,
      "æĿ¥çľĭ": 3619,
      "åħ¬å¼Ģ": 3620,
      "Ġproduct": 3621,
      "Ġ,": 3622,
      "åľĪ": 3623,
      "ä½¿å¾Ĺ": 3624,
      "Ġstate": 3625,
      "å¹´è½»": 3626,
      "cial": 3627,
      "ä½łåı¯ä»¥": 3628,
      "åĮ»åŃ¦": 3629,
      "è·Ŀç¦»": 3630,
      "ield": 3631,
      "æļ´": 3632,
      "åį·": 3633,
      "other": 3634,
      "éĽĨä¸Ń": 3635,
      "Ġcount": 3636,
      "itt": 3637,
      "ĠĠĊ": 3638,
      "akes": 3639,
      "ner": 3640,
      "æ½®": 3641,
      "Ġoper": 3642,
      "åŀĥåľ": 3643,
      "åŀĥåľ¾": 3644,
      "æĶ¿æ²»": 3645,
      "çī¹æ®Ĭ": 3646,
      "åľ°çĲĥ": 3647,
      "å°±ä¼ļ": 3648,
      "å¤ļçļĦ": 3649,
      "ä¹Łä¸į": 3650,
      "å¡ŀ": 3651,
      "èĳ£": 3652,
      "ä¼Ĭ": 3653,
      "å¯¿": 3654,
      "Ġmain": 3655,
      "Ġhere": 3656,
      "Ġmuch": 3657,
      "read": 3658,
      "äº¦": 3659,
      "ä¹Łä¼ļ": 3660,
      "ave": 3661,
      "Ġmon": 3662,
      "lease": 3663,
      "éĻĲåĪ¶": 3664,
      "Ġcalcul": 3665,
      "æĹĹ": 3666,
      "âĢĿãĢģâĢľ": 3667,
      "ç·": 3668,
      "æģ¢å¤į": 3669,
      "æģ¶": 3670,
      "åĪĽä¸ļ": 3671,
      "Ð¸": 3672,
      "å°±ä¸ļ": 3673,
      "éĩĳå±ŀ": 3674,
      "Ġfollowing": 3675,
      "æĦŁåĪ°": 3676,
      "å¡«": 3677,
      "æĿĢ": 3678,
      "å®¿": 3679,
      "Ġref": 3680,
      "ural": 3681,
      "ases": 3682,
      "åı¬": 3683,
      "éľĩ": 3684,
      "å¦Ĥæŀľä½ł": 3685,
      "çİ°è±¡": 3686,
      "æĪĲæŀľ": 3687,
      "ä¸Ĭå¸Ĥ": 3688,
      "çªĹ": 3689,
      "éĢĲæ¸Ĳ": 3690,
      "äºĨä¸Ģä¸ª": 3691,
      "çī©æµģ": 3692,
      "éĺµ": 3693,
      "æĭĵ": 3694,
      "Ġdesign": 3695,
      "æĥħç»ª": 3696,
      "times": 3697,
      "33": 3698,
      "æģ©": 3699,
      "å¿ħè¦ģ": 3700,
      "æ¹¾": 3701,
      "æ¾³": 3702,
      "åĽŀçŃĶ": 3703,
      "ä¾µ": 3704,
      "é¥Ń": 3705,
      "éĥ½ä¼ļ": 3706,
      "Ġprovide": 3707,
      "éĨĴ": 3708,
      "é¾Ħ": 3709,
      "å¼¹": 3710,
      "æĺ¯ä»Ģä¹Ī": 3711,
      "ç»ıçĲĨ": 3712,
      "(\"": 3713,
      "æľĢä½³": 3714,
      "St": 3715,
      "å®«": 3716,
      "uc": 3717,
      "ç¿»è¯ĳ": 3718,
      "åĲ¨": 3719,
      "Ġhand": 3720,
      "Ġposs": 3721,
      "å¼±": 3722,
      "ä¸»ä»»": 3723,
      "ä¸Ńåįİ": 3724,
      "ology": 3725,
      "ason": 3726,
      "arn": 3727,
      "Ġtest": 3728,
      "å¼ºè°ĥ": 3729,
      "ability": 3730,
      "çĤ¼": 3731,
      "åŁºåľ°": 3732,
      "Ġart": 3733,
      "æ´¥": 3734,
      "äº§åĵģçļĦ": 3735,
      "çĽĳç®¡": 3736,
      "å¤§éĩı": 3737,
      "å¯¹è¯Ŀ": 3738,
      "ä¸Ģä½į": 3739,
      "æľīåĬ©äºİ": 3740,
      "Ġexpl": 3741,
      "çļ®èĤ¤": 3742,
      "æ¦Ĥå¿µ": 3743,
      "ER": 3744,
      "èµĦæł¼": 3745,
      "æ°§åĮĸ": 3746,
      "co": 3747,
      "tal": 3748,
      "æĿ¨": 3749,
      "åĪĨä¸º": 3750,
      "åİŁåĪĻ": 3751,
      "è§£åĨ³æĸ¹æ¡Ī": 3752,
      "éĩįæĸ°": 3753,
      "æĹ¶æľŁ": 3754,
      "ential": 3755,
      "Ġdevelop": 3756,
      "Ġthink": 3757,
      "æĳ©": 3758,
      "Ġfin": 3759,
      "ĠSh": 3760,
      "çļĦæĸ¹å¼ı": 3761,
      "itive": 3762,
      "Ġmem": 3763,
      "çĮ«": 3764,
      "ional": 3765,
      "åĨħçļĦ": 3766,
      "Ġbest": 3767,
      "æī¬": 3768,
      "èĴĻ": 3769,
      "æĬķåħ¥": 3770,
      "è´¦": 3771,
      "ron": 3772,
      "è´¡çĮ®": 3773,
      "èĤ¯": 3774,
      "ars": 3775,
      "æĬ½": 3776,
      "åĵ¥": 3777,
      "å®ļä¹ī": 3778,
      "çĳŀ": 3779,
      "amp": 3780,
      "2015": 3781,
      "çĶµæ±ł": 3782,
      "Ġrun": 3783,
      "ä¸ºä»Ģä¹Ī": 3784,
      "æ²¿": 3785,
      "Ġ:": 3786,
      "æ´Ľ": 3787,
      "éĶħ": 3788,
      "å®ĩ": 3789,
      "æ´ŀ": 3790,
      "éĩįå¤§": 3791,
      "åŃĶ": 3792,
      "èĪĩ": 3793,
      "ience": 3794,
      "å¿Ĩ": 3795,
      "åĬŀæ³ķ": 3796,
      "Ġaut": 3797,
      "iness": 3798,
      "åħ·å¤ĩ": 3799,
      "èį¯çī©": 3800,
      "Ġmethod": 3801,
      "æ»¤": 3802,
      ")$": 3803,
      "æĢĿèĢĥ": 3804,
      "LE": 3805,
      "æĿ¥æºĲ": 3806,
      "æį·": 3807,
      "ä¸²": 3808,
      "ublic": 3809,
      "äº«åıĹ": 3810,
      "Ġ}": 3811,
      "æķ°åŃ¦": 3812,
      "çĬ¶åĨµ": 3813,
      "èĢħçļĦ": 3814,
      "ä¸įå°ĳ": 3815,
      "Ġcent": 3816,
      "å¾ªçİ¯": 3817,
      "è®¨è®º": 3818,
      "è¿ħ": 3819,
      "ç»ıå¸¸": 3820,
      "ision": 3821,
      "åħ¨éĥ¨": 3822,
      "Ġtake": 3823,
      "å¸Ŀ": 3824,
      "ï½": 3825,
      "ç»ĵæĿŁ": 3826,
      "åħħæ»¡": 3827,
      "Ġprint": 3828,
      "ah": 3829,
      "æĶ¶éĽĨ": 3830,
      "å¦Ĥä¸ĭ": 3831,
      "è½´": 3832,
      "ider": 3833,
      "èĲ¨": 3834,
      "Ġpartic": 3835,
      "Ġthree": 3836,
      "äººåı£": 3837,
      "Ġown": 3838,
      "èµ¢": 3839,
      "åĲįçļĦ": 3840,
      "åŃĹç¬¦": 3841,
      "Ġdirect": 3842,
      "è¿ª": 3843,
      "____": 3844,
      "stand": 3845,
      "ä¸ĸçºª": 3846,
      "æĥĬ": 3847,
      "åº¦çļĦ": 3848,
      "//": 3849,
      "ism": 3850,
      "åĲĮåŃ¦": 3851,
      "Ġbeing": 3852,
      "è¿Ľè¡ĮäºĨ": 3853,
      "è¯Ħä»·": 3854,
      "ä¸Ģç¯ĩ": 3855,
      "75": 3856,
      "æĮĩåĩº": 3857,
      "æľºåĻ¨äºº": 3858,
      "log": 3859,
      "æī¶": 3860,
      "çļĩ": 3861,
      "çĽ¸åºĶ": 3862,
      "view": 3863,
      "ç¼ĺ": 3864,
      "åħ¼": 3865,
      "å¤§åŀĭ": 3866,
      "ä¸»ä¹ī": 3867,
      "Ġsmall": 3868,
      "æľīæīĢ": 3869,
      "Ġperform": 3870,
      "åıĺå¾Ĺ": 3871,
      "åįģåĪĨ": 3872,
      "ength": 3873,
      "è´¥": 3874,
      "rect": 3875,
      "éŁ©": 3876,
      "ots": 3877,
      "Ġbl": 3878,
      "ç»ķ": 3879,
      "ç²Ĵ": 3880,
      "çĹĩçĬ¶": 3881,
      "AT": 3882,
      "ä¸¾åĬŀ": 3883,
      "def": 3884,
      "ä¸Ĭè¿°": 3885,
      "\\)": 3886,
      "way": 3887,
      "rm": 3888,
      "çį": 3889,
      "çĽ¸ä¿¡": 3890,
      "198": 3891,
      "çļĦä¸»è¦ģ": 3892,
      "æľĢé«ĺ": 3893,
      "ç¼ĸç¨ĭ": 3894,
      "è¿½æ±Ĥ": 3895,
      "æ·»åĬł": 3896,
      "Ġtop": 3897,
      "åĶĲ": 3898,
      "çĵ¦": 3899,
      "ä¸Ģæ®µ": 3900,
      "cent": 3901,
      "Ġcase": 3902,
      "led": 3903,
      "æŃ¤æ¬¡": 3904,
      "æĽ´æĸ°": 3905,
      "èİ·åıĸ": 3906,
      "é¢ĨåŁŁçļĦ": 3907,
      "ern": 3908,
      "æķĻæİĪ": 3909,
      "æľ¬æ¬¡": 3910,
      "æł·çļĦ": 3911,
      "irc": 3912,
      "Re": 3913,
      "åįĩçº§": 3914,
      "ç±į": 3915,
      "è¿ŀç»Ń": 3916,
      "å°Ĩä¼ļ": 3917,
      "bs": 3918,
      "Ġest": 3919,
      "è§ĦåĪĻ": 3920,
      "è½¦è¾Ĩ": 3921,
      "ä¼Ļ": 3922,
      "Ġbefore": 3923,
      "ä¼ĺè´¨": 3924,
      "çİ°å®ŀ": 3925,
      "é¢Ĺ": 3926,
      "åĪ°çļĦ": 3927,
      "dd": 3928,
      "åįıè®®": 3929,
      "é¦Ī": 3930,
      "åĬ³åĬ¨": 3931,
      "è£ģ": 3932,
      "é©¾é©¶": 3933,
      "Ġfam": 3934,
      "Ġel": 3935,
      "æİĮæı¡": 3936,
      "Ġcharact": 3937,
      "æ°ĶåĢĻ": 3938,
      "è´¢åĬ¡": 3939,
      "Ġtri": 3940,
      "Ġreal": 3941,
      "èĭ±åĽ½": 3942,
      "--------": 3943,
      "OS": 3944,
      "Ġconf": 3945,
      "Ġtechn": 3946,
      "Ġbus": 3947,
      "ock": 3948,
      "ames": 3949,
      "é¡¿": 3950,
      "Ġfound": 3951,
      "ote": 3952,
      "Ġorder": 3953,
      "ä¹Ļ": 3954,
      "ization": 3955,
      "Ġperson": 3956,
      "ä¸ªæĢ§": 3957,
      "ergy": 3958,
      "Ġmade": 3959,
      "Ġday": 3960,
      "ek": 3961,
      "alth": 3962,
      "of": 3963,
      "yn": 3964,
      "å¯»æī¾": 3965,
      "çľŁå®ŀ": 3966,
      "çıł": 3967,
      "for": 3968,
      "AP": 3969,
      "çļĦæĸ¹æ³ķ": 3970,
      "Ġmet": 3971,
      "ä»İäºĭ": 3972,
      "åĭķ": 3973,
      "ä¸ºä¸»": 3974,
      "çļĦè¯Ŀ": 3975,
      "Ġmed": 3976,
      "ene": 3977,
      "é²ģ": 3978,
      "Ġve": 3979,
      "çİ»": 3980,
      "ĠCl": 3981,
      "Ġdi": 3982,
      "è¿ĽæŃ¥": 3983,
      "gle": 3984,
      "au": 3985,
      "ains": 3986,
      "ency": 3987,
      "éĿ¢ä¸´": 3988,
      "Ġmust": 3989,
      "ists": 3990,
      "Ġshow": 3991,
      "ç»Łä¸Ģ": 3992,
      "ä¸ľè¥¿": 3993,
      "æĬ¥éģĵ": 3994,
      "å¼ĥ": 3995,
      "æĸĩæĺİ": 3996,
      "Ġåľ¨": 3997,
      "åĶ¯": 3998,
      "ask": 3999,
      "æĮ¯": 4000,
      "åĲįç§°": 4001,
      "Ġquestion": 4002,
      "Ġinf": 4003,
      "å«": 4004,
      "âĦ": 4005,
      "è·³": 4006,
      "éĵĿ": 4007,
      "å¥ĭ": 4008,
      "åŃĺåĤ¨": 4009,
      "èĤ¡ä»½": 4010,
      "å¦ĤæŃ¤": 4011,
      "æľīçĿĢ": 4012,
      "çĹħæ¯Ĵ": 4013,
      "Python": 4014,
      "He": 4015,
      "Ð½": 4016,
      "æģĴ": 4017,
      "Ġdid": 4018,
      "è¯ģæĺİ": 4019,
      "ĠAs": 4020,
      "æľĹ": 4021,
      "Ġname": 4022,
      "åĪ©æ¶¦": 4023,
      "éĩįè§Ĩ": 4024,
      "Ġstep": 4025,
      "å½ĵæĹ¶": 4026,
      "34": 4027,
      "å°º": 4028,
      "ãĢĭãĢģ": 4029,
      "æľºåĻ¨åŃ¦ä¹ł": 4030,
      "è®¤è¯Ĩ": 4031,
      "Ġstand": 4032,
      "ustom": 4033,
      "yle": 4034,
      "ä¼ģä¸ļçļĦ": 4035,
      "èµĸ": 4036,
      "Ġtotal": 4037,
      "ired": 4038,
      "æľĢå¤§çļĦ": 4039,
      "æĺ¯æĮĩ": 4040,
      "åĴĸ": 4041,
      "çļĦçĶŁæ´»": 4042,
      "ohn": 4043,
      "pos": 4044,
      "æĪĳæĥ³": 4045,
      "ĠWh": 4046,
      "łéģĵ": 4047,
      "è¯ĬæĸŃ": 4048,
      "è´Ŀ": 4049,
      "Ġ||": 4050,
      "çĴĥ": 4051,
      "Ġnon": 4052,
      "æĬ¥åĲį": 4053,
      "Ġeas": 4054,
      "Ġproper": 4055,
      "æĹ¨": 4056,
      "æĢ»ç»ĵ": 4057,
      "æĹĭ": 4058,
      "Ġmark": 4059,
      "arm": 4060,
      "Ġagain": 4061,
      "æıĲåıĸ": 4062,
      "èµı": 4063,
      "Ġlead": 4064,
      "èĢĮæĺ¯": 4065,
      "Ġpol": 4066,
      "Ġmodel": 4067,
      "å±ħæ°ĳ": 4068,
      "çī©çĲĨ": 4069,
      "here": 4070,
      "åıªè¦ģ": 4071,
      "çŃĶæ¡Ī": 4072,
      "rix": 4073,
      "åı¯ä»¥åľ¨": 4074,
      "èĤº": 4075,
      "Ġincre": 4076,
      "Ã©": 4077,
      "Ġworld": 4078,
      "Ġ100": 4079,
      "æŁĲäºĽ": 4080,
      "ĠCon": 4081,
      "åħĪçĶŁ": 4082,
      "sq": 4083,
      "åİ»å¹´": 4084,
      "æ¯Ķä¾ĭ": 4085,
      "è¡ĮçļĦ": 4086,
      "éģĵè·¯": 4087,
      "æĲľç´¢": 4088,
      "åºĦ": 4089,
      "éº»": 4090,
      "Ġeffect": 4091,
      "å¿ĺ": 4092,
      "çĭ¬ç«ĭ": 4093,
      "æİī": 4094,
      "éĿ¢çļĦ": 4095,
      "Ġhome": 4096,
      "Ġsk": 4097,
      "Ġanal": 4098,
      "ross": 4099,
      "ann": 4100,
      "Ġcle": 4101,
      "If": 4102,
      "ved": 4103,
      "åºĶå¯¹": 4104,
      "çŀ": 4105,
      "ĊĊ": 4106,
      "Ġsupport": 4107,
      "ç¥ŀç»ı": 4108,
      "æı´": 4109,
      "ç§°ä¸º": 4110,
      "ining": 4111,
      "èĥ¡": 4112,
      "oci": 4113,
      "\")": 4114,
      "æĮĤ": 4115,
      "èĭ¹": 4116,
      "éĤ£äºĽ": 4117,
      "oot": 4118,
      "å°¾": 4119,
      "çªģçł´": 4120,
      "äºĴåĬ¨": 4121,
      "åĩºåı£": 4122,
      "Ġsecond": 4123,
      "æĦŁåıĹ": 4124,
      "Ġpa": 4125,
      "çī¹å®ļ": 4126,
      "èĭ¹æŀľ": 4127,
      "AR": 4128,
      "æĲº": 4129,
      "åľ³": 4130,
      "çĽ¸åĲĮ": 4131,
      "åŃ¦ç§ĳ": 4132,
      "ç½ļ": 4133,
      "ãĢĳ": 4134,
      "èĭ±è¯Ń": 4135,
      "æĽ´å¥½çļĦ": 4136,
      "ãĢĲ": 4137,
      "Ġ16": 4138,
      "32": 4139,
      "åĪ·": 4140,
      "æ³ķè§Ħ": 4141,
      "meric": 4142,
      "çĽ¸æ¯Ķ": 4143,
      "55": 4144,
      "çĻ¼": 4145,
      "æ¢ģ": 4146,
      "Ġopt": 4147,
      "åĢ¼å¾Ĺ": 4148,
      "æĬĢå·§": 4149,
      "å¤§å¤ļ": 4150,
      "andom": 4151,
      "é¢Ħéĺ²": 4152,
      "è¿¹": 4153,
      "èŀįåĲĪ": 4154,
      "æ¶Īæģ¯": 4155,
      "Ġresp": 4156,
      "ç§ĳçłĶ": 4157,
      "é»ĺ": 4158,
      "æ¢ħ": 4159,
      "ç»ĺ": 4160,
      "æĿ°": 4161,
      "è§Ĥä¼Ĺ": 4162,
      "Ġpost": 4163,
      "alk": 4164,
      "çİ»çĴĥ": 4165,
      "æ·±åľ³": 4166,
      "çļĦäº§åĵģ": 4167,
      ")ï¼Į": 4168,
      "ä¹±": 4169,
      "åľŁåľ°": 4170,
      "æ°ı": 4171,
      "48": 4172,
      "ctor": 4173,
      "é«ĺåº¦": 4174,
      "play": 4175,
      "38": 4176,
      "omet": 4177,
      "èĢ³": 4178,
      "å¤§åĪ©": 4179,
      "ï¼İ": 4180,
      "æĮĩæłĩ": 4181,
      "æľºåħ³": 4182,
      "Ġspecific": 4183,
      "(\\": 4184,
      "èĪªç©º": 4185,
      "å¡ĳæĸĻ": 4186,
      "ç³»ç»ŁçļĦ": 4187,
      "par": 4188,
      "Ġelect": 4189,
      "Ġ30": 4190,
      "ument": 4191,
      "ror": 4192,
      "èķ": 4193,
      "ral": 4194,
      "é©±": 4195,
      "äººå£«": 4196,
      "çĥ¤": 4197,
      "å§Ĩ": 4198,
      "ç¸": 4199,
      "æķ¬": 4200,
      "Ġgreat": 4201,
      "åı¦ä¸Ģ": 4202,
      "Ñģ": 4203,
      "è½¬æį¢": 4204,
      "Ġlast": 4205,
      "æĦıåĳ³": 4206,
      "åı¯æĮģç»Ń": 4207,
      "Ġpass": 4208,
      "èº«ä»½": 4209,
      "åıĬåħ¶": 4210,
      "Ġsent": 4211,
      "ä¹¦è®°": 4212,
      "åĺī": 4213,
      "ĠLe": 4214,
      "æŀĦå»º": 4215,
      "éĺ²æŃ¢": 4216,
      "èĭĹ": 4217,
      "å°ĺ": 4218,
      "éī": 4219,
      "ç»ĻæĪĳ": 4220,
      "Ġbased": 4221,
      "éº¦": 4222,
      "ä¸°å¯ĮçļĦ": 4223,
      "ä¼į": 4224,
      "To": 4225,
      "åģļåĩº": 4226,
      "è§Ĥå¯Ł": 4227,
      "Ġmight": 4228,
      "itions": 4229,
      "æİ¥è§¦": 4230,
      "åıĮæĸ¹": 4231,
      "æİ¨åĩº": 4232,
      "mathb": 4233,
      "sc": 4234,
      "ä»įçĦ¶": 4235,
      "ateg": 4236,
      "æ§": 4237,
      "ç¥Ŀ": 4238,
      "åıįé¦Ī": 4239,
      "åĵ¡": 4240,
      "Ex": 4241,
      "å¥ı": 4242,
      "å¹¼": 4243,
      "ane": 4244,
      "èĶ¬": 4245,
      "åľ¨äºİ": 4246,
      "æ¯«": 4247,
      "ĠAnd": 4248,
      "å¥³æĢ§": 4249,
      "èĩªåĬ¨åĮĸ": 4250,
      "Ġgra": 4251,
      "Ġcond": 4252,
      "ç¥ĸ": 4253,
      "èį·": 4254,
      "è°ģ": 4255,
      "çĽĳæµĭ": 4256,
      "Ġvis": 4257,
      "å¢¨": 4258,
      "ä¸ªæľĪ": 4259,
      "oint": 4260,
      "åı¯éĿł": 4261,
      "å·ŀå¸Ĥ": 4262,
      "èµĦæľ¬": 4263,
      "è¦ĨçĽĸ": 4264,
      "åıĤæķ°": 4265,
      "åĪĨå¸ĥ": 4266,
      "IS": 4267,
      "å½¢è±¡": 4268,
      "éħįç½®": 4269,
      "39": 4270,
      "åľ°åĿĢ": 4271,
      "èµŀ": 4272,
      "Ġadv": 4273,
      "æº¶": 4274,
      "vert": 4275,
      "Ġcost": 4276,
      "Ġthose": 4277,
      "èĤĮ": 4278,
      "ÑĢ": 4279,
      "å¯¹è±¡": 4280,
      "å®¶éķ¿": 4281,
      "è®¤è¯ģ": 4282,
      "åĨľæĿĳ": 4283,
      "æ¸¸å®¢": 4284,
      "ivid": 4285,
      "åįĢ": 4286,
      "ouse": 4287,
      "éī´": 4288,
      "åĮħè£ħ": 4289,
      "Ġwater": 4290,
      "åķĨåĬ¡": 4291,
      "èī¾": 4292,
      "æĦŁæŁĵ": 4293,
      "åŃ¦ä¼ļ": 4294,
      "åķ¡": 4295,
      "æ¥ļ": 4296,
      "2014": 4297,
      "éŀ": 4298,
      "ves": 4299,
      "Ġmean": 4300,
      "ä¾Ĩ": 4301,
      "åľ¨è¿Ļä¸ª": 4302,
      "à¸": 4303,
      "Ġkey": 4304,
      "èĳ£äºĭ": 4305,
      "å½»": 4306,
      "ants": 4307,
      "æ°ĳæĹı": 4308,
      "è´¸æĺĵ": 4309,
      "åĬłå¿«": 4310,
      "You": 4311,
      "åĲĦç±»": 4312,
      "æĸĩåŃ¦": 4313,
      "ãĢĭï¼Ī": 4314,
      "çļĦæķ°æį®": 4315,
      "ï½ŀ": 4316,
      "ness": 4317,
      "by": 4318,
      "37": 4319,
      "ways": 4320,
      "uss": 4321,
      "ma": 4322,
      "èĽĭçĻ½": 4323,
      "æ³ķéĻ¢": 4324,
      "Ġwrit": 4325,
      "Ġprof": 4326,
      "åħ¬åĽŃ": 4327,
      "æŁ¥è¯¢": 4328,
      "ä»¥ä¸ĭæĺ¯ä¸ĢäºĽ": 4329,
      "ä¹ı": 4330,
      "è®©äºº": 4331,
      "é«ĺéĢŁ": 4332,
      "æŁĶ": 4333,
      "åħ±äº«": 4334,
      "å¯¸": 4335,
      "çļĦä¸Ģä¸ª": 4336,
      "èİ±": 4337,
      "å·®å¼Ĥ": 4338,
      "è´¯": 4339,
      "æĬµ": 4340,
      "ä¼Ł": 4341,
      "Ð¾Ð": 4342,
      "ä¸įè¶³": 4343,
      "æ¡Ĩ": 4344,
      "çļĦåŁºç¡Ģ": 4345,
      "ä¸Ģå¹´": 4346,
      "Ġide": 4347,
      "ä½łä»¬": 4348,
      "ems": 4349,
      "åĴĸåķ¡": 4350,
      "åĲĦåľ°": 4351,
      "æ³ī": 4352,
      "è±ª": 4353,
      "Ġ>": 4354,
      "äº¡": 4355,
      "Ġorig": 4356,
      "æī¿æĭħ": 4357,
      "Ġmulti": 4358,
      "åĢ¾": 4359,
      "ä¼łæĴŃ": 4360,
      "gest": 4361,
      "man": 4362,
      "è®¤çľŁ": 4363,
      "çŃīæĸ¹éĿ¢": 4364,
      "ä¼¯": 4365,
      "çİ©å®¶": 4366,
      "åĸ·": 4367,
      "è¿ĲçĶ¨": 4368,
      "2000": 4369,
      "åĩ¡": 4370,
      "å£ģ": 4371,
      "âĢ¦âĢ¦": 4372,
      "Ġarea": 4373,
      "çľł": 4374,
      "åĪ¤æĸŃ": 4375,
      "éĤĢ": 4376,
      "åģ¿": 4377,
      "å¾Ģå¾Ģ": 4378,
      "Ġaround": 4379,
      "atic": 4380,
      "çº¤": 4381,
      "æ±¤": 4382,
      "é¢Ħè®¡": 4383,
      "èĬĤèĥ½": 4384,
      "inu": 4385,
      "Al": 4386,
      "äººçī©": 4387,
      "atch": 4388,
      "Ġlet": 4389,
      "éĽ»": 4390,
      "æµĻ": 4391,
      "å¤©çļĦ": 4392,
      "ç¾İä¸½": 4393,
      "æĶ¹è¿Ľ": 4394,
      "æ·¡": 4395,
      "arly": 4396,
      "ä½ĵçİ°": 4397,
      "æµ®": 4398,
      "æĹ¥æľŁ": 4399,
      "å²Ĺä½į": 4400,
      "$.": 4401,
      "æĦıåĳ³çĿĢ": 4402,
      "å¼ºåº¦": 4403,
      "å®¾": 4404,
      "åŃ¦æľ¯": 4405,
      "åĪĬ": 4406,
      "ä¸Ńå°ı": 4407,
      "æ¸ħæ´ģ": 4408,
      "Ġstill": 4409,
      "ĠThere": 4410,
      "ital": 4411,
      "å¤Ħäºİ": 4412,
      "è®¿éĹ®": 4413,
      "300": 4414,
      "orn": 4415,
      "æ¶µ": 4416,
      "èĩªä¸»": 4417,
      "ource": 4418,
      "âĦĥ": 4419,
      "æľīä»Ģä¹Ī": 4420,
      "å®Įæķ´": 4421,
      "è´·æ¬¾": 4422,
      "ç»ĦåĲĪ": 4423,
      "Ġwithout": 4424,
      "æ¸ħæĻ": 4425,
      "å®ĺæĸ¹": 4426,
      "ä¸ĢåĲį": 4427,
      "çļĦæĬĢæľ¯": 4428,
      "ä¹³": 4429,
      "Ġdisc": 4430,
      "å¹¸ç¦ı": 4431,
      "65": 4432,
      "è§Ĵåº¦": 4433,
      "ished": 4434,
      "Ġbr": 4435,
      "æĢĿç»´": 4436,
      "Ġsing": 4437,
      "ä¸»åĬ¨": 4438,
      "éĹ®é¢ĺçļĦ": 4439,
      "Ġtry": 4440,
      "éĵģè·¯": 4441,
      "åĲ¯åĬ¨": 4442,
      "åĩŃ": 4443,
      "åľ°äº§": 4444,
      "ium": 4445,
      "æļĤ": 4446,
      "æĢ»ä¹ĭ": 4447,
      "ç£ģ": 4448,
      "æľºçļĦ": 4449,
      "Ġtem": 4450,
      "Ġdetail": 4451,
      "'re": 4452,
      "be": 4453,
      "éĹ²": 4454,
      "å¹¿å¤§": 4455,
      "çļĦä¿¡æģ¯": 4456,
      "Ġenergy": 4457,
      "æİĴæĶ¾": 4458,
      "Ġtyp": 4459,
      "Ġ11": 4460,
      "æľĢæĸ°": 4461,
      "ä¸ģ": 4462,
      "çĤī": 4463,
      "å·¥ä½ľçļĦ": 4464,
      "IN": 4465,
      "å±±ä¸ľ": 4466,
      "çº¹": 4467,
      "éĢ»": 4468,
      "æļĹ": 4469,
      "çıį": 4470,
      "åĨįæ¬¡": 4471,
      "ours": 4472,
      "èĦ¸": 4473,
      "æĭ¼": 4474,
      "ailable": 4475,
      "æĸĳ": 4476,
      "lish": 4477,
      "iversity": 4478,
      "é¸Ł": 4479,
      "è´Łè´£äºº": 4480,
      "éĶģ": 4481,
      "æ¬§æ´²": 4482,
      "å§ĵ": 4483,
      "åħ¬å¸ĥ": 4484,
      "æĢķ": 4485,
      "ãĢĭãĢģãĢĬ": 4486,
      "çĶŁçļĦ": 4487,
      "Ġduring": 4488,
      "Ġlife": 4489,
      "æ¯ıä¸ªäºº": 4490,
      "çĽ¸äºĴ": 4491,
      "\\[": 4492,
      "ç¾¤ä¼Ĺ": 4493,
      "å°Ĩåľ¨": 4494,
      "ä¸¹": 4495,
      "è½¨": 4496,
      "],": 4497,
      "åĪĽæĦı": 4498,
      "èī²çļĦ": 4499,
      "cript": 4500,
      "Ġrange": 4501,
      "çĵ¶": 4502,
      "å²¸": 4503,
      "Ġinterest": 4504,
      "çļĦéľĢæ±Ĥ": 4505,
      "éĺ²æİ§": 4506,
      "åħ¬ä¼Ĺ": 4507,
      "åĲĪéĢĤ": 4508,
      "åįĬå¹´": 4509,
      "çķħ": 4510,
      "è£ħé¥°": 4511,
      "è®©æĪĳä»¬": 4512,
      "åĸĿ": 4513,
      "Ġfree": 4514,
      "ified": 4515,
      "æĿĨ": 4516,
      "è¿ħéĢŁ": 4517,
      "ava": 4518,
      "ON": 4519,
      "å¦ĩ": 4520,
      "ç¯®": 4521,
      "æĪ´": 4522,
      "Ġpop": 4523,
      "çĮª": 4524,
      "ä½ľèĢħ": 4525,
      "2013": 4526,
      "åŃĲçļĦ": 4527,
      "Ġteam": 4528,
      "è´¢æĶ¿": 4529,
      "åıªèĥ½": 4530,
      "éģŃ": 4531,
      "éŃĶ": 4532,
      "Ġopen": 4533,
      "åĽ¾åĥı": 4534,
      "å¨±ä¹Ĳ": 4535,
      "Ġproject": 4536,
      "Ġplace": 4537,
      "æľ¬èº«": 4538,
      "éĺ´": 4539,
      "èĸĦ": 4540,
      "rite": 4541,
      "æĻ¶": 4542,
      "imate": 4543,
      "æĪĳä»¬éľĢè¦ģ": 4544,
      "æ®ĸ": 4545,
      "ä¸ºæĤ¨": 4546,
      "çŃ¹": 4547,
      "çĻĮ": 4548,
      "è¯ķéªĮ": 4549,
      "Ġincluding": 4550,
      "ç«Ł": 4551,
      "Ġthough": 4552,
      "èĴ¸": 4553,
      "çļĦåľ°æĸ¹": 4554,
      "åĬĽåĴĮ": 4555,
      "æ°Ľ": 4556,
      "å¤ļæł·": 4557,
      "è¼": 4558,
      "ä»¥ä¾¿": 4559,
      "åĳĪçİ°": 4560,
      "ared": 4561,
      "èģĬ": 4562,
      "éĵľ": 4563,
      "Ġpat": 4564,
      "èĤ¡ç¥¨": 4565,
      "å¼Ł": 4566,
      "åĭĴ": 4567,
      "sqrt": 4568,
      "çĶµèĦĳ": 4569,
      "è£Ĥ": 4570,
      "éģĩåĪ°": 4571,
      "ples": 4572,
      "èĶ¬èıľ": 4573,
      "Ġpower": 4574,
      "eter": 4575,
      "æ¸łéģĵ": 4576,
      "64": 4577,
      "loy": 4578,
      "work": 4579,
      "æıĴ": 4580,
      "less": 4581,
      "å¤§ä¼ļ": 4582,
      "ĠThey": 4583,
      "Ġequation": 4584,
      "èİ«": 4585,
      "==": 4586,
      "æľĪä»½": 4587,
      "result": 4588,
      "Ġdel": 4589,
      "æĳĺ": 4590,
      "ĠTr": 4591,
      "ĠOn": 4592,
      "çģ°": 4593,
      "riend": 4594,
      "ives": 4595,
      "Ġsaid": 4596,
      "What": 4597,
      "Ġpur": 4598,
      "è¯¸": 4599,
      "Ch": 4600,
      "2012": 4601,
      "æ¯ıå¹´": 4602,
      "angu": 4603,
      "list": 4604,
      "ä¿Ħ": 4605,
      "åį³åı¯": 4606,
      "æĽ¼": 4607,
      "å¹´é¾Ħ": 4608,
      "ody": 4609,
      "æ¼ı": 4610,
      "è¹": 4611,
      "{\"": 4612,
      "cd": 4613,
      "ĠPl": 4614,
      "ĊĠĠĠĠĠĠĠĠĠĠĠ": 4615,
      "me": 4616,
      "æ²»çĲĨ": 4617,
      "çĶŁéķ¿": 4618,
      "aj": 4619,
      "iron": 4620,
      "####": 4621,
      "ior": 4622,
      "åĭ¤": 4623,
      "å¹¿ä¸ľ": 4624,
      "åį³ä½¿": 4625,
      "ç¬¬åĽĽ": 4626,
      "å¼ķå¯¼": 4627,
      "Ġbusiness": 4628,
      "ä¸Ĭåįĩ": 4629,
      "æĸ°åŀĭ": 4630,
      "è¶³çĲĥ": 4631,
      "Ġcare": 4632,
      "Ġvalues": 4633,
      "Ġ14": 4634,
      "å¹¶åľ¨": 4635,
      "ety": 4636,
      "éĢĤå½ĵ": 4637,
      "çĽ¸åħ³çļĦ": 4638,
      "ä¹ĭå¤ĸ": 4639,
      "æĺ¯çĶ±": 4640,
      "æľīä¸Ģä¸ª": 4641,
      "ithm": 4642,
      "å¥¹çļĦ": 4643,
      "sh": 4644,
      "åıįæĺł": 4645,
      "ä¸¾è¡Į": 4646,
      "Ġlevel": 4647,
      "éĢ»è¾ĳ": 4648,
      "ç´«": 4649,
      "Ġpossible": 4650,
      "æī©å¤§": 4651,
      "ĠSo": 4652,
      "ä¸įåĪ°": 4653,
      "ä¿¡åı·": 4654,
      "Ġcommun": 4655,
      "çī¹åĪ«æĺ¯": 4656,
      "èĪĴéĢĤ": 4657,
      "Ġstruct": 4658,
      "å¤§éĩıçļĦ": 4659,
      "éĩįåºĨ": 4660,
      "æľīæľº": 4661,
      "Ġbre": 4662,
      "å¦ĤæŀľæĤ¨": 4663,
      "It": 4664,
      "ique": 4665,
      "éļĲç§ģ": 4666,
      "çĶľ": 4667,
      "çĽĳæİ§": 4668,
      "Ġtext": 4669,
      "æī°": 4670,
      "ertain": 4671,
      "1000": 4672,
      "æ³¨éĩį": 4673,
      "æ»¡æĦı": 4674,
      "Ġer": 4675,
      "Ġlog": 4676,
      "ä¸¦": 4677,
      "78": 4678,
      "åī©": 4679,
      "åĲĮæł·": 4680,
      "ä¼ļè®¡": 4681,
      "ĠPh": 4682,
      "ĠEn": 4683,
      "Ġinc": 4684,
      "å°¤åħ¶æĺ¯": 4685,
      "åħģ": 4686,
      "åĬŀçĲĨ": 4687,
      "åħ¬è·¯": 4688,
      "Ġunderstand": 4689,
      "Ġcustom": 4690,
      "åĩºçīĪ": 4691,
      "åĳ¼åĲ¸": 4692,
      "è§Ĩè§ī": 4693,
      "æĦŁè°¢": 4694,
      "æ··åĲĪ": 4695,
      "å¹´ä»£": 4696,
      "let": 4697,
      "åħįè´¹": 4698,
      "åĽĽå·Ŀ": 4699,
      "è°ĵ": 4700,
      "ä»¿": 4701,
      "ĠTe": 4702,
      "æī£": 4703,
      "ĠAr": 4704,
      "Ġhim": 4705,
      "åĿ¦": 4706,
      "è°±": 4707,
      "è¶³å¤Ł": 4708,
      "ä¼¸": 4709,
      "ĠEng": 4710,
      "çŁ¥åĲį": 4711,
      "åįıè°ĥ": 4712,
      "å°½ç®¡": 4713,
      "åģ¶": 4714,
      "vent": 4715,
      "è§ĤçĤ¹": 4716,
      "çĶĺ": 4717,
      "ä»¤äºº": 4718,
      "èĻ«": 4719,
      "mb": 4720,
      "åĿĽ": 4721,
      "éĢļä¿¡": 4722,
      "verse": 4723,
      "Ġchange": 4724,
      "Ġdeterm": 4725,
      "Ġgroup": 4726,
      "éĢĻ": 4727,
      "èĢĮè¨Ģ": 4728,
      "åĲ´": 4729,
      "Ġless": 4730,
      ":**": 4731,
      "utions": 4732,
      "Ġbuild": 4733,
      "çļĦæĸĩç«ł": 4734,
      "çĽ¸å½ĵ": 4735,
      "pi": 4736,
      "itional": 4737,
      "å°ıç»Ħ": 4738,
      "ä¸Ģå®¶": 4739,
      "è¿ĺåı¯ä»¥": 4740,
      "Ġvers": 4741,
      "éĿĴå¹´": 4742,
      "åŃĻ": 4743,
      "ç»ıåħ¸": 4744,
      "æ¦ľ": 4745,
      "ĠBut": 4746,
      "åĲĦä¸ª": 4747,
      "é«ĺæł¡": 4748,
      "br": 4749,
      "å¿Ļ": 4750,
      "ense": 4751,
      "str": 4752,
      "rol": 4753,
      "ä¸Ģå®ļè¦ģ": 4754,
      "åĮ¹": 4755,
      "çĶµåĬĽ": 4756,
      "æįŁå¤±": 4757,
      "ç»ĻäºĪ": 4758,
      "ĠPython": 4759,
      "Ġimp": 4760,
      "Ġ25": 4761,
      "å¾®ä¿¡": 4762,
      "å¯Ĵ": 4763,
      "æĺ¾èĳĹ": 4764,
      "åĿ¡": 4765,
      "èħ¾": 4766,
      "æĪĲäºĨ": 4767,
      "Ġavailable": 4768,
      "é«ĺçº§": 4769,
      "Ġhy": 4770,
      "éĥĳ": 4771,
      "çĻ»è®°": 4772,
      "ä»ģ": 4773,
      "Ġlim": 4774,
      "ling": 4775,
      "åĪĨéħį": 4776,
      "å®ļä½į": 4777,
      "å¹²éĥ¨": 4778,
      "æĴĳ": 4779,
      "å²©": 4780,
      "çľŁçļĦ": 4781,
      "æľīå¾Īå¤ļ": 4782,
      "2010": 4783,
      "åľ¨è¿Ļ": 4784,
      "æĸĩåŃĹ": 4785,
      "Ġobject": 4786,
      "ĠAmeric": 4787,
      "min": 4788,
      "æĻ¯åĮº": 4789,
      "ä¿®æĶ¹": 4790,
      "ccess": 4791,
      "å¤ĸéĥ¨": 4792,
      "ç¬¬åįģ": 4793,
      "è¯ģåĪ¸": 4794,
      "å¸ĥå±Ģ": 4795,
      "åĪ©çĽĬ": 4796,
      "Ġtype": 4797,
      "Ġlight": 4798,
      "ä¸Ģä»½": 4799,
      "å¾·åĽ½": 4800,
      "å®¤åĨħ": 4801,
      "åŃ¦çĶŁçļĦ": 4802,
      "éģĵå¾·": 4803,
      "æ®ĭ": 4804,
      "èĦī": 4805,
      "èŀįèµĦ": 4806,
      "Ġiss": 4807,
      "aces": 4808,
      "Ġfew": 4809,
      "Ġinput": 4810,
      "æ±Łèĭı": 4811,
      "Ġapplic": 4812,
      "ç»´ä¿®": 4813,
      "çļĦæ°´": 4814,
      "Ġchild": 4815,
      "sum": 4816,
      "æ£®æŀĹ": 4817,
      "$,": 4818,
      "åĪĨåŃĲ": 4819,
      "ä¸įéĶĻ": 4820,
      "è¿ĶåĽŀ": 4821,
      "tain": 4822,
      "éĺ³åħī": 4823,
      "å¼ºåĮĸ": 4824,
      "éĢĲæŃ¥": 4825,
      "å¹»": 4826,
      "çĶµåĬ¨": 4827,
      "èĳ¡": 4828,
      "AS": 4829,
      "çļĦåºĶçĶ¨": 4830,
      "èĬ¯": 4831,
      "Ġcomput": 4832,
      "Ġsince": 4833,
      "apt": 4834,
      "æĿ¥çļĦ": 4835,
      "åĪĢ": 4836,
      "å¹³æĸ¹ç±³": 4837,
      "ä¸ĭåįĪ": 4838,
      "95": 4839,
      "ä»¥åĲİ": 4840,
      "è¿ĳå¹´æĿ¥": 4841,
      "Ġgive": 4842,
      "èļĢ": 4843,
      "è»Ĭ": 4844,
      "æĢģåº¦": 4845,
      "æ¸ħæĻ°": 4846,
      "çģŃ": 4847,
      "ç®ĢåįķçļĦ": 4848,
      "Ġrest": 4849,
      "verage": 4850,
      "éħįåĲĪ": 4851,
      "æĹ¦": 4852,
      "Ġcheck": 4853,
      "æľīæķĪçļĦ": 4854,
      "Ġmeas": 4855,
      "æģĲ": 4856,
      "comm": 4857,
      "not": 4858,
      "è¡¨æĺİ": 4859,
      "æİĴåĲį": 4860,
      "ä¿Ĺ": 4861,
      "å¹¿å·ŀ": 4862,
      "Ġlarge": 4863,
      "æīĭæ®µ": 4864,
      "Â°": 4865,
      "æµ·æ´ĭ": 4866,
      "æĤ¨åı¯ä»¥": 4867,
      "word": 4868,
      "è¡ĮæĺŁ": 4869,
      "éĵº": 4870,
      "æĦĪ": 4871,
      "éļĨ": 4872,
      "Ġ$$\\": 4873,
      "åİĤå®¶": 4874,
      "ä¾Ŀæ³ķ": 4875,
      "æ´ª": 4876,
      "Ġimportant": 4877,
      "èĥĥ": 4878,
      "Ġpri": 4879,
      "Ġfile": 4880,
      "åĨĴ": 4881,
      "æĭĶ": 4882,
      "å®£å¸ĥ": 4883,
      "æĽ´æĺ¯": 4884,
      "Ġwithin": 4885,
      "Ġmov": 4886,
      "Ġsay": 4887,
      "åĬ¨æĢģ": 4888,
      "å¦Ĥä»Ĭ": 4889,
      "çİ¯èĬĤ": 4890,
      "æľīè¶£": 4891,
      "'m": 4892,
      "ĠUs": 4893,
      "è¢ĭ": 4894,
      "88": 4895,
      "aut": 4896,
      "éĤ¦": 4897,
      "çĭ¬çī¹çļĦ": 4898,
      "Ġspace": 4899,
      "und": 4900,
      "ä¸ĵä¸ļçļĦ": 4901,
      "ometh": 4902,
      "ä¸´åºĬ": 4903,
      "plic": 4904,
      "å§ĭç»Ī": 4905,
      "Ġmus": 4906,
      "Ġhapp": 4907,
      "oard": 4908,
      "æīĢåľ¨": 4909,
      "Ġmax": 4910,
      "èŀº": 4911,
      "over": 4912,
      "èĩ³å°ĳ": 4913,
      "çīĪæľ¬": 4914,
      "æĶ¾åľ¨": 4915,
      "èĥ½éĩı": 4916,
      "æĭĽèģĺ": 4917,
      "éĻ·": 4918,
      "éļ¾ä»¥": 4919,
      "çļĦæĥħåĨµ": 4920,
      "ĠWhat": 4921,
      "name": 4922,
      "æ³ķåĽ½": 4923,
      "æµĻæ±Ł": 4924,
      "çī©åĵģ": 4925,
      "ç²ĺ": 4926,
      "ç¢į": 4927,
      "omething": 4928,
      "ãĢĤï¼Ī": 4929,
      "Ġorgan": 4930,
      "ES": 4931,
      "é¤Ĳåİħ": 4932,
      "å°Ĭéĩį": 4933,
      "ĠSp": 4934,
      "66": 4935,
      "äºķ": 4936,
      "è·ĥ": 4937,
      "äºĭæķħ": 4938,
      "èĪį": 4939,
      "çģµæ´»": 4940,
      "è¸ª": 4941,
      "èĦı": 4942,
      "Ġbook": 4943,
      "èī¯å¥½": 4944,
      "èģĮå·¥": 4945,
      "æīİ": 4946,
      "Ġcorrect": 4947,
      "05": 4948,
      "Ġreally": 4949,
      "Ġalways": 4950,
      "éĩĮçļĦ": 4951,
      "ç¤ºä¾ĭ": 4952,
      "ume": 4953,
      "ç±»ä¼¼": 4954,
      "çĪ¶æ¯į": 4955,
      "49": 4956,
      "ä¼ĺåħĪ": 4957,
      "ç¢İ": 4958,
      "åĲĦé¡¹": 4959,
      "éªĮè¯ģ": 4960,
      "å¯¹æĸ¹": 4961,
      "cur": 4962,
      "çļĦåĲĮæĹ¶": 4963,
      "IT": 4964,
      "èĬĤçĽ®": 4965,
      "åĲįåŃĹ": 4966,
      "ery": 4967,
      "åįļå£«": 4968,
      "å±ķçİ°": 4969,
      "ĠCol": 4970,
      "ç¾İé£Ł": 4971,
      "ç¼ĸåĨĻ": 4972,
      "åľ°ä½į": 4973,
      "èĩªè¡Į": 4974,
      "Ġprob": 4975,
      "ware": 4976,
      "Ġschool": 4977,
      "æľīäºº": 4978,
      "çªģåĩº": 4979,
      "éķ·": 4980,
      "Ġcreate": 4981,
      "85": 4982,
      "IP": 4983,
      "äºĭé¡¹": 4984,
      "å°į": 4985,
      "Ġtoo": 4986,
      "ä¸Ńæĸĩ": 4987,
      "Ġvol": 4988,
      "çļĦå¥½": 4989,
      "reen": 4990,
      "å¤§æķ°æį®": 4991,
      "æ±¡æ°´": 4992,
      "å°±åı¯ä»¥": 4993,
      "åĩłä¹İ": 4994,
      "Ġcommon": 4995,
      "æĥ³æ³ķ": 4996,
      "ç¾İçļĦ": 4997,
      "ä¸Ģèĩ´": 4998,
      "77": 4999,
      "åĽŀæĶ¶": 5000,
      "ĠHowever": 5001,
      "éĶ»": 5002,
      "è·Į": 5003,
      "å¤©çĦ¶": 5004,
      "ĠTo": 5005,
      "éĥ¨ç½²": 5006,
      "åħ¬åĳĬ": 5007,
      "åħļåĳĺ": 5008,
      "èĲĦ": 5009,
      "Ġchang": 5010,
      "å°¿": 5011,
      "ole": 5012,
      "æĪªèĩ³": 5013,
      "åĪĳ": 5014,
      "ç¡®è®¤": 5015,
      "2011": 5016,
      "æ¨ª": 5017,
      "ç¼´": 5018,
      "é¦ĸæ¬¡": 5019,
      "è½¬åŀĭ": 5020,
      "åľ¨ä¸ŃåĽ½": 5021,
      "çĶŁæ´»ä¸Ń": 5022,
      "crib": 5023,
      "æ³½": 5024,
      "çĩ¥": 5025,
      "å°ıçļĦ": 5026,
      "éĻ¶": 5027,
      "èĳ¡èĲĦ": 5028,
      "att": 5029,
      "æķ¢": 5030,
      "èµµ": 5031,
      "Ġaccess": 5032,
      "çĪ±æĥħ": 5033,
      "Ġredu": 5034,
      "For": 5035,
      "Ġcomplex": 5036,
      "ID": 5037,
      "å°Ĩåħ¶": 5038,
      "å¿ĥçļĦ": 5039,
      "åĩī": 5040,
      "åı¬å¼Ģ": 5041,
      "ending": 5042,
      "py": 5043,
      "æŁ±": 5044,
      "åĲĮæ¯Ķå¢ŀéķ¿": 5045,
      "Ġsqu": 5046,
      "åĽºå®ļ": 5047,
      "ĠBe": 5048,
      "çļĦä¸»": 5049,
      "è£ħç½®": 5050,
      "ä¹Į": 5051,
      "ĠIs": 5052,
      "çļĦå®īåħ¨": 5053,
      "ï¼ħ": 5054,
      "ä¸ĵæ³¨": 5055,
      "çĲĥéĺŁ": 5056,
      "ç»ĥä¹ł": 5057,
      "åģļåĪ°": 5058,
      "ä¾Ŀæį®": 5059,
      "ç¤ºèĮĥ": 5060,
      "åĶ¯ä¸Ģ": 5061,
      "çļĦä¼ģä¸ļ": 5062,
      "ç»ĨèĬĤ": 5063,
      "æ»´": 5064,
      "ression": 5065,
      "Ġbetter": 5066,
      "44": 5067,
      "å®ĭ": 5068,
      "itle": 5069,
      "éĸĭ": 5070,
      "èµģ": 5071,
      "å£®": 5072,
      "åĵ²": 5073,
      "è¿ģ": 5074,
      "ides": 5075,
      "æłĩå¿Ĺ": 5076,
      "ina": 5077,
      "Ġsit": 5078,
      "ooks": 5079,
      "ç§Łèµģ": 5080,
      "Ġanother": 5081,
      "æ³µ": 5082,
      "Ġmeans": 5083,
      "Ġgrow": 5084,
      "æĹ¶çļĦ": 5085,
      "icle": 5086,
      "ç¨¿": 5087,
      "ä¸ĢåĪĩ": 5088,
      "æĬ¢": 5089,
      "ç¾Ĭ": 5090,
      "åħ±åĴĮ": 5091,
      "äºĭå®ŀ": 5092,
      "ables": 5093,
      "çº¿ä¸Ĭ": 5094,
      "æ·±åĪ»": 5095,
      "çĲĨæĥ³": 5096,
      "ference": 5097,
      "ç½ĳä¸Ĭ": 5098,
      "å®ı": 5099,
      "oss": 5100,
      "},": 5101,
      "åĬłä¸Ĭ": 5102,
      "çļĦä½¿çĶ¨": 5103,
      "Ġtimes": 5104,
      "çļĦä¸Ģç§į": 5105,
      "è»į": 5106,
      "Ġeng": 5107,
      "Ġrepresent": 5108,
      "à¤": 5109,
      "ä½ľä¸ļ": 5110,
      "èĢĥçĶŁ": 5111,
      "Ġpot": 5112,
      "ats": 5113,
      "Ġcompany": 5114,
      "åħģè®¸": 5115,
      "Ġsolution": 5116,
      "arr": 5117,
      "åŁĥ": 5118,
      "Ġview": 5119,
      "å¿«ä¹Ĳ": 5120,
      "æ©Ł": 5121,
      "part": 5122,
      "agn": 5123,
      "å¿ł": 5124,
      "://": 5125,
      "ret": 5126,
      "éĺŁä¼į": 5127,
      "orld": 5128,
      "æĪĲåĪĨ": 5129,
      "Ġet": 5130,
      "éĽķ": 5131,
      "Ġstring": 5132,
      "set": 5133,
      "æĺĮ": 5134,
      "ä¿¡çĶ¨": 5135,
      "æµģéĩı": 5136,
      "ulation": 5137,
      "oid": 5138,
      "imum": 5139,
      "ä¸ĢçĤ¹": 5140,
      "åıĳçĶµ": 5141,
      "çļĦå¿ĥ": 5142,
      "angle": 5143,
      "Ġknown": 5144,
      "ering": 5145,
      "æłı": 5146,
      "ĠSte": 5147,
      "å¿ĹæĦ¿": 5148,
      "åķĬ": 5149,
      "Ġleft": 5150,
      "Ġcalled": 5151,
      "äººæ°ĳå¸ģ": 5152,
      "cal": 5153,
      "èĭ±æĸĩ": 5154,
      "éĢĤçĶ¨äºİ": 5155,
      "åĲĮæĹ¶ä¹Ł": 5156,
      "46": 5157,
      "ä¼Ļä¼´": 5158,
      "èĻļæĭŁ": 5159,
      "Ġcap": 5160,
      "è¿Ļæ¬¡": 5161,
      "åıĥ": 5162,
      "æµĭéĩı": 5163,
      "å¯»æ±Ĥ": 5164,
      "Ġident": 5165,
      "ream": 5166,
      "éĤ®ä»¶": 5167,
      "imal": 5168,
      "è¯ŃéŁ³": 5169,
      "åĮĸå·¥": 5170,
      "Ġrad": 5171,
      "Ġsomething": 5172,
      "ç¡®å®ŀ": 5173,
      "äººæķ°": 5174,
      "umn": 5175,
      "æľŁçļĦ": 5176,
      "å°ĳå¹´": 5177,
      "ä¸Ģä½ĵ": 5178,
      "åĮĢ": 5179,
      "åĬ¨ä½ľ": 5180,
      "Ġ17": 5181,
      "hemat": 5182,
      "Ġconne": 5183,
      "ç®Ģç§°": 5184,
      "çĵ·": 5185,
      "ç¼ºä¹ı": 5186,
      "çī©çļĦ": 5187,
      "å¯¿åĳ½": 5188,
      "æľºåľº": 5189,
      "åľ°çĤ¹": 5190,
      "åŃĹç¬¦ä¸²": 5191,
      "Ġold": 5192,
      "ç«¹": 5193,
      "Ġnext": 5194,
      "è¿Ľåı£": 5195,
      "Ġoften": 5196,
      "åº¦åĴĮ": 5197,
      "UR": 5198,
      "ä¼ı": 5199,
      "ä½¿çĶ¨çļĦ": 5200,
      "ç§Ĵ": 5201,
      "æ¬£": 5202,
      "æ¢¯": 5203,
      "my": 5204,
      "Ġmonth": 5205,
      "ĨĴ": 5206,
      "ä¸įåĨį": 5207,
      "å°ıè¯´": 5208,
      "çĤŃ": 5209,
      "ä¸¤ç§į": 5210,
      "åİŁçĲĨ": 5211,
      "çļĦåħ³éĶ®": 5212,
      "åŃķ": 5213,
      "è®°å¿Ĩ": 5214,
      "light": 5215,
      "æĶ¶çĽĬ": 5216,
      "æľŁå¾ħ": 5217,
      "åĹ": 5218,
      "æľīäºĨ": 5219,
      "Ġlength": 5220,
      "æĬ±": 5221,
      "å¿½": 5222,
      "æĹ¶å°ļ": 5223,
      "Ġrece": 5224,
      "Ġ13": 5225,
      "è®ºæĸĩ": 5226,
      "åı¥è¯Ŀ": 5227,
      "âĢĿâĢľ": 5228,
      "æľªæĿ¥çļĦ": 5229,
      "æĮĩæķ°": 5230,
      "AC": 5231,
      "æĬĳ": 5232,
      "ott": 5233,
      "èĲ¥ä¸ļ": 5234,
      "æ°Ķä½ĵ": 5235,
      "åºĶçĶ¨äºİ": 5236,
      "çĽĪ": 5237,
      "å®ħ": 5238,
      "requ": 5239,
      "éĥ½åľ¨": 5240,
      "æĶ¾æĿ¾": 5241,
      "è®¾ç«ĭ": 5242,
      "èī²å½©": 5243,
      "self": 5244,
      "Ġfield": 5245,
      "ä¸Ĭä¸ĭ": 5246,
      "è¿«": 5247,
      "fficient": 5248,
      "å¼Ĥå¸¸": 5249,
      "ET": 5250,
      "é¢Ħç®Ĺ": 5251,
      "ç¼ĸè¾ĳ": 5252,
      "çĶŁç´ł": 5253,
      "ittle": 5254,
      "çĲ´": 5255,
      "éĩįå¤į": 5256,
      "åįķè¯į": 5257,
      "Ġbas": 5258,
      "å¼ºçļĦ": 5259,
      "æĶ¹éĢł": 5260,
      "è¯ģä¹¦": 5261,
      "ä¸ĵåĪ©": 5262,
      "Ġstandard": 5263,
      "}$$": 5264,
      "è®©æĪĳ": 5265,
      "å¸ĤåľºçļĦ": 5266,
      "Ġcomplete": 5267,
      "ĠInd": 5268,
      "AN": 5269,
      "ãĢĭãĢĤ": 5270,
      "èı²": 5271,
      "å®¶å±ħ": 5272,
      "Ġplan": 5273,
      "å®ŀæĹ¶": 5274,
      "ivity": 5275,
      "åŃ£åº¦": 5276,
      "Ġhum": 5277,
      "Ġwon": 5278,
      "é¢ĨåħĪ": 5279,
      "åĵģç§į": 5280,
      "å£°éŁ³": 5281,
      "èĻİ": 5282,
      "ç´łè´¨": 5283,
      "æĪĳä¼ļ": 5284,
      "olution": 5285,
      "Ġpoints": 5286,
      "åŁºåĽł": 5287,
      "èĩ´åĬĽ": 5288,
      "æĪĲéĥ½": 5289,
      "å¾Ĳ": 5290,
      "çĿ¡çľł": 5291,
      "çº¤ç»´": 5292,
      "æİĴåºı": 5293,
      "æ¸ħæ´Ĺ": 5294,
      "æĢ»æĺ¯": 5295,
      "çļĦæľįåĬ¡": 5296,
      "Ġprom": 5297,
      "è¿Ļä¹Ī": 5298,
      "Ġhealth": 5299,
      "æĪĲå°±": 5300,
      "ä»ĵ": 5301,
      "æī«": 5302,
      "éĸĵ": 5303,
      "æĶ¯æĴĳ": 5304,
      "èĤ¯å®ļ": 5305,
      "åĬłéĢŁ": 5306,
      "Ġnet": 5307,
      "Ġservice": 5308,
      "Ġfeel": 5309,
      "æĩĤ": 5310,
      "åħ¶æ¬¡": 5311,
      "çº½": 5312,
      "å¤§éĥ¨åĪĨ": 5313,
      "æĪĲçĨŁ": 5314,
      "Ġcomb": 5315,
      "åį±éĻ©": 5316,
      "å¤§å¤ļæķ°": 5317,
      "ï¼ĮãĢĬ": 5318,
      "Ġpresent": 5319,
      "çī¹æĢ§": 5320,
      "ï¿": 5321,
      "ploy": 5322,
      "åĻ¨çļĦ": 5323,
      "åĬłå¤§": 5324,
      "å¼ķåıĳ": 5325,
      "Ġspecial": 5326,
      "åĴĮåħ¶ä»ĸ": 5327,
      "Ġdri": 5328,
      "ula": 5329,
      "Ġocc": 5330,
      "åľºæīĢ": 5331,
      "çł´åĿı": 5332,
      "åħįçĸ«": 5333,
      "å½¼": 5334,
      "rack": 5335,
      "ysis": 5336,
      "æıĲéĨĴ": 5337,
      "01": 5338,
      "è¡Įä¸ļçļĦ": 5339,
      "èĤ¿": 5340,
      "è¿ĳæĹ¥": 5341,
      "Ġpublic": 5342,
      "ä¸»æĮģ": 5343,
      "éĶĪ": 5344,
      "è¡¨æ¼Ķ": 5345,
      "ä¸Ģå®ļçļĦ": 5346,
      "Ġsure": 5347,
      "çİĽ": 5348,
      "viron": 5349,
      "As": 5350,
      "èĿ": 5351,
      "ĠCan": 5352,
      "æ²³åįĹ": 5353,
      "Ġdem": 5354,
      "å·¡": 5355,
      "ĠOr": 5356,
      "Ġcour": 5357,
      "æıĲåīį": 5358,
      "Ġ)": 5359,
      "Ġconsider": 5360,
      "è¾ħåĬ©": 5361,
      "æ¡Į": 5362,
      "Ġkeep": 5363,
      "ww": 5364,
      "éĢ²": 5365,
      "âĳ": 5366,
      "åĲĪæł¼": 5367,
      "çļĦçĥŃ": 5368,
      "é©»": 5369,
      "åĨĻä¸Ģç¯ĩ": 5370,
      "äº¿ç¾İåħĥ": 5371,
      "æĤ²": 5372,
      "ĠGr": 5373,
      "äºĭæĥħ": 5374,
      "è´Ńçī©": 5375,
      "aterial": 5376,
      "åĪºæ¿Ģ": 5377,
      "ç·ļ": 5378,
      "å¾Ĵ": 5379,
      "ç´¯è®¡": 5380,
      "Ġrandom": 5381,
      "è¾Ľ": 5382,
      "æīĵå¼Ģ": 5383,
      "ipp": 5384,
      "oogle": 5385,
      "ä»£çĲĨ": 5386,
      "éĩĩè´Ń": 5387,
      "ero": 5388,
      "å£¤": 5389,
      "Ġabove": 5390,
      "ball": 5391,
      "æīĭæľ¯": 5392,
      "æĹ¥èµ·": 5393,
      "til": 5394,
      "æĳĨ": 5395,
      "ai": 5396,
      "amb": 5397,
      "Ġgoing": 5398,
      "åħ·ä½ĵçļĦ": 5399,
      "éĩıåŃĲ": 5400,
      "Ġfamily": 5401,
      "åĲ¸æĶ¶": 5402,
      "Ġimpro": 5403,
      "ä¾ĭåŃĲ": 5404,
      "äººåľ¨": 5405,
      "æŃĮæĽ²": 5406,
      "ler": 5407,
      "çı¾": 5408,
      "ÂłÂł": 5409,
      "time": 5410,
      "èĺ": 5411,
      "ĠApp": 5412,
      "Ġresults": 5413,
      "Ġcharacter": 5414,
      "ences": 5415,
      "è°Ĳ": 5416,
      "è£ħå¤ĩ": 5417,
      "æ°´æŀľ": 5418,
      "upp": 5419,
      "Ġrate": 5420,
      "ä¾Ŀèµĸ": 5421,
      "ç²¾åĩĨ": 5422,
      "åĬŀåħ¬å®¤": 5423,
      "ember": 5424,
      "Pro": 5425,
      "æĮĸ": 5426,
      "76": 5427,
      "åĲĽ": 5428,
      "è½¬åĮĸ": 5429,
      "è°ĥèĬĤ": 5430,
      "Ġlove": 5431,
      "æĽ¾ç»ı": 5432,
      "å¤§å°ı": 5433,
      "æĿ±": 5434,
      "åıĳè¡¨": 5435,
      "æīĢéľĢ": 5436,
      "çĻ¾åĪĨ": 5437,
      "éŀĭ": 5438,
      "åħļå§Ķ": 5439,
      "ients": 5440,
      "04": 5441,
      "éĿ¢è¯ķ": 5442,
      "å¸¸è§ģçļĦ": 5443,
      "åı¯ä»¥ä½¿çĶ¨": 5444,
      "Ġmarket": 5445,
      "æĭįæĳĦ": 5446,
      "Ġthings": 5447,
      "æ¯ıä¸Ģ": 5448,
      "åı¯èĥ½æĺ¯": 5449,
      "æĻĵ": 5450,
      "å±¥": 5451,
      "äºĮåįģ": 5452,
      "çĶ¨æĿ¥": 5453,
      "éĥ½èĥ½": 5454,
      "é¡ºåĪ©": 5455,
      "ination": 5456,
      "anguage": 5457,
      "æ¡Īä»¶": 5458,
      "ä¼ĳæģ¯": 5459,
      "Ġblo": 5460,
      "Ġgeneral": 5461,
      "åĪ¶åĵģ": 5462,
      "æİ¢è®¨": 5463,
      "Ġdev": 5464,
      "ĠĠĠĠĠĠĠĠĠĠĠĠĠĠĠĠ": 5465,
      "ead": 5466,
      "å¯º": 5467,
      "ries": 5468,
      "Ġhead": 5469,
      "åĲįä¸º": 5470,
      "Ġinclude": 5471,
      "æ¨¡æĭŁ": 5472,
      "ä¿Ŀæ¸©": 5473,
      "çĵľ": 5474,
      "åīįå¾Ģ": 5475,
      "äººçĶŁ": 5476,
      "æł¡åĽŃ": 5477,
      "åĴĮç¤¾ä¼ļ": 5478,
      "ä¿Ŀåģ¥": 5479,
      "ury": 5480,
      "Ġweek": 5481,
      "æĭħä»»": 5482,
      "Ġleast": 5483,
      "æĭľ": 5484,
      "é»İ": 5485,
      "é©±åĬ¨": 5486,
      "utes": 5487,
      "Ġbeh": 5488,
      "éĽĨæĪĲ": 5489,
      "ĠUniversity": 5490,
      "çĽ´æĴŃ": 5491,
      "åºĶæĢ¥": 5492,
      "æĪ¿åľ°äº§": 5493,
      "ĠUS": 5494,
      "éĢıæĺİ": 5495,
      "åĽ´ç»ķ": 5496,
      "æĪ¿å±ĭ": 5497,
      "hor": 5498,
      "è®¸åı¯": 5499,
      "æ¬²": 5500,
      "åĲ«æľī": 5501,
      "æķ´åĲĪ": 5502,
      "gin": 5503,
      "å®ŀéªĮå®¤": 5504,
      "Ġsever": 5505,
      "face": 5506,
      "çĪ¸": 5507,
      "ç»Ļåĩº": 5508,
      "å®¶åħ·": 5509,
      "Ġhist": 5510,
      "=\\": 5511,
      "mat": 5512,
      "çļĦä¸į": 5513,
      "\"\"": 5514,
      "éĶ»çĤ¼": 5515,
      "cing": 5516,
      "äººä½ĵ": 5517,
      "ention": 5518,
      "load": 5519,
      "gor": 5520,
      "son": 5521,
      "è«": 5522,
      "æİĺ": 5523,
      "å¤©æ´¥": 5524,
      "æ¹ĸåįĹ": 5525,
      ")ãĢĤ": 5526,
      "Ġlaw": 5527,
      "ç§įæ¤į": 5528,
      "2009": 5529,
      "è²Į": 5530,
      "è¾ī": 5531,
      "ç²®": 5532,
      "çĽ´åĪ°": 5533,
      "çļĦä½ľçĶ¨": 5534,
      "è½»æĿ¾": 5535,
      "ç¤¾äº¤åªĴä½ĵ": 5536,
      "å¦Ļ": 5537,
      "rict": 5538,
      "æ¯ıä¸Ģä¸ª": 5539,
      "ï¼į": 5540,
      "raw": 5541,
      "Ġworks": 5542,
      "ï¿½": 5543,
      "Ġfull": 5544,
      "å¾Īå¤§": 5545,
      "ä»¥ç¡®ä¿Ŀ": 5546,
      "Ġ50": 5547,
      "æĦıæĢĿ": 5548,
      "ule": 5549,
      "çļĦåİŁåĽł": 5550,
      "ocus": 5551,
      "æ¡Ĩæŀ¶": 5552,
      "æ¢¦æĥ³": 5553,
      "çĦĬ": 5554,
      "Ġask": 5555,
      "è°¢è°¢": 5556,
      "ä»Ķ": 5557,
      "è¾£": 5558,
      "èĥİ": 5559,
      "åħ±æľī": 5560,
      "çĤĴ": 5561,
      "æŃ£ç¡®çļĦ": 5562,
      "çħ®": 5563,
      "Ġoriginal": 5564,
      "So": 5565,
      "é¡¾å®¢": 5566,
      "çºł": 5567,
      "sp": 5568,
      "IC": 5569,
      "çĲĥåĳĺ": 5570,
      "ift": 5571,
      "fer": 5572,
      "ĠFr": 5573,
      "ä¸ĵéĹ¨": 5574,
      "è¯·éĹ®": 5575,
      "Ġsimple": 5576,
      "98": 5577,
      "çļĦäºĭæĥħ": 5578,
      "Ġlocal": 5579,
      "Ġpres": 5580,
      "çĽ¸åºĶçļĦ": 5581,
      "ape": 5582,
      "èĤ¡ä¸ľ": 5583,
      "äº§æĿĥ": 5584,
      "ä¸īä¸ī": 5585,
      ")(": 5586,
      "ä»ĸäºº": 5587,
      "æľīåĵªäºĽ": 5588,
      "æķ°æį®åºĵ": 5589,
      "é«ĺæ¸©": 5590,
      "åł¡": 5591,
      "åģĩè®¾": 5592,
      "æĬķèµĦèĢħ": 5593,
      "ything": 5594,
      "ä¸»ç®¡": 5595,
      "ä¾¿åĪ©": 5596,
      "æĭĨ": 5597,
      "æŀĦæĪĲ": 5598,
      "åħ±åĴĮåĽ½": 5599,
      "ms": 5600,
      "å¦»": 5601,
      "åķĨæłĩ": 5602,
      "}{\\": 5603,
      "è¿ĺèĥ½": 5604,
      "orth": 5605,
      "ä¼Ĺå¤ļ": 5606,
      "Ġfriend": 5607,
      "æĸ°èĥ½æºĲ": 5608,
      "2008": 5609,
      "é«ĺè´¨éĩı": 5610,
      "med": 5611,
      "Ġallow": 5612,
      "æĲŃéħį": 5613,
      "éĤĢè¯·": 5614,
      "åįļçī©": 5615,
      "Ġdistrib": 5616,
      "por": 5617,
      "duct": 5618,
      "ibr": 5619,
      "æī¹åĩĨ": 5620,
      "Ġopp": 5621,
      "aster": 5622,
      "çĬ¯ç½ª": 5623,
      "Ġseveral": 5624,
      "58": 5625,
      "Ġfour": 5626,
      "å¤ĸçļĦ": 5627,
      "æ£ĭ": 5628,
      "ĠAd": 5629,
      "ä¼ĺæĥł": 5630,
      "çłĤ": 5631,
      "Ġ==": 5632,
      "Ġelements": 5633,
      "Ġsingle": 5634,
      "é«Ķ": 5635,
      "rad": 5636,
      "Ġinvol": 5637,
      "å®¶äºº": 5638,
      "æľ±": 5639,
      "Ġhard": 5640,
      "ä¹Łåľ¨": 5641,
      "èĢĮä¸įæĺ¯": 5642,
      "çķª": 5643,
      "}^{": 5644,
      "ories": 5645,
      "åĽ½åĬ¡": 5646,
      "ç¡ķ": 5647,
      "place": 5648,
      "vious": 5649,
      "è¡¥åħħ": 5650,
      "Ġpract": 5651,
      "çķ¶": 5652,
      "ä¼ļåĳĺ": 5653,
      "åįĹäº¬": 5654,
      "400": 5655,
      "box": 5656,
      "Ġrese": 5657,
      "ird": 5658,
      "Ġï¼Ī": 5659,
      "éķ¿åº¦": 5660,
      "èĩªæ²»": 5661,
      "å±ķè§Ī": 5662,
      "arning": 5663,
      "æ¤Ĵ": 5664,
      "åĳ¨æľŁ": 5665,
      "Ġtrue": 5666,
      "Ġmaking": 5667,
      "éģİ": 5668,
      "ç¾İå¥½": 5669,
      "Ġexperience": 5670,
      "ĠQu": 5671,
      "Ġtable": 5672,
      "éħ±": 5673,
      "ĠRes": 5674,
      "å®ŀåĬĽ": 5675,
      "æµģåĬ¨": 5676,
      "Ġintegr": 5677,
      "çĺ¤": 5678,
      "ä¸ĬåįĪ": 5679,
      "åı¯èĥ½éľĢè¦ģ": 5680,
      "æķ¸": 5681,
      "æľĢå¥½": 5682,
      "æĭĽçĶŁ": 5683,
      "çīĽçļ®": 5684,
      "ently": 5685,
      "SE": 5686,
      "eb": 5687,
      "Ġgame": 5688,
      "æ¶Īéĺ²": 5689,
      "æĻ®éģį": 5690,
      "è³½": 5691,
      "atures": 5692,
      "åĩ¯": 5693,
      "è®¤åı¯": 5694,
      "ç¼Ŀ": 5695,
      "æİĪæĿĥ": 5696,
      "æł¹æľ¬": 5697,
      "Ġelement": 5698,
      "æĦıå¤§åĪ©": 5699,
      "å®Ļ": 5700,
      "å°ĸ": 5701,
      "å¥ī": 5702,
      "ç»´æĮģ": 5703,
      "Ġcirc": 5704,
      "ç«ĭåį³": 5705,
      "Ġdue": 5706,
      "ĠAI": 5707,
      "éĶĭ": 5708,
      "ended": 5709,
      "%ï¼Ľ": 5710,
      "è¾ĸ": 5711,
      "Ġrecord": 5712,
      "åĻª": 5713,
      "42": 5714,
      "ĠSy": 5715,
      "Ġdescrib": 5716,
      "47": 5717,
      "ley": 5718,
      "Ġsug": 5719,
      "56": 5720,
      "dis": 5721,
      "èĩ³ä»Ĭ": 5722,
      "çļĦæĥħåĨµä¸ĭ": 5723,
      "ised": 5724,
      "æįķ": 5725,
      "ä¼ĺçĤ¹": 5726,
      "çļĦåīį": 5727,
      "å¦Īå¦Ī": 5728,
      "çĪ¾": 5729,
      "çĶŁåŃĺ": 5730,
      "åıĳè¡Į": 5731,
      "ä»Ļ": 5732,
      "Ġside": 5733,
      "AM": 5734,
      "etic": 5735,
      "åī²": 5736,
      "æĢ»ä½ĵ": 5737,
      "ived": 5738,
      "ä¸ĩäºº": 5739,
      "æ¡Īä¾ĭ": 5740,
      "å¹²çĩ¥": 5741,
      "çĻ£": 5742,
      "æīĵåį°": 5743,
      "äººå·¥æĻºèĥ½æĬĢæľ¯": 5744,
      "æĤ¬": 5745,
      "æĿŃ": 5746,
      "æ»©": 5747,
      "Ġseries": 5748,
      "èĩ´åĬĽäºİ": 5749,
      "ĠAll": 5750,
      "å¾Īå¥½": 5751,
      "æ¸ħæ¥ļ": 5752,
      "ĊĠĠĠĠĊĠĠĠ": 5753,
      "ission": 5754,
      "ä¼ļä¸Ĭ": 5755,
      "å±ķå¼Ģ": 5756,
      "æŃ¦æ±ī": 5757,
      "å°½éĩı": 5758,
      "ĠComm": 5759,
      "å¤ļæ¬¡": 5760,
      "å¤º": 5761,
      "åľ¨ä¸Ģèµ·": 5762,
      "uro": 5763,
      "åĨłåĨĽ": 5764,
      "éĢĨ": 5765,
      "å¤ļåħĥ": 5766,
      "éħįå¥Ĺ": 5767,
      "Ġens": 5768,
      "ification": 5769,
      "åľ°çĲĨ": 5770,
      "å®ĥä»¬çļĦ": 5771,
      "Ġphys": 5772,
      "å§Ĳ": 5773,
      "Ġpay": 5774,
      "åĽ¾çīĩ": 5775,
      "Ġever": 5776,
      "æľīæ²¡æľī": 5777,
      "å®ļåĪ¶": 5778,
      "æĺ¯ä¸ŃåĽ½": 5779,
      "æĸ°åĨł": 5780,
      "çĥ¯": 5781,
      "å¿§": 5782,
      "ograph": 5783,
      "Ġinstall": 5784,
      "æģĭ": 5785,
      "ä¸»è¦ģæĺ¯": 5786,
      "Ġhig": 5787,
      "Ġturn": 5788,
      "å¤ļå¹´": 5789,
      "Ġsize": 5790,
      "çĤ¸": 5791,
      "åĽ½åĬ¡éĻ¢": 5792,
      "å®¶çļĦ": 5793,
      "Ġinvest": 5794,
      "çī¹å®ļçļĦ": 5795,
      "ĠShe": 5796,
      "æ°¨": 5797,
      "å°±èĥ½": 5798,
      "ä¸ĢæĿ¡": 5799,
      "åħ¨ä½ĵ": 5800,
      "æīĢæľīçļĦ": 5801,
      "åįĵ": 5802,
      "åħĪåĲİ": 5803,
      "date": 5804,
      "oud": 5805,
      "è®¤çŁ¥": 5806,
      "OR": 5807,
      "cdot": 5808,
      "CT": 5809,
      "è¿ĺè¦ģ": 5810,
      "æ½ľåľ¨": 5811,
      "æ¡ĥ": 5812,
      "æ°ĽåĽ´": 5813,
      "æĿľ": 5814,
      "outh": 5815,
      "åı°æ¹¾": 5816,
      "å®¡æŁ¥": 5817,
      "ming": 5818,
      "æĹģ": 5819,
      "vironment": 5820,
      "Ġ//": 5821,
      "PS": 5822,
      "ç½Ĺæĸ¯": 5823,
      "lu": 5824,
      "ze": 5825,
      "ä¸ļç»©": 5826,
      "æľīåĪ©": 5827,
      "iod": 5828,
      "èµĭ": 5829,
      "Ġdays": 5830,
      "æĸ°æĬĢæľ¯": 5831,
      "Ġ\\)": 5832,
      "åĩºçĶŁ": 5833,
      "çļĦåĨħå®¹": 5834,
      "æŁ¥çľĭ": 5835,
      "Ġable": 5836,
      "æĦ¿æĦı": 5837,
      "éļıæĹ¶": 5838,
      "ances": 5839,
      "Ġbro": 5840,
      "\".": 5841,
      "åŃ¤": 5842,
      "åŃ£èĬĤ": 5843,
      "æıĲäº¤": 5844,
      "ä¸Ĭæ¶¨": 5845,
      "æ©¡": 5846,
      "gorithm": 5847,
      "eta": 5848,
      "å¹¶æ²¡æľī": 5849,
      "æķĪçĽĬ": 5850,
      "ä¸ĵé¡¹": 5851,
      "Ġreport": 5852,
      "åĵįåºĶ": 5853,
      "ä¼¼ä¹İ": 5854,
      "æĹ¶åĪ»": 5855,
      "Ġcontain": 5856,
      "bal": 5857,
      "istic": 5858,
      "ä¾ĿçĦ¶": 5859,
      "How": 5860,
      "ĠSc": 5861,
      "é«ĺç«¯": 5862,
      "Ġlittle": 5863,
      "68": 5864,
      "é½¿": 5865,
      "åŃ¦ä½į": 5866,
      "lection": 5867,
      "å®ĩå®Ļ": 5868,
      "è¿ĩæ»¤": 5869,
      "åĮ»èį¯": 5870,
      "å½±çīĩ": 5871,
      "å®ŀè¡Į": 5872,
      "oice": 5873,
      "itial": 5874,
      "åĲİæĿ¥": 5875,
      "åł´": 5876,
      "æ²ĥ": 5877,
      "ç»´çĶŁç´ł": 5878,
      "Ġcome": 5879,
      "ç®¡éģĵ": 5880,
      "åĳ¨åĽ´": 5881,
      "Ġstudents": 5882,
      "Ġlow": 5883,
      "ĠMan": 5884,
      "rist": 5885,
      "oney": 5886,
      "éĻĦè¿ĳ": 5887,
      "éĥģ": 5888,
      "plement": 5889,
      "Ġpositive": 5890,
      "å¾½": 5891,
      "éŁ©åĽ½": 5892,
      "åŃ¦ä¹łåĴĮ": 5893,
      "å¯¹æīĭ": 5894,
      "Ġbelow": 5895,
      "'ll": 5896,
      "ä¿¡å¿ĥ": 5897,
      "new": 5898,
      "osed": 5899,
      "ferences": 5900,
      "åľ¨æŃ¤": 5901,
      "ä½İäºİ": 5902,
      "Ġwhy": 5903,
      "é«ĺçŃī": 5904,
      "ĠLet": 5905,
      "ocument": 5906,
      "ä¸įçŁ¥éģĵ": 5907,
      "Here": 5908,
      "éģĭ": 5909,
      "There": 5910,
      "äº©": 5911,
      "çİ°æľī": 5912,
      "çŁ©": 5913,
      "ä¼¦çĲĨ": 5914,
      "é¬": 5915,
      "åĲĪéĢĤçļĦ": 5916,
      "08": 5917,
      "ither": 5918,
      "Ġsentence": 5919,
      "ush": 5920,
      "Ġassist": 5921,
      "ä¿¡ä»»": 5922,
      "è®¾å®ļ": 5923,
      "ĠMar": 5924,
      "Ġput": 5925,
      "åĽ¾ä¹¦": 5926,
      "ä½ıæĪ¿": 5927,
      "çļĦè¦ģæ±Ĥ": 5928,
      "éĺĶ": 5929,
      "åģ¥èº«": 5930,
      "ç¼ĵè§£": 5931,
      "Ġpack": 5932,
      "æİ¥ä¸ĭæĿ¥": 5933,
      "Ġintern": 5934,
      "Ġdiv": 5935,
      "Ġworking": 5936,
      "ç¶ĵ": 5937,
      "ches": 5938,
      "atural": 5939,
      "æ¨¡åĿĹ": 5940,
      "çļĦçİ¯å¢ĥ": 5941,
      "Ġmar": 5942,
      "æ±ģ": 5943,
      "Ġterms": 5944,
      "43": 5945,
      "éĢĥ": 5946,
      "ç¬¬ä¸Ģä¸ª": 5947,
      "67": 5948,
      "çłĸ": 5949,
      "å±Ĥæ¬¡": 5950,
      "çĶ³æĬ¥": 5951,
      "éķ¿çļĦ": 5952,
      "ieve": 5953,
      "Ġla": 5954,
      "èĸª": 5955,
      "çīĽçļ®çĻ£": 5956,
      "æĿĥåĪ©": 5957,
      "éĩĳé¢Ŀ": 5958,
      "Ġself": 5959,
      "çħ§çīĩ": 5960,
      "äºŀ": 5961,
      "Ġexpect": 5962,
      "ä¼łéĢĴ": 5963,
      "éģµå®Ī": 5964,
      "ä¼ļæľī": 5965,
      "è¿ĩåº¦": 5966,
      "ä¹Łå°±æĺ¯": 5967,
      "Ġmaterial": 5968,
      "perature": 5969,
      "å¸¦æĿ¥äºĨ": 5970,
      "å¾ĹåĪ°äºĨ": 5971,
      "col": 5972,
      "ured": 5973,
      "èµĽåŃ£": 5974,
      "Ġalong": 5975,
      "Ġwebs": 5976,
      "ç§¦": 5977,
      "æ£Ĵ": 5978,
      "æłĩé¢ĺ": 5979,
      "åłĨ": 5980,
      "çī§": 5981,
      "æĻ¨": 5982,
      "å·¨å¤§çļĦ": 5983,
      "ope": 5984,
      "Ġes": 5985,
      "()`": 5986,
      "urs": 5987,
      "è¿Ŀæ³ķ": 5988,
      "æĹ¨åľ¨": 5989,
      "æĸĩçĮ®": 5990,
      "è¡Ĺéģĵ": 5991,
      "çļĦåŁºæľ¬": 5992,
      "èħ¹": 5993,
      "æĵ¦": 5994,
      "Ġneeds": 5995,
      "ç½©": 5996,
      "Ġevent": 5997,
      "Ġair": 5998,
      "Ġoutput": 5999,
      "Ġfunctions": 6000,
      "æıĲç¤º": 6001,
      "ä»¥åīį": 6002,
      "çĶµåķĨ": 6003,
      "å¸¦æĿ¥çļĦ": 6004,
      "Ġparam": 6005,
      "çªģçĦ¶": 6006,
      "Ġrele": 6007,
      "æĬ¤çĲĨ": 6008,
      "ä¸ĢæĹ¦": 6009,
      "å°ĩ": 6010,
      "æľ¬ç§ĳ": 6011,
      "Ġamount": 6012,
      "å¤§å¹ħ": 6013,
      "çīĪæĿĥ": 6014,
      "åįıä½ľ": 6015,
      "Ġindivid": 6016,
      "ee": 6017,
      "å°ºå¯¸": 6018,
      "éļıæľº": 6019,
      "åİ¨": 6020,
      "ä¸»ä½ĵ": 6021,
      "ey": 6022,
      "ĠHere": 6023,
      "åĴĮè°Ĳ": 6024,
      "é£ŁçĶ¨": 6025,
      "åįģäºĮ": 6026,
      "conom": 6027,
      "çĨŁæĤī": 6028,
      "Ġrequire": 6029,
      "æĻĭ": 6030,
      "çļĦæķħäºĭ": 6031,
      "æĢª": 6032,
      "æºª": 6033,
      "Ġshort": 6034,
      "åĿĩåĮĢ": 6035,
      "Ġmass": 6036,
      "lished": 6037,
      "çļĦè®¾è®¡": 6038,
      "ï¼īï¼ļ": 6039,
      "è¿Ľå±ķ": 6040,
      "ç¦»å¼Ģ": 6041,
      "Ø§": 6042,
      "å·¥åİĤ": 6043,
      "Ġprote": 6044,
      "Ð»": 6045,
      "åį°åº¦": 6046,
      "æĭĮ": 6047,
      "æ¥Ń": 6048,
      "ç¯ĩæĸĩç«ł": 6049,
      "å¹¶ä¸įæĺ¯": 6050,
      "ĠPr": 6051,
      "æĿ¥åĪ°": 6052,
      "ä¸īå¹´": 6053,
      "è¨Ń": 6054,
      "æĽ¿ä»£": 6055,
      "åħ¬çĽĬ": 6056,
      "pha": 6057,
      "ĠNo": 6058,
      "Ġmil": 6059,
      "èµ¶": 6060,
      "Ġexam": 6061,
      "Ġwords": 6062,
      "æ³³": 6063,
      "åĮºåĿĹ": 6064,
      "çĸ«æĥħéĺ²æİ§": 6065,
      "éªĳ": 6066,
      "ilt": 6067,
      "enn": 6068,
      "ales": 6069,
      "äººç±»çļĦ": 6070,
      "96": 6071,
      "æĽ´ä¸º": 6072,
      "å§Ķä¼ļ": 6073,
      "è´«åĽ°": 6074,
      "('": 6075,
      "Ġtask": 6076,
      "åĳĬè¯īæĪĳ": 6077,
      "Ġparticular": 6078,
      "æ¼Ĩ": 6079,
      "è§Ħå¾ĭ": 6080,
      "è®©ä½ł": 6081,
      "Ġapproach": 6082,
      "çĽĴ": 6083,
      "å£³": 6084,
      "ä¼łç»ŁçļĦ": 6085,
      "ored": 6086,
      "gether": 6087,
      "Ġtogether": 6088,
      "ding": 6089,
      "arl": 6090,
      "NA": 6091,
      "å·¥ç¨ĭå¸Ī": 6092,
      "rain": 6093,
      "å·¥ä½ľäººåĳĺ": 6094,
      "Ġneg": 6095,
      "Ġsystems": 6096,
      "Ġphot": 6097,
      "å¾Īå¥½çļĦ": 6098,
      "æľĢå¥½çļĦ": 6099,
      "çŁ³æ²¹": 6100,
      "ĠWhen": 6101,
      "æħĪ": 6102,
      "äººæ°ĳæĶ¿åºľ": 6103,
      "æĭĵå±ķ": 6104,
      "rop": 6105,
      "èĤł": 6106,
      "èģĶçĽŁ": 6107,
      "ges": 6108,
      "çĶ¨æĪ·çļĦ": 6109,
      "Ph": 6110,
      "å©´": 6111,
      "éĿ©åĳ½": 6112,
      "æĺ¨": 6113,
      "è¿Ļæ®µ": 6114,
      "é¡¹çĽ®çļĦ": 6115,
      "å¾ĭå¸Ī": 6116,
      "Wh": 6117,
      "action": 6118,
      "æĬ«": 6119,
      "Ġtool": 6120,
      "å¾Īå¤§çļĦ": 6121,
      "å»ī": 6122,
      "åħ¶å®ĥ": 6123,
      "ĠThese": 6124,
      "Ġreview": 6125,
      "åĲĮæĦı": 6126,
      "Ġsuccess": 6127,
      "èĮĥåĽ´åĨħ": 6128,
      "æįĲ": 6129,
      "Ġquestions": 6130,
      "ä¿®å¤į": 6131,
      "è®²è¿°": 6132,
      "çĽ¾": 6133,
      "èĤª": 6134,
      "éĽ¶åĶ®": 6135,
      "æł¼å¼ı": 6136,
      "æ£ĢéªĮ": 6137,
      "Ġsignific": 6138,
      "ĠÂ": 6139,
      "stit": 6140,
      "Ġservices": 6141,
      "åľŁå£¤": 6142,
      "å¤ıåŃ£": 6143,
      "èĦĤèĤª": 6144,
      "Ġ...": 6145,
      "ably": 6146,
      "æķ°æį®çļĦ": 6147,
      "Ġcontrol": 6148,
      "ival": 6149,
      "æ¼Ķåĳĺ": 6150,
      "Ġprice": 6151,
      "æĻļä¸Ĭ": 6152,
      "å¤įæĿĤçļĦ": 6153,
      "æĤ¦": 6154,
      "èĩªçĦ¶è¯Ńè¨Ģ": 6155,
      "è´§å¸ģ": 6156,
      "ST": 6157,
      "Ġcr": 6158,
      "Ġarg": 6159,
      "rel": 6160,
      "æĪĲä¸ºäºĨ": 6161,
      "Ġprofess": 6162,
      "èħĲèļĢ": 6163,
      "Ġpotential": 6164,
      "Ġbig": 6165,
      "Ġsw": 6166,
      "ilar": 6167,
      "ä¼ĳéĹ²": 6168,
      "åħ¬å¹³": 6169,
      "Ġlo": 6170,
      "è¿Ļä¸ªéĹ®é¢ĺ": 6171,
      "åħ§": 6172,
      "ç©ºè°ĥ": 6173,
      "\\]": 6174,
      "æŃ»äº¡": 6175,
      "ä»ĸåľ¨": 6176,
      "å®ŀä½ĵ": 6177,
      "æµģè¡Į": 6178,
      "æĢ»ç»ıçĲĨ": 6179,
      "æĪ°": 6180,
      "åįļçī©é¦Ĩ": 6181,
      "å°±åĥı": 6182,
      "é¢ģ": 6183,
      "æĭĸ": 6184,
      "èĤºçĤİ": 6185,
      "èĴĤ": 6186,
      "ajor": 6187,
      "çĿĽ": 6188,
      "æ¸Ĺ": 6189,
      "Ġappear": 6190,
      "rence": 6191,
      "Ġversion": 6192,
      "éĶ¦": 6193,
      "Ġmatrix": 6194,
      "æĪĳåı¯ä»¥": 6195,
      "èĢĥæł¸": 6196,
      "ĠåĴĮ": 6197,
      "åıĳåĬ¨": 6198,
      "éĽĨä½ĵ": 6199,
      "éĿ¢åĲĳ": 6200,
      "ately": 6201,
      "å¾Īéļ¾": 6202,
      "åºĶçĶ¨ç¨ĭåºı": 6203,
      "æĿĥçĽĬ": 6204,
      "å°ıåŃ¦": 6205,
      "åİ¦": 6206,
      "åīª": 6207,
      "äºİæĺ¯": 6208,
      "èį¯åĵģ": 6209,
      "çļĦçłĶç©¶": 6210,
      "çī¢": 6211,
      "urther": 6212,
      "è¿Ł": 6213,
      "Ġdig": 6214,
      "äººåĬĽ": 6215,
      "æİ¥è¿ĳ": 6216,
      "41": 6217,
      "Ġonline": 6218,
      "ä¸Ģç³»åĪĹ": 6219,
      "åĲĪéĩĳ": 6220,
      "ç´§å¼ł": 6221,
      "ä½©": 6222,
      "Ġuntil": 6223,
      "Ġlot": 6224,
      "åĢĳ": 6225,
      "éĵ¸": 6226,
      "ocial": 6227,
      "æľįåĬ¡çļĦ": 6228,
      "Ġdefin": 6229,
      "åĲĪæ³ķ": 6230,
      "åĩıè½»": 6231,
      "RO": 6232,
      "arget": 6233,
      "ental": 6234,
      "AB": 6235,
      "å·¥èµĦ": 6236,
      "äººæ°ĳåħ±åĴĮåĽ½": 6237,
      "éĽ¾": 6238,
      "çľģçº§": 6239,
      "åľ°çļĦ": 6240,
      "åĬĽåº¦": 6241,
      "åħ¬å®ī": 6242,
      "å¤±åİ»": 6243,
      "QL": 6244,
      "çĸı": 6245,
      "çº¢èī²": 6246,
      "æ¿Ģåıĳ": 6247,
      "ĠMat": 6248,
      "çĥ¦": 6249,
      "ç¾¤ä½ĵ": 6250,
      "å¯Ĩåº¦": 6251,
      "å¿ħè¦ģçļĦ": 6252,
      "æ°¢": 6253,
      "æĹ¥åīį": 6254,
      "ius": 6255,
      "ä¼¤å®³": 6256,
      "åŃ¦åİĨ": 6257,
      "çĪ±çļĦ": 6258,
      "æĺĨ": 6259,
      "da": 6260,
      "æĢ§è´¨": 6261,
      "èĳĹåĲį": 6262,
      "èĤĿ": 6263,
      "è¯·æ±Ĥ": 6264,
      "å»ºæĪĲ": 6265,
      "æī©å±ķ": 6266,
      "Ġfocus": 6267,
      "ç§įç±»": 6268,
      "ĠAt": 6269,
      "å¯Ħ": 6270,
      "Ġindividual": 6271,
      "79": 6272,
      "ĠYork": 6273,
      "ĠÃĹ": 6274,
      "éļľç¢į": 6275,
      "å®ł": 6276,
      "æĻºèĥ½åĮĸ": 6277,
      "æĭĴ": 6278,
      "iving": 6279,
      "59": 6280,
      "é¢ĺçĽ®": 6281,
      "åı¯èĥ½çļĦ": 6282,
      "ä¸ĸçķĮä¸Ĭ": 6283,
      "éĢīé¡¹": 6284,
      "åĲ«éĩı": 6285,
      "å®ŀéĻħä¸Ĭ": 6286,
      "aps": 6287,
      "çļĨ": 6288,
      "æıĲä¾ĽçļĦ": 6289,
      "ively": 6290,
      "æ¸©æļĸ": 6291,
      "æıŃ": 6292,
      "å£°æĺİ": 6293,
      "ä¸ªæĢ§åĮĸ": 6294,
      "agement": 6295,
      "çİ¯å¢ĥä¿ĿæĬ¤": 6296,
      "Ġì": 6297,
      "æĺ¯ä¸į": 6298,
      "Ġenc": 6299,
      "ä¸Ģå¤©": 6300,
      "å½¹": 6301,
      "ĠAmerican": 6302,
      "æī®": 6303,
      "æķ°çļĦ": 6304,
      "Ġ24": 6305,
      "Ġarray": 6306,
      "ĠMay": 6307,
      "è³ĩ": 6308,
      "ðŁ": 6309,
      "çĶµæºĲ": 6310,
      "lose": 6311,
      "ä½łèĥ½": 6312,
      "é¡µéĿ¢": 6313,
      "çļĦèĥ½åĬĽ": 6314,
      "è°ĭ": 6315,
      "ä¸Ńåįİäººæ°ĳåħ±åĴĮåĽ½": 6316,
      "Ġexist": 6317,
      "æĳĦå½±": 6318,
      "åıĺæĪĲ": 6319,
      "åīĳ": 6320,
      "yl": 6321,
      "Ġann": 6322,
      "æĶ»åĩ»": 6323,
      "ration": 6324,
      "éĹľ": 6325,
      "unction": 6326,
      "éĤ»": 6327,
      "ç¬¬ä¸Ģæ¬¡": 6328,
      "ç¡«": 6329,
      "è¿Ī": 6330,
      "Ġleg": 6331,
      "éĩĬæĶ¾": 6332,
      "éĦ": 6333,
      "Ġgot": 6334,
      "æĤ£èĢħçļĦ": 6335,
      "æµĨ": 6336,
      ")^": 6337,
      "ands": 6338,
      "arrow": 6339,
      "ä¼łè¾ĵ": 6340,
      "æµ·å¤ĸ": 6341,
      "åĪ«äºº": 6342,
      "å¹¼åĦ¿": 6343,
      "illion": 6344,
      "é¤Ĳé¥®": 6345,
      "cm": 6346,
      "ources": 6347,
      "åĨľæ°ĳ": 6348,
      "éĻª": 6349,
      "è®¾å¤ĩçļĦ": 6350,
      "è£ħä¿®": 6351,
      "onse": 6352,
      "æŃ£æĺ¯": 6353,
      "import": 6354,
      "æĵİ": 6355,
      "è¿Ļæĺ¯ä¸Ģä¸ª": 6356,
      "å¸Ĥæ°ĳ": 6357,
      "æĨ": 6358,
      "alf": 6359,
      "éķ¿æĹ¶éĹ´": 6360,
      "çģĮ": 6361,
      "Ġsort": 6362,
      "omen": 6363,
      "Ġreason": 6364,
      "Ġ--": 6365,
      "....": 6366,
      "Ġmove": 6367,
      "from": 6368,
      "æµ¸": 6369,
      "ç´§æĢ¥": 6370,
      "åĬłçĽŁ": 6371,
      "éĻ¢æł¡": 6372,
      "åĽŃåĮº": 6373,
      "çµĲ": 6374,
      "åĨ²åĩ»": 6375,
      "å¤§å¤§": 6376,
      "èĥģ": 6377,
      "oose": 6378,
      "å¤ĸè§Ĥ": 6379,
      "åĬłçĥŃ": 6380,
      "Ġwin": 6381,
      "ä¹ĭä¸Ń": 6382,
      "ä¼łæĦŁ": 6383,
      "ourn": 6384,
      "egin": 6385,
      "ä¸įèī¯": 6386,
      "imens": 6387,
      "ä¸Ģæĺ¯": 6388,
      "åİŁæĸĻ": 6389,
      "Ġspeed": 6390,
      "ĠWith": 6391,
      "ĠâĢĶ": 6392,
      "è·¯å¾Ħ": 6393,
      "å®Ŀå®Ŀ": 6394,
      "cer": 6395,
      "Ġcertain": 6396,
      "Ġlooking": 6397,
      "Ġelse": 6398,
      "Ġsite": 6399,
      "Ġaccount": 6400,
      "Ġgl": 6401,
      "side": 6402,
      "ym": 6403,
      "æ³Ħ": 6404,
      "clus": 6405,
      "æ¯ıæ¬¡": 6406,
      "çłĶç©¶çĶŁ": 6407,
      "ump": 6408,
      "å¼Ĺ": 6409,
      "ators": 6410,
      "è®ºåĿĽ": 6411,
      "ä»ªåĻ¨": 6412,
      "Ġagainst": 6413,
      "CO": 6414,
      "pecial": 6415,
      "çĹħæĥħ": 6416,
      "åĩłå¹´": 6417,
      "åİĺ": 6418,
      "æĻ¯è§Ĥ": 6419,
      "ä¸īè§Ĵ": 6420,
      "æ°ĶåĢĻåıĺåĮĸ": 6421,
      "èµĶ": 6422,
      "Ġjob": 6423,
      "ä¼ļåľ¨": 6424,
      "Un": 6425,
      "æĺ¯éĿŀå¸¸": 6426,
      "ĠOut": 6427,
      "une": 6428,
      "çĦ¦èĻĳ": 6429,
      "è¾ĥå¤§": 6430,
      "å¤įåĲĪ": 6431,
      "ä¸ĭè½½": 6432,
      "æ»ļ": 6433,
      "è¾ĥä¸º": 6434,
      "çĶŁæĪĲä¸Ģä¸ª": 6435,
      "ged": 6436,
      "å¦¹": 6437,
      "åı¤ä»£": 6438,
      "åįıåĬ©": 6439,
      "éĻķ": 6440,
      "åĪ©çİĩ": 6441,
      "style": 6442,
      "ä¹Łèĥ½": 6443,
      "ç³ķ": 6444,
      "é»ĳèī²": 6445,
      "éĨĩ": 6446,
      "æĹ¥èĩ³": 6447,
      "æķħéļľ": 6448,
      "åĪ°è¾¾": 6449,
      "ï¼ŁâĢĿ": 6450,
      "$\\": 6451,
      "æŃ§": 6452,
      "åĳ¨è¾¹": 6453,
      "åĩºåıĳ": 6454,
      "ä¹ĥ": 6455,
      "æĪĸæĺ¯": 6456,
      "Ġnever": 6457,
      "éĺĢ": 6458,
      "éģµå¾ª": 6459,
      "=\"": 6460,
      "åĽĽä¸ª": 6461,
      "è¯Ħè®º": 6462,
      "ç¦»åŃĲ": 6463,
      "Ġpred": 6464,
      "lex": 6465,
      "æŁľ": 6466,
      "ç¡ħ": 6467,
      "å®¡æł¸": 6468,
      "æµ¦": 6469,
      "iven": 6470,
      "èħĶ": 6471,
      "æ¹ĸåĮĹ": 6472,
      "æ¯ķä¸ļçĶŁ": 6473,
      "ä¸ŃåĽ½çļĦ": 6474,
      "ä»ªå¼ı": 6475,
      "èľľ": 6476,
      "åįģå¹´": 6477,
      "åıĤè§Ĥ": 6478,
      "æĹłè®ºæĺ¯": 6479,
      "Ġlearn": 6480,
      "çĸ²": 6481,
      "åŁºç¡Ģè®¾æĸ½": 6482,
      "wards": 6483,
      "Cl": 6484,
      "ç²Ĺ": 6485,
      "éĹª": 6486,
      "äºļæ´²": 6487,
      "wh": 6488,
      "åı¦ä¸Ģä¸ª": 6489,
      "èµł": 6490,
      "å¼ºå¤§çļĦ": 6491,
      "ä¸Ģä»£": 6492,
      "Ġflo": 6493,
      "èħ¿": 6494,
      "é¢ĦæľŁ": 6495,
      "ç¢ĳ": 6496,
      "ä¸ĩåĲ¨": 6497,
      "è¯»èĢħ": 6498,
      "Ġemploy": 6499,
      "data": 6500,
      "ung": 6501,
      "å§¿": 6502,
      "èĬĤçĤ¹": 6503,
      "æ¿ĢåĬ±": 6504,
      "åĨįçĶŁ": 6505,
      "åİĭç¼©": 6506,
      "Ġ\\\\": 6507,
      "çĶŁæ´»çļĦ": 6508,
      "å¥ĳ": 6509,
      "Ġder": 6510,
      "éĥ¨ä»¶": 6511,
      "Ġtell": 6512,
      "72": 6513,
      "AL": 6514,
      "ä¿ĿçķĻ": 6515,
      "af": 6516,
      "ï¼ģâĢĿ": 6517,
      "åĩºè¡Į": 6518,
      "Ġstructure": 6519,
      "ç¨į": 6520,
      "æĪ·å¤ĸ": 6521,
      "åģľæŃ¢": 6522,
      "sin": 6523,
      "ĠBl": 6524,
      "æľ¬ä¹¦": 6525,
      "Ġ%": 6526,
      "Ġquant": 6527,
      "Ġroom": 6528,
      "é¥¼": 6529,
      "indows": 6530,
      "alse": 6531,
      "çŃīé¢ĨåŁŁ": 6532,
      "éĩįéĩı": 6533,
      "å¼ºçĥĪ": 6534,
      "ording": 6535,
      "çĨĬ": 6536,
      "ele": 6537,
      "äºĭåĬ¡": 6538,
      "åŁºå±Ĥ": 6539,
      "book": 6540,
      "åħħçĶµ": 6541,
      "SS": 6542,
      "Ġaverage": 6543,
      "icro": 6544,
      "Ġtoday": 6545,
      "Ġmot": 6546,
      "é¥±": 6547,
      "John": 6548,
      "æ°´çļĦ": 6549,
      "Ġalgorithm": 6550,
      "èĥĨ": 6551,
      "PC": 6552,
      "é¢ĳçİĩ": 6553,
      "é«ĺä¸Ń": 6554,
      "é¸£": 6555,
      "rodu": 6556,
      "æ»¨": 6557,
      "çľ¼çĿĽ": 6558,
      "æĸ¤": 6559,
      "Ġexact": 6560,
      "ç»Ļå®ļ": 6561,
      "2007": 6562,
      "åĪ¶éĢłä¸ļ": 6563,
      "anks": 6564,
      "è°¨": 6565,
      "éĺ²æĬ¤": 6566,
      "å¼ķæĵİ": 6567,
      "Ġcalculate": 6568,
      "çĽ¸ä¼¼": 6569,
      "Ġfood": 6570,
      "åħ¨çľģ": 6571,
      "Ġ40": 6572,
      "Ġperiod": 6573,
      "å¾¡": 6574,
      "Ġcontext": 6575,
      "ĠDo": 6576,
      "å¥ĸåĬ±": 6577,
      "Ġnorm": 6578,
      "å²ģçļĦ": 6579,
      "ML": 6580,
      "Ġmakes": 6581,
      "Ġuser": 6582,
      "æĻ®åıĬ": 6583,
      "Com": 6584,
      "ç¡¬ä»¶": 6585,
      "ä¿Ħç½Ĺæĸ¯": 6586,
      "mod": 6587,
      "åĲ¹": 6588,
      "iting": 6589,
      "åįİä¸º": 6590,
      "èģĶèµĽ": 6591,
      "Ġbreak": 6592,
      "vern": 6593,
      "åĪĻæĺ¯": 6594,
      "åĮºåĪ«": 6595,
      "å¨ģèĥģ": 6596,
      "ĠCent": 6597,
      "æħİ": 6598,
      "çļĦè¿ĩç¨ĭ": 6599,
      "Ġgre": 6600,
      "Ġsoft": 6601,
      "mathbf": 6602,
      "inary": 6603,
      "tr": 6604,
      "çĥĺ": 6605,
      "å½¢çĬ¶": 6606,
      "æ·Ģ": 6607,
      "æĴŀ": 6608,
      "'ve": 6609,
      "86": 6610,
      "Ġdeg": 6611,
      "çİ¯å¢ĥçļĦ": 6612,
      "Ġquality": 6613,
      "åĵ²åŃ¦": 6614,
      "æĺ¯çļĦ": 6615,
      "æ¶ĪèĢĹ": 6616,
      "æĳĩ": 6617,
      "ç±»åŀĭçļĦ": 6618,
      "Ġsuggest": 6619,
      "iver": 6620,
      "çľĭçľĭ": 6621,
      "bra": 6622,
      "èµĦè®¯": 6623,
      "ounds": 6624,
      "æµªè´¹": 6625,
      "bl": 6626,
      "Ġpage": 6627,
      "ĠWorld": 6628,
      "æĲ¬": 6629,
      "ä¹¡æĿĳ": 6630,
      "æľīæķĪåľ°": 6631,
      "çĪ¶äº²": 6632,
      "èĽĭçĻ½è´¨": 6633,
      "è¾ĥé«ĺ": 6634,
      "åħ³éĶ®è¯į": 6635,
      "æľįè£ħ": 6636,
      "Ġcell": 6637,
      "Ġrelations": 6638,
      "cos": 6639,
      "åį±å®³": 6640,
      "idd": 6641,
      "åĬ²": 6642,
      "æ²Ī": 6643,
      "åŃ¦èĢħ": 6644,
      "Ġhours": 6645,
      "æ°Ķæ¸©": 6646,
      "ortun": 6647,
      "Ġdoesn": 6648,
      "éĵ¾æİ¥": 6649,
      "57": 6650,
      "æ·ĺ": 6651,
      "ä½¿åħ¶": 6652,
      "è½¦åŀĭ": 6653,
      "Ġbit": 6654,
      "æĥ³è±¡": 6655,
      "Ġstudy": 6656,
      "çºªå¿µ": 6657,
      "ä»·åĢ¼è§Ĥ": 6658,
      "æ¼Ķåĩº": 6659,
      "53": 6660,
      "æĪĳä»¬å°Ĩ": 6661,
      "Ġsequ": 6662,
      "åĴĮæľįåĬ¡": 6663,
      "Ġdevelopment": 6664,
      "å¾Īå¤ļäºº": 6665,
      ")\\": 6666,
      "æ°¸è¿ľ": 6667,
      "ED": 6668,
      "åĨĻä½ľ": 6669,
      "ready": 6670,
      "åĨ»": 6671,
      "150": 6672,
      "Ġlearning": 6673,
      "!!": 6674,
      "ä¸Ģåľº": 6675,
      "æĥľ": 6676,
      "ç°": 6677,
      "åħ¨å¸Ĥ": 6678,
      "äºĮæĺ¯": 6679,
      "çłĶç©¶éĻ¢": 6680,
      "èĢģå¹´": 6681,
      "åľ°åĮºçļĦ": 6682,
      "æī¿è¯º": 6683,
      "Ġformula": 6684,
      "52": 6685,
      "èĢ¶": 6686,
      "Ġlab": 6687,
      "åı£æĦŁ": 6688,
      "600": 6689,
      "âĢĿï¼Ī": 6690,
      "epend": 6691,
      "ä½łå¥½": 6692,
      "éĢļè®¯": 6693,
      "åĳ½ä»¤": 6694,
      "åĮºåĿĹéĵ¾": 6695,
      "II": 6696,
      "åıĺéĩı": 6697,
      "Ġmeet": 6698,
      "Ġindust": 6699,
      "ä»°": 6700,
      "è¦ĸ": 6701,
      "ä½Ĩåľ¨": 6702,
      "ä¸ŃéĹ´": 6703,
      "çºµ": 6704,
      "åį³å°Ĩ": 6705,
      "çģ£": 6706,
      "å®ŀçİ°äºĨ": 6707,
      "Ġacross": 6708,
      "âĶ": 6709,
      "æµħ": 6710,
      "ç¢°": 6711,
      "ä¸ĬäºĨ": 6712,
      "Ġhaving": 6713,
      "ynam": 6714,
      "ä¸ĬåįĬå¹´": 6715,
      "è¾ŀ": 6716,
      "çŃĽ": 6717,
      "ä½ľåĩº": 6718,
      "æ²³åĮĹ": 6719,
      "è¾Ĳ": 6720,
      "æĻ¯çĤ¹": 6721,
      "æĳĺè¦ģ": 6722,
      "Ġprovided": 6723,
      "IM": 6724,
      "æľµ": 6725,
      "æŀĿ": 6726,
      "è¸ı": 6727,
      "Ġgraph": 6728,
      "ç»Ŀå¯¹": 6729,
      "åŀĤ": 6730,
      "è¯ģæį®": 6731,
      "ç§¯ç´¯": 6732,
      "åĳ³éģĵ": 6733,
      "Ġeasy": 6734,
      "ĠÃ": 6735,
      "åħĦ": 6736,
      "ĠIm": 6737,
      "Ġris": 6738,
      "GB": 6739,
      "09": 6740,
      "å¤§çº¦": 6741,
      "ãĢĭãĢĬ": 6742,
      "ills": 6743,
      "æĪĺäºī": 6744,
      "On": 6745,
      "èĢĮåľ¨": 6746,
      "æµı": 6747,
      "æ´»æĢ§": 6748,
      "è°ĥçłĶ": 6749,
      "åĤ¬": 6750,
      "æĹłäºº": 6751,
      "å¸¦åĬ¨": 6752,
      "Ġenvironment": 6753,
      "ç«ŀäºīåĬĽ": 6754,
      "Ġ22": 6755,
      "ç¥ŀç§ĺ": 6756,
      "ç§ĳåŃ¦å®¶": 6757,
      "dex": 6758,
      "æĭĽæłĩ": 6759,
      "åıĸåĨ³": 6760,
      "éĤ£ä¸ª": 6761,
      "2006": 6762,
      "Ġconstant": 6763,
      "èµ¢å¾Ĺ": 6764,
      "ĠCont": 6765,
      "ç¥¥": 6766,
      "Ġwebsite": 6767,
      "oring": 6768,
      "æ¸¡": 6769,
      "å¤§æ°Ķ": 6770,
      "æĺŁæľŁ": 6771,
      "LED": 6772,
      "hel": 6773,
      "ids": 6774,
      "è¿ĳæľŁ": 6775,
      "EN": 6776,
      "åĲįåįķ": 6777,
      "ä¸»å¸Ń": 6778,
      "æ·±åº¦åŃ¦ä¹ł": 6779,
      "çļĦå¸Ĥåľº": 6780,
      "æ¡Ĥ": 6781,
      "éļıåĲİ": 6782,
      "äº§çĶŁçļĦ": 6783,
      "è·¯çº¿": 6784,
      "æķ´çĲĨ": 6785,
      "èĳĹåĲįçļĦ": 6786,
      "åıĸåĨ³äºİ": 6787,
      "Ġimplement": 6788,
      "ney": 6789,
      "é»Ħéĩĳ": 6790,
      "ĠâĨĴ": 6791,
      "è¯ļä¿¡": 6792,
      "mber": 6793,
      "çīµ": 6794,
      "gen": 6795,
      "Ġdone": 6796,
      "ç¨Ģ": 6797,
      "çĹħäºº": 6798,
      "BA": 6799,
      "éĥ½åı¯ä»¥": 6800,
      "èĤ¡ä»½æľīéĻĲåħ¬åı¸": 6801,
      "æķĮ": 6802,
      "ä¸Ńæľī": 6803,
      "begin": 6804,
      "Ġwrite": 6805,
      "Ġpaper": 6806,
      "Ġsignificant": 6807,
      "ä¸Ģè·¯": 6808,
      "åĩĢåĮĸ": 6809,
      ")ãĢģ": 6810,
      "ä¼½": 6811,
      "inks": 6812,
      "åľ°ä¸ĭ": 6813,
      "çĤ¹åĩ»": 6814,
      "å·¨å¤§": 6815,
      "Ġ21": 6816,
      "ĠJohn": 6817,
      "ä¹Ķ": 6818,
      "æµ´": 6819,
      "string": 6820,
      "ç»Īäºİ": 6821,
      "éĴ»": 6822,
      "Ġcourse": 6823,
      "ault": 6824,
      "Ġproblems": 6825,
      "å¥Ķ": 6826,
      "éĥ¨çļĦ": 6827,
      "æ¯įäº²": 6828,
      "Ġfrequ": 6829,
      "97": 6830,
      "Ġdat": 6831,
      "èģĮè´£": 6832,
      "æĹ©æľŁ": 6833,
      "Ġpain": 6834,
      "æĳ¸": 6835,
      "Ġcrit": 6836,
      "ouble": 6837,
      "è§Ħå®ļçļĦ": 6838,
      "ĠThat": 6839,
      "åĨ²çªģ": 6840,
      "éĺ¿éĩĮ": 6841,
      "':": 6842,
      "éĢĤçĶ¨": 6843,
      "æĬķæłĩ": 6844,
      "uck": 6845,
      "ĠâĢĺ": 6846,
      "åĽ½åĨħå¤ĸ": 6847,
      "iction": 6848,
      "54": 6849,
      "æĺ¯æľĢ": 6850,
      "uture": 6851,
      "æľįåĬ¡åĻ¨": 6852,
      "é¼»": 6853,
      "Ġplease": 6854,
      "Ġsquare": 6855,
      "ç¾İæľ¯": 6856,
      "Ġobs": 6857,
      "åĲĬ": 6858,
      "æĪĴ": 6859,
      "å¤§åĬĽ": 6860,
      "åľ°éĿ¢": 6861,
      "æĭħå¿ĥ": 6862,
      "Ġä½¿çĶ¨": 6863,
      "ãģ®": 6864,
      "Ġresearch": 6865,
      "æłĩçŃ¾": 6866,
      "åĮĹäº¬å¸Ĥ": 6867,
      "XX": 6868,
      "åıĸå¾ĹäºĨ": 6869,
      "Ðº": 6870,
      "Ġsat": 6871,
      "æķ¦": 6872,
      "åıī": 6873,
      "æĸ°å¢ŀ": 6874,
      "å¼ĢåĲ¯": 6875,
      "åĮºçļĦ": 6876,
      "å¤§ä¼Ĺ": 6877,
      "èĢĮä¸į": 6878,
      "æĶ¾å¼ĥ": 6879,
      "Ġarr": 6880,
      "åľ¨è¿ĻéĩĮ": 6881,
      "åıł": 6882,
      "Ġfore": 6883,
      "Ġselect": 6884,
      "Ġword": 6885,
      "ties": 6886,
      "æ¨Ĥ": 6887,
      "åģ¥åº·çļĦ": 6888,
      "æķĪçİĩåĴĮ": 6889,
      "theta": 6890,
      "bit": 6891,
      "Ġperformance": 6892,
      "Ġweight": 6893,
      "çŁ¥è¯Ĩäº§æĿĥ": 6894,
      "02": 6895,
      "æ·ĭ": 6896,
      "ç¼Ĩ": 6897,
      "Ġdiff": 6898,
      "å¤§èµĽ": 6899,
      "æķ°ç»Ħ": 6900,
      "ĠMy": 6901,
      "Ġquick": 6902,
      "æĸĩåĮĸçļĦ": 6903,
      "Ġflow": 6904,
      "Ġsearch": 6905,
      "Ġdetermine": 6906,
      "Ġnatural": 6907,
      "á»": 6908,
      "lobal": 6909,
      "æ´»åĬ¨çļĦ": 6910,
      "æĪĲçļĦ": 6911,
      "éļĬ": 6912,
      "Ġcontinu": 6913,
      "Ġmajor": 6914,
      "2021": 6915,
      "çŃīå¾ħ": 6916,
      "æĦī": 6917,
      "åŃ©åŃĲä»¬": 6918,
      "çŃīå¥ĸ": 6919,
      "åĲĮæľŁ": 6920,
      "Ġunique": 6921,
      "è¾¨": 6922,
      "And": 6923,
      "120": 6924,
      "çŃīçº§": 6925,
      "Ġlanguage": 6926,
      "çĹħä¾ĭ": 6927,
      "çĪ±å¥½": 6928,
      "çī©èģĶç½ĳ": 6929,
      "åįµ": 6930,
      "åĨ·åį´": 6931,
      "çĶ¨éĢĶ": 6932,
      "Ġproducts": 6933,
      "Ġdetails": 6934,
      "03": 6935,
      "Let": 6936,
      "asing": 6937,
      "ä¹Łè¦ģ": 6938,
      "uff": 6939,
      "ä¿ĿåŃĺ": 6940,
      "Ġcard": 6941,
      "Ġalready": 6942,
      "åīįæĻ¯": 6943,
      "æĪ¿éĹ´": 6944,
      "Ġgovern": 6945,
      "å¹¿åľº": 6946,
      "Ġremain": 6947,
      "éĻµ": 6948,
      "èİī": 6949,
      "è´ŁéĿ¢": 6950,
      "äº§éĩı": 6951,
      "51": 6952,
      "')": 6953,
      "iam": 6954,
      "çºº": 6955,
      "Ġequal": 6956,
      "èĬ¯çīĩ": 6957,
      "Ġmach": 6958,
      "Ġtransl": 6959,
      "Ġchildren": 6960,
      "ä¸įç®¡": 6961,
      "Ġmultiple": 6962,
      "TC": 6963,
      "ĠÂł": 6964,
      "Sh": 6965,
      "ä¸ŃåŃ¦": 6966,
      "çĭĤ": 6967,
      "mathbb": 6968,
      "69": 6969,
      "where": 6970,
      "oups": 6971,
      "è©²": 6972,
      "iter": 6973,
      "è¡Ģç®¡": 6974,
      ",\"": 6975,
      "Ġfoot": 6976,
      "æľ¬åľ°": 6977,
      "è½¬åıĺ": 6978,
      "åĴĮç®¡çĲĨ": 6979,
      "Con": 6980,
      "å¯¹å¤ĸ": 6981,
      "ç¸£": 6982,
      "62": 6983,
      "Ġfac": 6984,
      "é³": 6985,
      "çĸ¼": 6986,
      "è¡°": 6987,
      "Ġvarious": 6988,
      "è´¯å½»": 6989,
      "ml": 6990,
      "US": 6991,
      "åĢ¡": 6992,
      "éĥ½ä¸į": 6993,
      "Ġimage": 6994,
      "è¯ĹæŃĮ": 6995,
      "Ġdiscuss": 6996,
      "ĠYour": 6997,
      "che": 6998,
      "App": 6999,
      "çļĦé£İéĻ©": 7000,
      "Ġsl": 7001,
      "åĲ¦åĪĻ": 7002,
      "joy": 7003,
      "éģ¸": 7004,
      "åŃ©åŃĲçļĦ": 7005,
      "çĸĨ": 7006,
      "æĺ¯ä¸Ģå®¶": 7007,
      "numbers": 7008,
      "æĪĳæł¡": 7009,
      "åĽŀåĪ°": 7010,
      "é¡ºåºı": 7011,
      "èĩªçĦ¶è¯Ńè¨Ģå¤ĦçĲĨ": 7012,
      "å½°": 7013,
      "Ġstat": 7014,
      "äº¤æį¢": 7015,
      "è¥¿å®ī": 7016,
      "Ġ2018": 7017,
      "ç¬¬äºĶ": 7018,
      "Ġconc": 7019,
      "åŃĹæ¯į": 7020,
      "enef": 7021,
      "Ġmusic": 7022,
      "osp": 7023,
      "ãĢĤãĢĬ": 7024,
      "ilities": 7025,
      "å¯¹åºĶ": 7026,
      "å®ŀçĶ¨": 7027,
      "éĩĮéĿ¢": 7028,
      "Ġlater": 7029,
      "æµıè§Ī": 7030,
      "æİ¥æĶ¶": 7031,
      "è¿ĺä¼ļ": 7032,
      "Ġminutes": 7033,
      "Ġlat": 7034,
      "Ġmom": 7035,
      "äº¤äºĴ": 7036,
      "CD": 7037,
      "å¼ķé¢Ĩ": 7038,
      "Ġmess": 7039,
      "èĬĤçº¦": 7040,
      "ered": 7041,
      "èĢĢ": 7042,
      "å¾Īæľī": 7043,
      "å°Ĩäºİ": 7044,
      "é£ŀæľº": 7045,
      "ç±»åĪ«": 7046,
      "æīĢè°ĵ": 7047,
      "çľŁæŃ£çļĦ": 7048,
      "å¼¯": 7049,
      "è®¼": 7050,
      "è¾½": 7051,
      "æīĢå¾Ĺ": 7052,
      "Ġdom": 7053,
      "ç¢±": 7054,
      "Ġperfect": 7055,
      "èĵĦ": 7056,
      "Ġbase": 7057,
      "Ġmoney": 7058,
      "é¢Ī": 7059,
      "è¯±": 7060,
      "Ġfr": 7061,
      "åĬ¨çĶ»": 7062,
      "åĲĮä¸Ģ": 7063,
      "ç¡ķå£«": 7064,
      "åıĸæ¶Ī": 7065,
      "æĲħ": 7066,
      "æĢİæł·": 7067,
      "Ġsimilar": 7068,
      "Ġfinal": 7069,
      "ä½¿åĳ½": 7070,
      "äºĳåįĹ": 7071,
      "æĸľ": 7072,
      "åĮ¹éħį": 7073,
      "Ġpie": 7074,
      "å¯¹æŃ¤": 7075,
      "Ġ2019": 7076,
      "çĶµåĻ¨": 7077,
      "æľĢä½İ": 7078,
      "åħ¸åŀĭ": 7079,
      "èī°": 7080,
      "é¼ł": 7081,
      "eters": 7082,
      "é¦¬": 7083,
      "Ġsuper": 7084,
      "Ġ60": 7085,
      "å±ħä½ı": 7086,
      "ä¸ĬéĿ¢": 7087,
      "èĬĤå¥ı": 7088,
      "æģ°": 7089,
      "ruction": 7090,
      "cle": 7091,
      "çĩķ": 7092,
      "èĢģäºº": 7093,
      "ana": 7094,
      "ogn": 7095,
      "çĻ½çĻľé£İçļĦ": 7096,
      "::": 7097,
      "è¿ĺéľĢè¦ģ": 7098,
      "åĬĩ": 7099,
      "ĠAss": 7100,
      "Ġanalysis": 7101,
      "Ġbody": 7102,
      "Tr": 7103,
      "æķĪåºĶ": 7104,
      "ä»¥ä¸ĭåĩłä¸ª": 7105,
      "åıĳæĺİ": 7106,
      "åīįçļĦ": 7107,
      "æĽ´æį¢": 7108,
      "Ġkind": 7109,
      "å±¥è¡Į": 7110,
      "ä¸Ģä¸ªäºº": 7111,
      "å«Į": 7112,
      "åľ¨åĮ»çĸĹ": 7113,
      "æľīæĹ¶": 7114,
      "æķıæĦŁ": 7115,
      "Ġstrong": 7116,
      "æĮĩå®ļ": 7117,
      "åıĳçĹħ": 7118,
      "å¯¹æ¯Ķ": 7119,
      "Ġexce": 7120,
      "æıĲåĩºäºĨ": 7121,
      "ones": 7122,
      "ä½ıå®ħ": 7123,
      "ĠUnited": 7124,
      "ä¼łæĦŁåĻ¨": 7125,
      "Ġaway": 7126,
      "åı¯æĺ¯": 7127,
      "è½¬ç§»": 7128,
      "çĶ¨åĵģ": 7129,
      "æľºéģĩ": 7130,
      "çļĦçĽ®æłĩ": 7131,
      "åĩ¤": 7132,
      "Ġabs": 7133,
      "æ¼Ĥ": 7134,
      "Ġenough": 7135,
      "çĥŃæĥħ": 7136,
      "å¼ķåħ¥": 7137,
      "Ġinitial": 7138,
      "æľ¬æĸĩ": 7139,
      "èµĽäºĭ": 7140,
      "Ġland": 7141,
      "ibility": 7142,
      "åľ¨å®¶": 7143,
      "Ġposition": 7144,
      "Ġindic": 7145,
      "aring": 7146,
      "åıĹæ¬¢è¿İ": 7147,
      "å®Įç¾İ": 7148,
      "æĿ¥äºĨ": 7149,
      "åıĳéĢģ": 7150,
      "ä¹īåĬ¡": 7151,
      "è¯īè®¼": 7152,
      "å¯¼æ¼Ķ": 7153,
      "åĨ³èµĽ": 7154,
      "ä»¥ä¸ĬçļĦ": 7155,
      "éĥ¨ä½į": 7156,
      "çº¿è·¯": 7157,
      "ç»Ļä½ł": 7158,
      "Ġhouse": 7159,
      "ä¾ĽåºĶåķĨ": 7160,
      "å½ĵä¸Ń": 7161,
      "ĠSchool": 7162,
      "æĪĸè®¸": 7163,
      "å®ĥæĺ¯": 7164,
      "éĢıè¿ĩ": 7165,
      "èĳ£äºĭéķ¿": 7166,
      "PP": 7167,
      "Ġeither": 7168,
      "Ġcompet": 7169,
      "åįıåĲĮ": 7170,
      "æĳĦåħ¥": 7171,
      "Ġcannot": 7172,
      "Ġå°Ĩ": 7173,
      "éĢļéģĵ": 7174,
      "åĪł": 7175,
      "è¾Ĳå°Ħ": 7176,
      "</": 7177,
      "è¿ĲåĬ¨åĳĺ": 7178,
      "Ñĥ": 7179,
      "Ġver": 7180,
      "é«ĺäºİ": 7181,
      "å½±åĥı": 7182,
      "Ġwhether": 7183,
      "å¨ľ": 7184,
      "çļĦéĢīæĭ©": 7185,
      "å¸¦é¢Ĩ": 7186,
      "Ġlower": 7187,
      "resp": 7188,
      "è¿Ļç¯ĩæĸĩç«ł": 7189,
      "ä¿¡æģ¯åĮĸ": 7190,
      "Ġconditions": 7191,
      "ply": 7192,
      "orks": 7193,
      "èĲ¥éĢł": 7194,
      "çļĦåİĨåı²": 7195,
      "å¤ªéĺ³èĥ½": 7196,
      "å¹´åºķ": 7197,
      "ç¨®": 7198,
      "æĦŁæĥħ": 7199,
      "çĻ½èī²": 7200,
      "Ġsolve": 7201,
      "Ġpress": 7202,
      "å¯ĵ": 7203,
      "æ©¡èĥ¶": 7204,
      "å§ľ": 7205,
      "èĭ±éĽĦ": 7206,
      "å¾Īé«ĺ": 7207,
      "æ»ĭ": 7208,
      "å¼ķè¿Ľ": 7209,
      "çłĶç©¶æīĢ": 7210,
      "è¯ķçĤ¹": 7211,
      "è¨Ī": 7212,
      "çķĻä¸ĭ": 7213,
      "idence": 7214,
      "opy": 7215,
      "Ġfeatures": 7216,
      "ç¨³å®ļæĢ§": 7217,
      "2005": 7218,
      "æ°¯": 7219,
      "åĬŁçİĩ": 7220,
      "æĹ¥çļĦ": 7221,
      "Ġcontent": 7222,
      "è®¢åįķ": 7223,
      "Ġ@": 7224,
      "alpha": 7225,
      "åĲĦå¤§": 7226,
      "å®īåħ¨æĢ§": 7227,
      "Ġrequired": 7228,
      "æĸ°é²ľ": 7229,
      "Ġfar": 7230,
      "æĿĲè´¨": 7231,
      "Ġpath": 7232,
      "éŃħ": 7233,
      "èĤĥ": 7234,
      "ĠAdd": 7235,
      "Ġvide": 7236,
      "èľĤ": 7237,
      "èĬ³": 7238,
      "æĦŁåıĹåĪ°": 7239,
      "è§Ĩä¸º": 7240,
      "èªŀ": 7241,
      "è¯ŀ": 7242,
      "ä¸»åĬŀ": 7243,
      "èĻŁ": 7244,
      "AIæĬĢæľ¯": 7245,
      "aim": 7246,
      "åĵªéĩĮ": 7247,
      "èĪŀåı°": 7248,
      "èĥ¸": 7249,
      "ä¼łæī¿": 7250,
      "åŁ¹èĤ²": 7251,
      "arth": 7252,
      "çŁĽ": 7253,
      "ç»Ļå®ļçļĦ": 7254,
      "éĶĪéĴ¢": 7255,
      "ĠCo": 7256,
      "mathrm": 7257,
      "è¯¾åłĤ": 7258,
      "éĩĩè®¿": 7259,
      "raft": 7260,
      "ĠOne": 7261,
      "OT": 7262,
      "å¾Īå¿«": 7263,
      "æĶ¯åĩº": 7264,
      "å¹¶éĿŀ": 7265,
      "çĥ¹": 7266,
      "89": 7267,
      "æĤł": 7268,
      "çľĭèµ·æĿ¥": 7269,
      "åı¯è§ģ": 7270,
      "display": 7271,
      "ĠNe": 7272,
      "æ¶µçĽĸ": 7273,
      "æ±Ĺ": 7274,
      "Ġge": 7275,
      "æ¡¶": 7276,
      "æ½ľåĬĽ": 7277,
      "åĪĩå®ŀ": 7278,
      "Ġactually": 7279,
      "ixed": 7280,
      "åĪĨç¦»": 7281,
      "æī®æ¼Ķ": 7282,
      "ä¹¦ç±į": 7283,
      "åįłæ¯Ķ": 7284,
      "çŃ¾è®¢": 7285,
      "Ġpersonal": 7286,
      "æª": 7287,
      "å°±è¦ģ": 7288,
      "Ã¡": 7289,
      "çŃīäºİ": 7290,
      "æıĲé«ĺäºĨ": 7291,
      "çļĦä¸Ģéĥ¨åĪĨ": 7292,
      "Ġdirectly": 7293,
      "å·¥åķĨ": 7294,
      "èĩ³åħ³": 7295,
      "åħ»æ®ĸ": 7296,
      "gers": 7297,
      "äººç¾¤": 7298,
      "åľ¨ä¸Ģä¸ª": 7299,
      "åĽ½å¤ĸ": 7300,
      "ĠãĢĬ": 7301,
      "Ġaddress": 7302,
      "Ġeduc": 7303,
      "æĺİçĻ½": 7304,
      "éĶĢéĩı": 7305,
      "Ġtakes": 7306,
      "Ġrespect": 7307,
      "tic": 7308,
      "Ġtheory": 7309,
      "ä¹Łå°Ĩ": 7310,
      "æĶ¾åħ¥": 7311,
      "-\\": 7312,
      "Ġneeded": 7313,
      "Ġbecome": 7314,
      "èĳ±": 7315,
      "Ġcolumn": 7316,
      "æ¶ĤæĸĻ": 7317,
      "anced": 7318,
      "æĽ´æľī": 7319,
      "âĪ": 7320,
      "ç»ĵè®º": 7321,
      "Ġerror": 7322,
      "ĠEnglish": 7323,
      "Ġvector": 7324,
      "Ġmeasure": 7325,
      "Ġseems": 7326,
      "org": 7327,
      "èµ«": 7328,
      "å¹¶å°Ĩ": 7329,
      "Ġfactor": 7330,
      "å·¥ä½ľä¸Ń": 7331,
      "ä¸įçĶ¨": 7332,
      "æķ°åŃĹåĮĸ": 7333,
      "è¾ĥä½İ": 7334,
      "ef": 7335,
      "åİŁå§ĭ": 7336,
      "è¯Ńæ³ķ": 7337,
      "ends": 7338,
      "Ġtemperature": 7339,
      "71": 7340,
      "Ġeconom": 7341,
      "å°ıè¡ĮæĺŁ": 7342,
      "åĽŀå½Ĵ": 7343,
      "cription": 7344,
      "æĸ¹ç¨ĭ": 7345,
      "åĿĬ": 7346,
      "åĽ½æľī": 7347,
      "astic": 7348,
      "è¹Ī": 7349,
      "06": 7350,
      "PU": 7351,
      "é£İæľº": 7352,
      "Ġresponse": 7353,
      "ober": 7354,
      "åį¢": 7355,
      "å¤±è´¥": 7356,
      "Ġhuman": 7357,
      "é¥®æĸĻ": 7358,
      "Ġconnect": 7359,
      "Ġå¹´": 7360,
      "åħ³å¿ĥ": 7361,
      "å¯ĨåĪĩ": 7362,
      "åłµ": 7363,
      "åı¸æ³ķ": 7364,
      "ç²¾å½©": 7365,
      "çĳľ": 7366,
      "Ġanaly": 7367,
      "æĸ¹çļĦ": 7368,
      "Te": 7369,
      "ĠCount": 7370,
      "å®īå¾½": 7371,
      "è¶³å¤ŁçļĦ": 7372,
      "è¡¥è´´": 7373,
      "åĩºçİ°äºĨ": 7374,
      "èĴĻåı¤": 7375,
      "å¤ıå¤©": 7376,
      "çµ±": 7377,
      "æ··åĩĿ": 7378,
      "éĻ¢éķ¿": 7379,
      "éĢłåŀĭ": 7380,
      "Ġassoci": 7381,
      "éľĢè¦ģæ³¨æĦı": 7382,
      "æĿ¡ä¾ĭ": 7383,
      "å®¡æī¹": 7384,
      "å±ıå¹ķ": 7385,
      "çŃīæĸ¹å¼ı": 7386,
      "ĠJan": 7387,
      "Ġothers": 7388,
      "63": 7389,
      "ä¿±ä¹Ĳ": 7390,
      "otal": 7391,
      "æŁı": 7392,
      "Ġ2017": 7393,
      "ç¼ĸåĪ¶": 7394,
      "å¯Ĩçłģ": 7395,
      "ude": 7396,
      "æŁĲä¸ª": 7397,
      "ç«ŀèµĽ": 7398,
      "èĤĮèĤī": 7399,
      "å¹½": 7400,
      "éĥ½è¦ģ": 7401,
      "å®ĹæķĻ": 7402,
      "æī¶è´«": 7403,
      "äºı": 7404,
      "ĠIntern": 7405,
      "ç¿°": 7406,
      "èµĦè´¨": 7407,
      "åį°åĪ·": 7408,
      "éĥİ": 7409,
      "éªĹ": 7410,
      "Java": 7411,
      "roll": 7412,
      "æŁ´": 7413,
      "èİ·å¾ĹäºĨ": 7414,
      "è´µå·ŀ": 7415,
      "çļĦä»·æł¼": 7416,
      "ĠApr": 7417,
      "é£İæĻ¯": 7418,
      "çĶµæľº": 7419,
      "ls": 7420,
      "èĤ¡æĿĥ": 7421,
      "Ġoffer": 7422,
      "éĮ": 7423,
      "Ġbound": 7424,
      "èĥ½åĲ¦": 7425,
      "åĲĦèĩª": 7426,
      "Ġrecomm": 7427,
      "å¸¦çĿĢ": 7428,
      "most": 7429,
      "ĠMe": 7430,
      "ç¤¾ä¼ļçļĦ": 7431,
      "74": 7432,
      "Ġess": 7433,
      "çº·çº·": 7434,
      "éĢĤå½ĵçļĦ": 7435,
      "Ġimprove": 7436,
      "è½¨éģĵ": 7437,
      "ç»ıæµİåıĳå±ķ": 7438,
      "Ġsolutions": 7439,
      "çļĦæł¸å¿ĥ": 7440,
      "èĬĿ": 7441,
      "fully": 7442,
      "ãĢĤ\"": 7443,
      "å¹³çŃī": 7444,
      "Ġseason": 7445,
      "æ¶Īæ¯Ĵ": 7446,
      "Ġimpact": 7447,
      "Ġoptions": 7448,
      "åĪĽå»ºä¸Ģä¸ª": 7449,
      "Ġclose": 7450,
      "éĢĶå¾Ħ": 7451,
      "åı¯æĮģç»Ńåıĳå±ķ": 7452,
      "å±ĳ": 7453,
      "æĺĤ": 7454,
      "éĲ": 7455,
      "ĠGe": 7456,
      "åİĺç±³": 7457,
      "åĬłå¯Ĩ": 7458,
      "æĦıå¤ĸ": 7459,
      "}_{": 7460,
      "Ġcolor": 7461,
      "ires": 7462,
      "å¼¥": 7463,
      "æĻĴ": 7464,
      "Ġbenef": 7465,
      "Ġstory": 7466,
      "çĸ«èĭĹ": 7467,
      "éĶĮ": 7468,
      "èŀįåħ¥": 7469,
      "rown": 7470,
      "Ġbuy": 7471,
      "uation": 7472,
      "çĶ¨æ°´": 7473,
      "åº¦åģĩ": 7474,
      "ä»¥ä¸º": 7475,
      "åĲĮæŃ¥": 7476,
      "éĻĲäºİ": 7477,
      "çħ§æĺİ": 7478,
      "reg": 7479,
      "èĤ¾": 7480,
      "çī©ä¸ļ": 7481,
      "Ġcases": 7482,
      "Ġ23": 7483,
      "æĶ¶è´Ń": 7484,
      "æ·±åĮĸ": 7485,
      "Ġrelationship": 7486,
      "åĪ°åºķ": 7487,
      "Ġbegin": 7488,
      "lab": 7489,
      "å»ºéĢł": 7490,
      "rees": 7491,
      "æ£ī": 7492,
      "å´ĩ": 7493,
      "åĲĮåŃ¦ä»¬": 7494,
      "éĥŃ": 7495,
      "éħ¯": 7496,
      "fact": 7497,
      "enc": 7498,
      "Ġcompon": 7499,
      "åı¦ä¸Ģæĸ¹éĿ¢": 7500,
      "å¤¹": 7501,
      "çĶµæ°Ķ": 7502,
      "æĪĳä»¬åľ¨": 7503,
      "Ġï¼Į": 7504,
      "èµ´": 7505,
      "æħ¢æħ¢": 7506,
      "çķĮéĿ¢": 7507,
      "Ġprovides": 7508,
      "equ": 7509,
      "htt": 7510,
      "çİ°éĩĳ": 7511,
      "Ġpoly": 7512,
      "å½ĵçĦ¶åı¯ä»¥": 7513,
      "ster": 7514,
      "å°ıåŀĭ": 7515,
      "Ġtreat": 7516,
      "ä¼Ĳ": 7517,
      "åĲĪæĪĲ": 7518,
      "æµĵåº¦": 7519,
      "å°ıç¼ĸ": 7520,
      "åĲĦçº§": 7521,
      "èĢĥå¯Ł": 7522,
      "Ġcity": 7523,
      "å§Ķæīĺ": 7524,
      "}(": 7525,
      "Ġvariable": 7526,
      "å¸¸å¸¸": 7527,
      "æ¬£èµı": 7528,
      "å¸®æĪĳ": 7529,
      "å°ıçº¢": 7530,
      "Ġapprox": 7531,
      "æĺ¯åĽłä¸º": 7532,
      "å®īåħ¨çĶŁäº§": 7533,
      "Ġden": 7534,
      "åħ¬å¼ı": 7535,
      "æĿŃå·ŀ": 7536,
      "Ġfive": 7537,
      "çĶµè·¯": 7538,
      "æķ´æķ°": 7539,
      "EM": 7540,
      "åģļæ³ķ": 7541,
      "èĢķ": 7542,
      "èģ¯": 7543,
      "éĻķè¥¿": 7544,
      "Ġcharacters": 7545,
      "Ġpast": 7546,
      "å¢ĵ": 7547,
      "çº¿çļĦ": 7548,
      "éĿĴå°ĳå¹´": 7549,
      "èį£èªī": 7550,
      "Ġdistance": 7551,
      "ä½łéľĢè¦ģ": 7552,
      "æĸĩåĮĸåĴĮ": 7553,
      "è¿ľç¨ĭ": 7554,
      "Ġfilm": 7555,
      "Ġfurther": 7556,
      "ç¨±": 7557,
      "éģ¥": 7558,
      "æ¶¯": 7559,
      "])": 7560,
      "now": 7561,
      "ĠDes": 7562,
      "çļĦè¿ĩç¨ĭä¸Ń": 7563,
      "åľ°éĵģ": 7564,
      "igure": 7565,
      "è®¤å®ļ": 7566,
      "é£ŀè¡Į": 7567,
      "è¤": 7568,
      "æ¯ģ": 7569,
      "åĬłæĭ¿": 7570,
      "å½¼æŃ¤": 7571,
      "Ġæĺ¯": 7572,
      "Ġmen": 7573,
      "èĩªæ²»åĮº": 7574,
      "ä¹Łè®¸": 7575,
      "å½ķåıĸ": 7576,
      "Ġhigher": 7577,
      "Ġage": 7578,
      "æĢĿè·¯": 7579,
      "åį°è±¡": 7580,
      "Ġmembers": 7581,
      "ä¸įä»ħä»ħ": 7582,
      "ä¸įéĶĪéĴ¢": 7583,
      "èĥĢ": 7584,
      "Ġchanges": 7585,
      "åĨĻä¸Ģç¯ĩåħ³äºİ": 7586,
      "ips": 7587,
      "èĪŀè¹Ī": 7588,
      "}^": 7589,
      "Ġnecess": 7590,
      "å±±è¥¿": 7591,
      "èĥ½åĬĽåĴĮ": 7592,
      "ä½Ĩä¸į": 7593,
      "Ġprim": 7594,
      "åħĪè¿ĽçļĦ": 7595,
      "æİ§èĤ¡": 7596,
      "Ġthing": 7597,
      "çĶµåİĭ": 7598,
      "ological": 7599,
      "Ġways": 7600,
      "æĪĳåľ¨": 7601,
      "Ġlay": 7602,
      "73": 7603,
      "AD": 7604,
      "ino": 7605,
      "è½¦ç«Ļ": 7606,
      "**ãĢĤ": 7607,
      "Ġred": 7608,
      "ĠChe": 7609,
      "æĴ¤": 7610,
      "å½¢åĬ¿": 7611,
      "rem": 7612,
      "ç¾½": 7613,
      "åºŁæ°´": 7614,
      "æĬ¼": 7615,
      "åĪĨè§£": 7616,
      "æ¶ĪéĻ¤": 7617,
      "ĠChrist": 7618,
      "Ġsocial": 7619,
      "åĩĮ": 7620,
      "çŁĽçĽ¾": 7621,
      "éĿĴæĺ¥": 7622,
      "Ġuses": 7623,
      "ä¸ĵçĶ¨": 7624,
      "âĶĢ": 7625,
      "çļĦç»ĵæŀľ": 7626,
      "æĪĳè®¤ä¸º": 7627,
      "è¥¿éĥ¨": 7628,
      "åľ°éľĩ": 7629,
      "ä¸ĭåĪĹ": 7630,
      "åĿª": 7631,
      "çĻ¾åĪĨçĤ¹": 7632,
      "Ġach": 7633,
      "Ġetc": 7634,
      "æĸĩæ¡£": 7635,
      "ello": 7636,
      "æ¡ĳ": 7637,
      "Ġcontin": 7638,
      "æī§æ³ķ": 7639,
      "æķĻèĤ²éĥ¨": 7640,
      "ype": 7641,
      "çĲĨäºĭ": 7642,
      "ĠCar": 7643,
      "æĤŁ": 7644,
      "çĶ»éĿ¢": 7645,
      "é¢Ĺç²Ĵ": 7646,
      "ç¾İå¥½çļĦ": 7647,
      "ä¼ļçļĦ": 7648,
      "å¤Ħç½ļ": 7649,
      "éĢ£": 7650,
      "çĶ·æĢ§": 7651,
      "æĭ¨": 7652,
      "æĮ¤": 7653,
      "è¿ĩçļĦ": 7654,
      "èº«è¾¹": 7655,
      "ĠGu": 7656,
      "æĮĸæİĺ": 7657,
      "æľīåĪ©äºİ": 7658,
      "07": 7659,
      "è¡Ģåİĭ": 7660,
      "Ġestab": 7661,
      "åĲĮäºĭ": 7662,
      "ĠDis": 7663,
      "Ġmodels": 7664,
      "æ¸¸æ³³": 7665,
      "Ġsepar": 7666,
      "Ġgives": 7667,
      "Ġfuture": 7668,
      "ä¸¤å¹´": 7669,
      "çļĦéĩįè¦ģæĢ§": 7670,
      "çļĦè¡Įä¸º": 7671,
      "ä¸Ģæµģ": 7672,
      "ä¸įéľĢè¦ģ": 7673,
      "å°ıåĮº": 7674,
      "æĹ¶éĹ´åĴĮ": 7675,
      "éķĢ": 7676,
      "è§£åĨ³éĹ®é¢ĺ": 7677,
      "çĶ·åŃĲ": 7678,
      "Ġdr": 7679,
      "Ġonce": 7680,
      "Ġdifference": 7681,
      "oin": 7682,
      "Ġtrad": 7683,
      "çŃīéĹ®é¢ĺ": 7684,
      "åĴĮæĬĢæľ¯": 7685,
      "å¢ŀéĢŁ": 7686,
      "æĸ°åĮº": 7687,
      "çļĦæľºä¼ļ": 7688,
      "use": 7689,
      "æĹłéĻĲ": 7690,
      "åĩŃåĢŁ": 7691,
      "mp": 7692,
      "çļĦä¸ĵä¸ļ": 7693,
      "å¦Ĩ": 7694,
      "éŃĤ": 7695,
      "åĵªä¸ª": 7696,
      "åĩºå¸Ń": 7697,
      "æ¤ħ": 7698,
      "æĪĳæĺ¯": 7699,
      "Ġbeaut": 7700,
      "åħ»èĢģ": 7701,
      "æłĩåĩĨåĮĸ": 7702,
      "augh": 7703,
      "æĹ¶éĹ´çļĦ": 7704,
      "åŁİå¸ĤçļĦ": 7705,
      "èµļ": 7706,
      "è¿Ľç¨ĭ": 7707,
      "çĻ½æĸĳ": 7708,
      "back": 7709,
      "è¾©": 7710,
      "åħ¨åĬĽ": 7711,
      "Ġport": 7712,
      "è§Ħæł¼": 7713,
      "æļĳ": 7714,
      "éģĹä¼ł": 7715,
      "izing": 7716,
      "ç³ĸæŀľ": 7717,
      "éħįå¤ĩ": 7718,
      "].": 7719,
      "ç½ĳåıĭ": 7720,
      "åıĺæĽ´": 7721,
      ",\\": 7722,
      "æĥħèĬĤ": 7723,
      "æĲħæĭĮ": 7724,
      "ĠEuro": 7725,
      "æĮĩåįĹ": 7726,
      "ternal": 7727,
      "Ġcommunity": 7728,
      "åħ³éĹŃ": 7729,
      "Ġconcept": 7730,
      "èĮĦ": 7731,
      "åºıåĪĹ": 7732,
      "èħ°": 7733,
      "æĶ¶åĪ°": 7734,
      "éĺ²æ²»": 7735,
      "800": 7736,
      "ising": 7737,
      "Ġprevious": 7738,
      "çĲĨè§£åĴĮ": 7739,
      "ä¸Ļ": 7740,
      "è±¡å¾ģ": 7741,
      "ä¸įå¤Ł": 7742,
      "Ġnetwork": 7743,
      "En": 7744,
      "array": 7745,
      "ä¸ªä½ĵ": 7746,
      "è¥¿çıŃ": 7747,
      "æĸ¯çī¹": 7748,
      "çļĦä¸Ń": 7749,
      "æĹº": 7750,
      "ä¸ªçĻ¾åĪĨçĤ¹": 7751,
      "æĹłçº¿": 7752,
      "æµ·åįĹ": 7753,
      "å¢ŀåĬłäºĨ": 7754,
      "æŀ¶æŀĦ": 7755,
      "åĬ£": 7756,
      "ä¸ľæĸ¹": 7757,
      "ä¸Ģé¦ĸ": 7758,
      "æıĲåĪ°": 7759,
      "chan": 7760,
      "åĲĪçī©": 7761,
      "Ġrelated": 7762,
      "è¥¿çıŃçīĻ": 7763,
      "ç¨İåĬ¡": 7764,
      "åĺ´": 7765,
      "æĹ¥çĽĬ": 7766,
      "èĩ³äºİ": 7767,
      "Ġoffic": 7768,
      "Ġzero": 7769,
      "ging": 7770,
      "Ġu": 7771,
      "ç¾İä¸½çļĦ": 7772,
      "æķ°æį®åĪĨæŀĲ": 7773,
      "èŃ°": 7774,
      "åģļäºĨ": 7775,
      "æ¿ĢçĥĪ": 7776,
      "åį§": 7777,
      "é«ĺè¾¾": 7778,
      "raction": 7779,
      "çļĦåŁºç¡Ģä¸Ĭ": 7780,
      "è§Ĥçľĭ": 7781,
      "Ġhol": 7782,
      "æĺİæĺŁ": 7783,
      "ĠSystem": 7784,
      "æĪĺæĸĹ": 7785,
      "å®¢æĪ·çļĦ": 7786,
      "displaystyle": 7787,
      "Ġwind": 7788,
      "æ¸ħçĲĨ": 7789,
      "ĠComp": 7790,
      "æľ¬è´¨": 7791,
      "lying": 7792,
      "Ġsyn": 7793,
      "61": 7794,
      "ä¸ŃæľĢ": 7795,
      "æĢ§æł¼": 7796,
      "ç³Ĭ": 7797,
      "å¸ķ": 7798,
      "ä½ĽæķĻ": 7799,
      "åı£ç½©": 7800,
      "å®¡è®¡": 7801,
      "åĪĨåĪ«ä¸º": 7802,
      "test": 7803,
      "åŀ«": 7804,
      "irt": 7805,
      "2004": 7806,
      "å¹²åĩĢ": 7807,
      "ç¦ıå»º": 7808,
      "æľŁéĻĲ": 7809,
      "åŁİéķĩ": 7810,
      "Ġtrying": 7811,
      "çĽĹ": 7812,
      "åºĻ": 7813,
      "åıĳåĬ¨æľº": 7814,
      "ĠÎ": 7815,
      "åıĳåĩº": 7816,
      "éļĶç¦»": 7817,
      "æ¶īåıĬåĪ°": 7818,
      "çĶ¨åľ°": 7819,
      "itor": 7820,
      "ç¿¼": 7821,
      "è´¢å¯Į": 7822,
      "åĩºåı°": 7823,
      "æŃ¤æĹ¶": 7824,
      "åħ¨æĸ°": 7825,
      "ules": 7826,
      "è´¢äº§": 7827,
      "è¿Ļå°Ĩ": 7828,
      "äº§ä¸ļéĵ¾": 7829,
      "çļĦè´¨éĩı": 7830,
      "æĪĳä»¬åºĶè¯¥": 7831,
      "è½¬æį¢ä¸º": 7832,
      "è¿Ļéĥ¨": 7833,
      "è¾¾æĪĲ": 7834,
      "++": 7835,
      "åĽŀå¤į": 7836,
      "Ġshare": 7837,
      "APP": 7838,
      "é¢ĸ": 7839,
      "åıĤèµĽ": 7840,
      "Ġenjoy": 7841,
      "Ar": 7842,
      "My": 7843,
      "iation": 7844,
      "Ġtypes": 7845,
      "äººä»¬çļĦ": 7846,
      "åı£åĳ³": 7847,
      "ison": 7848,
      "ister": 7849,
      "ĠEd": 7850,
      "ĠUsing": 7851,
      "ä¸īå¤§": 7852,
      "åģļçļĦ": 7853,
      "Ġequations": 7854,
      "Ġidea": 7855,
      "åŁĭ": 7856,
      "Ġcontact": 7857,
      "ambda": 7858,
      "å®¶æĹı": 7859,
      "æĽ´é«ĺ": 7860,
      "Ġbir": 7861,
      "åİŁæĿ¥": 7862,
      "åħħè¶³": 7863,
      "Ġdistribution": 7864,
      "Ġtraining": 7865,
      "Ġnegative": 7866,
      "ĊĊĠĠĠ": 7867,
      "**ï¼Ī": 7868,
      "çĶµæµģ": 7869,
      "ç²¾åº¦": 7870,
      "like": 7871,
      "åĭŁ": 7872,
      "èħº": 7873,
      "Ġdefined": 7874,
      "oll": 7875,
      "amed": 7876,
      "CE": 7877,
      "æķĻç»ĥ": 7878,
      "å¯Ĩå°ģ": 7879,
      "äººåĬĽèµĦæºĲ": 7880,
      "æĮ¡": 7881,
      "ians": 7882,
      "When": 7883,
      "ç§ī": 7884,
      "resh": 7885,
      "key": 7886,
      "uments": 7887,
      "æ®µèĲ½": 7888,
      "Ġmind": 7889,
      "æĮĩæĮ¥": 7890,
      "Ġcult": 7891,
      "æŁ³": 7892,
      "åħ½": 7893,
      "æīĢè¿°": 7894,
      "Ġactiv": 7895,
      "é«ĺåİĭ": 7896,
      "ä»¥ä¸ĭç®Ģç§°": 7897,
      "ched": 7898,
      "ection": 7899,
      "Ġearly": 7900,
      "æĶ¶è´¹": 7901,
      "çĥŃæ°´": 7902,
      "Ġengine": 7903,
      "åĴĮåıĳå±ķ": 7904,
      "Ġcomes": 7905,
      "Ġbi": 7906,
      "èº«å¿ĥ": 7907,
      "ä¾¿æį·": 7908,
      "æĬĢæľ¯åĴĮ": 7909,
      "çĩĥçĥ§": 7910,
      "Ġtarget": 7911,
      "åľ¨ä½¿çĶ¨": 7912,
      "åĲĲ": 7913,
      "åĨħå¿ĥ": 7914,
      "ĠMed": 7915,
      "å¿«éĢĴ": 7916,
      "è¶ħçº§": 7917,
      "aken": 7918,
      "åĶ®åĲİ": 7919,
      "ä¿±ä¹Ĳéĥ¨": 7920,
      "Ġsteps": 7921,
      "Ġnear": 7922,
      "æĲŀ": 7923,
      "«çĹ": 7924,
      "ä¹ĭå¤Ħ": 7925,
      "æ³¢åĬ¨": 7926,
      "Ġinstead": 7927,
      "å¤ļå®¶": 7928,
      "èĤ©": 7929,
      "Ġrather": 7930,
      "æ··åĩĿåľŁ": 7931,
      "do": 7932,
      "oms": 7933,
      "åį±æľº": 7934,
      "Ġclear": 7935,
      "å¿į": 7936,
      "ĠĠĊĠ": 7937,
      "Ġlikely": 7938,
      "åŁİåĮº": 7939,
      "è¿Ŀåıį": 7940,
      "æĬĽ": 7941,
      "ç½Ĳ": 7942,
      "ä¸įå¥½": 7943,
      "æĹ¥åŃĲ": 7944,
      "87": 7945,
      "ç¾İåĳ³": 7946,
      "Ġissues": 7947,
      "84": 7948,
      "èı¯": 7949,
      "Ġcontains": 7950,
      "åıĳçļĦ": 7951,
      "Ste": 7952,
      "æĥ³åĪ°": 7953,
      "erc": 7954,
      "Ġentire": 7955,
      "0000": 7956,
      "ĠOct": 7957,
      "ĠVal": 7958,
      "Ġmathemat": 7959,
      "åĽ¾ä¹¦é¦Ĩ": 7960,
      "è®¾è®¡å¸Ī": 7961,
      "Ġcountry": 7962,
      "Ġdocument": 7963,
      "change": 7964,
      "çĪ¬": 7965,
      "éĩįè¦ģçļĦæĺ¯": 7966,
      "äºĪä»¥": 7967,
      "éĤ£éĩĮ": 7968,
      "é¬¼": 7969,
      "ĠMin": 7970,
      "gebra": 7971,
      "^{-": 7972,
      "æĪªæŃ¢": 7973,
      "ç¦ģæŃ¢": 7974,
      "5000": 7975,
      "BC": 7976,
      "éĢĬ": 7977,
      "æĦŁåħ´è¶£": 7978,
      "å¹²æī°": 7979,
      "ç¬¬ä¸īæĸ¹": 7980,
      "Ġexpress": 7981,
      "PI": 7982,
      "ĠPar": 7983,
      "å½¢æĪĲäºĨ": 7984,
      "Ġren": 7985,
      "èį¡": 7986,
      "æ¶ĪåĮĸ": 7987,
      "åį«æĺŁ": 7988,
      "èĩŃ": 7989,
      "æĪĸåħ¶ä»ĸ": 7990,
      "åĨ¬åŃ£": 7991,
      "Ġincrease": 7992,
      "ä¸ľåĮĹ": 7993,
      "ç¸½": 7994,
      "æĺ¥èĬĤ": 7995,
      "æĪĲç«ĭäºİ": 7996,
      "æľīçĤ¹": 7997,
      "çī©ä½ĵ": 7998,
      "è¾ĵéĢģ": 7999,
      "lege": 8000,
      "æĵħ": 8001,
      "head": 8002,
      "åĲĪå¹¶": 8003,
      "éĹ´çļĦ": 8004,
      "è¿ĺåľ¨": 8005,
      "çĮĽ": 8006,
      "å¨ĺ": 8007,
      "Ġ?": 8008,
      "åĸľæ¬¢çļĦ": 8009,
      "Ġrequest": 8010,
      "Ġwritten": 8011,
      "Ġensure": 8012,
      "å®łçī©": 8013,
      "ournal": 8014,
      "go": 8015,
      "åĨħåŃĺ": 8016,
      "åı¯èĥ½æĢ§": 8017,
      "æĭħä¿Ŀ": 8018,
      "Ġtechnology": 8019,
      "ç©·": 8020,
      "åŁİä¹¡": 8021,
      "åĴĮå¹³": 8022,
      "èĬ¬": 8023,
      "ä¸ľåįĹ": 8024,
      "Ġlink": 8025,
      "æĢ»éĥ¨": 8026,
      "åİļçļĦ": 8027,
      "éī´å®ļ": 8028,
      "ĠStep": 8029,
      "Ġchall": 8030,
      "çĩĥæĸĻ": 8031,
      "æ´»åĬĽ": 8032,
      "Ġpub": 8033,
      "åı¯èĥ½å¯¼èĩ´": 8034,
      "Ġoption": 8035,
      "èī³": 8036,
      "ordin": 8037,
      "çº½çº¦": 8038,
      "å¯¹åħ¶": 8039,
      "Ġexplain": 8040,
      "ĠAm": 8041,
      "å½¢æĢģ": 8042,
      "ĠThen": 8043,
      "çĪ½": 8044,
      "Ġtalk": 8045,
      "Ġcy": 8046,
      "äººä¸º": 8047,
      "oman": 8048,
      "æł¡éķ¿": 8049,
      "Ġtravel": 8050,
      "Ñı": 8051,
      "åı¯ä»¥æł¹æį®": 8052,
      "æķ°æį®æĺ¾ç¤º": 8053,
      "ĠWhile": 8054,
      "ä»ĸè¯´": 8055,
      "è®¾è®¡çļĦ": 8056,
      "mbol": 8057,
      "è¿Ļä¹Łæĺ¯": 8058,
      "å»¶éķ¿": 8059,
      "è¡£æľį": 8060,
      "éľį": 8061,
      "åħĭæľį": 8062,
      "ony": 8063,
      "ĠSim": 8064,
      "Ġbuilt": 8065,
      "å¯¦": 8066,
      "Ġtw": 8067,
      "è¿Ļæ¬¾": 8068,
      "Ġhalf": 8069,
      "å·²æľī": 8070,
      "come": 8071,
      "fty": 8072,
      "è´¦æĪ·": 8073,
      "è¥¿åįĹ": 8074,
      "Ġaddition": 8075,
      "})": 8076,
      "Ġbuilding": 8077,
      "è¢«ç§°ä¸º": 8078,
      "92": 8079,
      "elta": 8080,
      "å·´é»İ": 8081,
      "ä¹ĭä¸ĭ": 8082,
      "æįŁå®³": 8083,
      "Ġgen": 8084,
      "æ¶Į": 8085,
      "ĠHigh": 8086,
      "åıĳå¸ĥçļĦ": 8087,
      "Ġintrodu": 8088,
      "Now": 8089,
      "è®¾æľī": 8090,
      "æĹħå®¢": 8091,
      "ç»Īç«¯": 8092,
      "Ġstarted": 8093,
      "gs": 8094,
      "åĭĥ": 8095,
      "æĮº": 8096,
      "2003": 8097,
      "äºĴçĽ¸": 8098,
      "Ġbal": 8099,
      "Ġ2016": 8100,
      "è°Ĭ": 8101,
      "acks": 8102,
      "è¶ħè¶Ĭ": 8103,
      "Ġcondition": 8104,
      "çĽĪåĪ©": 8105,
      "DP": 8106,
      "çļĦå»ºè®®": 8107,
      "åħ©": 8108,
      "éĢīçĶ¨": 8109,
      "Ġcontrib": 8110,
      "avor": 8111,
      "Ġlimit": 8112,
      "Ġsong": 8113,
      "åĽ½å®¶çļĦ": 8114,
      "ube": 8115,
      "å°½å¿«": 8116,
      "aff": 8117,
      "Ġapplication": 8118,
      "Script": 8119,
      "åĬ©åĬĽ": 8120,
      "æĹĹä¸ĭ": 8121,
      "ledge": 8122,
      "è½¦çļĦ": 8123,
      "åħĭæĸ¯": 8124,
      "Ġrow": 8125,
      "ted": 8126,
      "----------------": 8127,
      "ä¸»è§Ĵ": 8128,
      "Ġsimply": 8129,
      "ĠNational": 8130,
      "**.": 8131,
      "è¿Ļå°±æĺ¯": 8132,
      "ä¸İåħ¶ä»ĸ": 8133,
      "iment": 8134,
      "ĠRep": 8135,
      "å®¹éĩı": 8136,
      "çŁŃæľŁ": 8137,
      "Ġautom": 8138,
      "å¤§äºİ": 8139,
      "èĩªä¿¡": 8140,
      "æĸĩçī©": 8141,
      "idge": 8142,
      "å¥³åŃ©": 8143,
      "çĽĨ": 8144,
      "Ġsource": 8145,
      "æĺ¯å¯¹": 8146,
      "Ġmiss": 8147,
      "Ġpattern": 8148,
      "è¡Ģæ¶²": 8149,
      "äº§çĶŁäºĨ": 8150,
      "åħ¶ä¸ŃçļĦ": 8151,
      "çĦ¡": 8152,
      "å§»": 8153,
      "itch": 8154,
      "OSS": 8155,
      "Ñĭ": 8156,
      "Ġgroups": 8157,
      "ĠMod": 8158,
      "è·Łè¸ª": 8159,
      "çįİ": 8160,
      "å¹³æĹ¶": 8161,
      "æĿĤå¿Ĺ": 8162,
      "æĸ°åħ´": 8163,
      "ç¾ħ": 8164,
      "empt": 8165,
      "åĽŀå¿Ĩ": 8166,
      "æĬĬæı¡": 8167,
      "åĲĪä½ľä¼Ļä¼´": 8168,
      "æ±¡æ°´å¤ĦçĲĨ": 8169,
      "æĺ¯ä¸ª": 8170,
      "down": 8171,
      "æĽĿ": 8172,
      "ĠPart": 8173,
      "éļ¾åº¦": 8174,
      "ä½ıå®¿": 8175,
      "Ġ```": 8176,
      "å¸Ĥåľºä¸Ĭ": 8177,
      "æ³ķå¾ĭæ³ķè§Ħ": 8178,
      "Ġsurface": 8179,
      "Ã³": 8180,
      "ä¿Ĭ": 8181,
      "ç¼ĸçłģ": 8182,
      "urch": 8183,
      "Ġarticle": 8184,
      "MP": 8185,
      "æ¿Ģåħī": 8186,
      "åĪłéĻ¤": 8187,
      "æŃ¤åīį": 8188,
      "çµĦ": 8189,
      "airs": 8190,
      "Ġdire": 8191,
      "Ġincludes": 8192,
      "çĬ¹": 8193,
      "è¯Ħå®¡": 8194,
      "pa": 8195,
      "ç¼ºçĤ¹": 8196,
      "ä¸ĵæ³¨äºİ": 8197,
      "pot": 8198,
      "Ġwide": 8199,
      "å¸ĪçĶŁ": 8200,
      "å½»åºķ": 8201,
      "ä¸Ģçº¿": 8202,
      "æĹ¥åľ¨": 8203,
      "åĲİç»Ń": 8204,
      "infty": 8205,
      "Ġcut": 8206,
      "é¦¨": 8207,
      "ĠBr": 8208,
      "å¤ĸåĽ½": 8209,
      "éŁ§": 8210,
      "pose": 8211,
      "æľ¬äºº": 8212,
      "éģĶ": 8213,
      "æ°´åĪĨ": 8214,
      "Ġclean": 8215,
      "3000": 8216,
      "èģĮä½į": 8217,
      "æĴĴ": 8218,
      "è¢Ń": 8219,
      "æ®¿": 8220,
      "åıĥèĢĥ": 8221,
      "Can": 8222,
      "istics": 8223,
      "Ġweb": 8224,
      "Ġrespons": 8225,
      "Ġpriv": 8226,
      "èĤ¿çĺ¤": 8227,
      "åĬłæĭ¿å¤§": 8228,
      "lor": 8229,
      "æĬ¥èĢĥ": 8230,
      "æĴ°": 8231,
      "èģĬå¤©": 8232,
      "ï¼īï¼Ľ": 8233,
      "ĠĠĠĠĠ": 8234,
      "åĽ¢ä½ĵ": 8235,
      "Ġcateg": 8236,
      "èģª": 8237,
      "Ġmethods": 8238,
      "çļĦåıĺåĮĸ": 8239,
      "Ġ{\\": 8240,
      "aves": 8241,
      "Ġcou": 8242,
      "though": 8243,
      "ĠAust": 8244,
      "________": 8245,
      "ä¹Łåı¯": 8246,
      "çļĦåħ³ç³»": 8247,
      "ä¸Ģçº§": 8248,
      "æĹ¶åħī": 8249,
      "é«ĺèĢĥ": 8250,
      "ĠMethod": 8251,
      "åģľè½¦": 8252,
      "åĩĢåĪ©æ¶¦": 8253,
      "å¤§åŃ¦çĶŁ": 8254,
      "Ġstrateg": 8255,
      "Ġplayers": 8256,
      "Ġbox": 8257,
      "çĶµç¼Ĩ": 8258,
      "çĲĨçĶ±": 8259,
      "ä»Ķç»Ĩ": 8260,
      "åĽĬ": 8261,
      "æ¸Ķ": 8262,
      "æľŁæľĽ": 8263,
      "ç´§å¯Ĩ": 8264,
      "çļĦåħ·ä½ĵ": 8265,
      "è¿Ļæĺ¯ä¸Ģ": 8266,
      "èµ°åĲĳ": 8267,
      "Ġadditional": 8268,
      "çļĦæķĪæŀľ": 8269,
      "åħ¬äº¤": 8270,
      "Ġste": 8271,
      "åİĤåķĨ": 8272,
      "å¤§éĻĨ": 8273,
      "iful": 8274,
      "ç²¾ç¡®": 8275,
      "ĠUse": 8276,
      "ç®Ģæ´ģ": 8277,
      "ä»ĭç»įäºĨ": 8278,
      "Ġwhole": 8279,
      "ç½ĳé¡µ": 8280,
      "Ġauthor": 8281,
      "Ġprin": 8282,
      "éĢĤéĩı": 8283,
      "æĢ»é¢Ŀ": 8284,
      "è´Łæĭħ": 8285,
      "Ġsomeone": 8286,
      "çĳľä¼½": 8287,
      "æĥĳ": 8288,
      "æ°Ķè±¡": 8289,
      "ä¼ĺèī¯": 8290,
      "çŃĸåĪĴ": 8291,
      "åīĬ": 8292,
      "æľĪçļĦ": 8293,
      "èİ²": 8294,
      "oop": 8295,
      "éĺ²çģ«": 8296,
      "å±ĤéĿ¢": 8297,
      "æŃ§è§Ĩ": 8298,
      "èĤĸ": 8299,
      "ç®¡çĲĨåĴĮ": 8300,
      "Ġhistory": 8301,
      "å¿ĥæĥħ": 8302,
      "æīĭç»Ń": 8303,
      "æĺĵäºİ": 8304,
      "icy": 8305,
      "æīįæĺ¯": 8306,
      "åĽ½å®¶çº§": 8307,
      "å®ĺç½ĳ": 8308,
      "éĹ¹": 8309,
      "add": 8310,
      "pri": 8311,
      "Ġant": 8312,
      "ä½ĵç§¯": 8313,
      "åĲĮå¿Ĺ": 8314,
      "éħ·": 8315,
      "ä¸¤äºº": 8316,
      "Ġthought": 8317,
      "Ġdoing": 8318,
      "ä¹ĭè·¯": 8319,
      "sub": 8320,
      "iff": 8321,
      "èĬĤçľģ": 8322,
      "çº³åħ¥": 8323,
      "ä¸¥éĩįçļĦ": 8324,
      "æľ¬ç«Ļ": 8325,
      "igma": 8326,
      "ä¸¢": 8327,
      "æĻºèĥ½å®¶å±ħ": 8328,
      "Ġamong": 8329,
      "ä¸»ç®¡éĥ¨éĹ¨": 8330,
      "Ġwa": 8331,
      "å¤ļé¡¹": 8332,
      "åı¯ä»¥è¯´": 8333,
      "äººæ°ĳæ³ķéĻ¢": 8334,
      "Ġrefer": 8335,
      "çļĦåŃ¦çĶŁ": 8336,
      "ç»ĨèıĮ": 8337,
      "ä¸Ģæī¹": 8338,
      "å½±è§Ĩ": 8339,
      "å·²æĪĲä¸º": 8340,
      "èĢĥèĻĳåĪ°": 8341,
      "æ§½": 8342,
      "åĴĮæĸĩåĮĸ": 8343,
      "ä¸ŃæıĲåıĸ": 8344,
      "åħ¬æŃ£": 8345,
      "CC": 8346,
      "ä¸Ĭå¸Ĥåħ¬åı¸": 8347,
      "ĠNot": 8348,
      "Ġproperty": 8349,
      "ä¸ŃåĮ»": 8350,
      "çľĭæĿ¥": 8351,
      "è®°å¾Ĺ": 8352,
      "plit": 8353,
      "æ©Ļ": 8354,
      "åĢºåĬ¡": 8355,
      "Ġforce": 8356,
      "DF": 8357,
      "è¦ģæ³¨æĦı": 8358,
      "å¥Ī": 8359,
      "èįĴ": 8360,
      "èĥľåĪ©": 8361,
      "ields": 8362,
      "ĠPer": 8363,
      "çŀ¬": 8364,
      "æ¬¡æķ°": 8365,
      "acy": 8366,
      "çģ¾å®³": 8367,
      "æ±Łè¥¿": 8368,
      "Ġbar": 8369,
      "åĪ©äºļ": 8370,
      "Ġcaus": 8371,
      "é£ĺ": 8372,
      "è¯µ": 8373,
      "è§Ĥå¿µ": 8374,
      "åı¹": 8375,
      "æľīå®³": 8376,
      "èĩº": 8377,
      "è¾ĥé«ĺçļĦ": 8378,
      "comes": 8379,
      "pecially": 8380,
      "ĠBy": 8381,
      "éĢīæīĭ": 8382,
      "å°½åı¯èĥ½": 8383,
      "Ġrole": 8384,
      "wise": 8385,
      "Ġ2010": 8386,
      "ancial": 8387,
      "å¤§è§Ħæ¨¡": 8388,
      "ĠSm": 8389,
      "æĩī": 8390,
      "éĿŀæ³ķ": 8391,
      "å¾Īå®¹æĺĵ": 8392,
      "count": 8393,
      "ĠCal": 8394,
      "æ¦Ĥçİĩ": 8395,
      "94": 8396,
      "è¡ĵ": 8397,
      "vec": 8398,
      "Ġnumer": 8399,
      "åĦ¿åŃĲ": 8400,
      "rame": 8401,
      ")=": 8402,
      "Ġfail": 8403,
      "ĠAug": 8404,
      "éļĲæĤ£": 8405,
      "icult": 8406,
      "åĪļåĪļ": 8407,
      "çļĦçĶŁäº§": 8408,
      "ĠAfter": 8409,
      "æĵļ": 8410,
      "cks": 8411,
      "æıĲä¾ĽæĽ´": 8412,
      "åĤ³": 8413,
      "åĪĿæŃ¥": 8414,
      "çºªå½ķ": 8415,
      "SQL": 8416,
      "Ġfall": 8417,
      "åħ³èģĶ": 8418,
      "æŁĲç§į": 8419,
      "åįłåľ°": 8420,
      "ites": 8421,
      "RE": 8422,
      "Ġnight": 8423,
      "èº«ä¸Ĭ": 8424,
      "éĢıéľ²": 8425,
      "è¯¦ç»ĨçļĦ": 8426,
      "Ġbo": 8427,
      "æĶ¶èİ·": 8428,
      "åı¯ä»¥è®©": 8429,
      "èµ·åĪ°": 8430,
      "åĽ¢éĺŁæĪĲåĳĺ": 8431,
      "å¹´è½»äºº": 8432,
      "åº·å¤į": 8433,
      "æľīåºı": 8434,
      "æĮĩçļĦæĺ¯": 8435,
      "Ġregular": 8436,
      "çļĦçī¹çĤ¹": 8437,
      "åĭĻ": 8438,
      "Ġlive": 8439,
      "Ġ\\,": 8440,
      "åįģä¸ī": 8441,
      "åħ¹": 8442,
      "Ġinteger": 8443,
      "isf": 8444,
      "æĹłéľĢ": 8445,
      "83": 8446,
      "max": 8447,
      "Qu": 8448,
      "ĠCor": 8449,
      "df": 8450,
      "ä¸Ģæĸ¹éĿ¢": 8451,
      "hers": 8452,
      "éĿĴå²Ľ": 8453,
      "å©´åĦ¿": 8454,
      "éķ¿æ±Ł": 8455,
      "Ġmatch": 8456,
      "Ġthird": 8457,
      "å½¢çļĦ": 8458,
      "ensity": 8459,
      "ç¨³å®ļçļĦ": 8460,
      "Ġevents": 8461,
      "é¡¾éĹ®": 8462,
      "boxed": 8463,
      "éĢļçĶ¨": 8464,
      "ä¾ĽåºĶéĵ¾": 8465,
      "çļĦåĬŁèĥ½": 8466,
      "çŃīåľ°": 8467,
      "ç§¯æŀģçļĦ": 8468,
      "çĥĤ": 8469,
      "ĠState": 8470,
      "æľĢå¤ļ": 8471,
      "ĠStates": 8472,
      "å¥¥è¿Ĳ": 8473,
      "opp": 8474,
      "ç®Ń": 8475,
      "åĩºæĿ¥çļĦ": 8476,
      "Ġmagn": 8477,
      "ä»£è°¢": 8478,
      "é¸¡èĽĭ": 8479,
      "omial": 8480,
      "Ġunit": 8481,
      "æĺ¯åĲ¦æľī": 8482,
      "Ġstyle": 8483,
      "è¿Ĳä½ľ": 8484,
      "Ġcreated": 8485,
      "å°±æľī": 8486,
      "æ°´æ³¥": 8487,
      "æĭĴç»Ŀ": 8488,
      "è¯Ŀé¢ĺ": 8489,
      "ien": 8490,
      "ä¿¡æģ¯çļĦ": 8491,
      "Ġcompan": 8492,
      "Ġobserv": 8493,
      "ĠCity": 8494,
      "çĻ»å½ķ": 8495,
      "ga": 8496,
      "æµ©": 8497,
      "ä¸ĭåİ»": 8498,
      "ĠSol": 8499,
      "çĪ·": 8500,
      "Ġnews": 8501,
      "CH": 8502,
      "ĠSci": 8503,
      "æį®æĤī": 8504,
      "æĢ»çļĦ": 8505,
      "ä»¬çļĦ": 8506,
      "Ġareas": 8507,
      "åŃĺåľ¨çļĦ": 8508,
      "ille": 8509,
      "aced": 8510,
      "èĲ½åľ°": 8511,
      "spe": 8512,
      "æ³Į": 8513,
      "Ġshows": 8514,
      "éĸĢ": 8515,
      "æĬĳåĪ¶": 8516,
      "Ġlinear": 8517,
      "åµ": 8518,
      "Ġseen": 8519,
      "è®²è§£": 8520,
      "å¼ĺ": 8521,
      "Ġ2015": 8522,
      "å¼Ģæĭĵ": 8523,
      "æķ°æį®éĽĨ": 8524,
      "åĽŀæĬ¥": 8525,
      "é¹¿": 8526,
      "matrix": 8527,
      "lim": 8528,
      "Ġq": 8529,
      "å¤§è¿ŀ": 8530,
      "è¢«åĳĬ": 8531,
      "Ġadded": 8532,
      "æİ¥åı£": 8533,
      "**ï¼Į": 8534,
      "èĩ£": 8535,
      "ï¼Īï¼ī": 8536,
      "Ġ\"\"\"": 8537,
      "é£ŁæĿĲ": 8538,
      "è¶ĬæĿ¥è¶Ĭå¤ļ": 8539,
      "partial": 8540,
      "Ð²": 8541,
      "æĺ¯ä»¥": 8542,
      "æĿ¥å®ŀçİ°": 8543,
      "åıĸä»£": 8544,
      "Google": 8545,
      "å°±åľ¨": 8546,
      "éĲµ": 8547,
      "aries": 8548,
      "èĢĮéĿŀ": 8549,
      "çĻ«çĹ": 8550,
      "ĠOutput": 8551,
      "çĻ«çĹ«": 8552,
      "éĶĲ": 8553,
      "å¤ªç©º": 8554,
      "çļĦçĽ¸åħ³": 8555,
      "title": 8556,
      "è¿ĩäºİ": 8557,
      "Ġ->": 8558,
      "å®¹åĻ¨": 8559,
      "Ġadj": 8560,
      "oon": 8561,
      "çļĦæĢ»": 8562,
      "çĶŁæ´»æĸ¹å¼ı": 8563,
      "éļ¾é¢ĺ": 8564,
      "å¸¸è§Ħ": 8565,
      "æ¸ħåįķ": 8566,
      "åĩºåİ»": 8567,
      "Ġweather": 8568,
      "ĠGod": 8569,
      "èīºæľ¯å®¶": 8570,
      "Ġsequence": 8571,
      "åľ°åĽ¾": 8572,
      "ĠReg": 8573,
      "åı¯ä»¥å¸®åĬ©ä½ł": 8574,
      "æ¹¿åº¦": 8575,
      "åĨ¶": 8576,
      "è¡¨æł¼": 8577,
      "é¥²": 8578,
      "Ġsoftware": 8579,
      "çĽ¸ç»ĵåĲĪ": 8580,
      "çİ°ä»£åĮĸ": 8581,
      "å¤§èĦĳ": 8582,
      "Ġhot": 8583,
      "ç¾İåľĭ": 8584,
      "MS": 8585,
      "åıĺéĿ©": 8586,
      "Ġstatement": 8587,
      "æľĢæĸ°çļĦ": 8588,
      "çº¿ä¸ĭ": 8589,
      "å¦Ĥä½ķåľ¨": 8590,
      "ä¸Ģæ¬¾": 8591,
      "è§£çŃĶ": 8592,
      "Ġsense": 8593,
      "åĪĨæķ£": 8594,
      "åĸ»": 8595,
      "Ġwalk": 8596,
      "èµ¤": 8597,
      "æ¼Ķè®²": 8598,
      "çĽ®çļĦåľ°": 8599,
      "ä¹Łæ²¡æľī": 8600,
      "å¹¿ä¸ľçľģ": 8601,
      "93": 8602,
      "å¼ıçļĦ": 8603,
      "ĠMath": 8604,
      "å§ĳ": 8605,
      "åĽŀå®¶": 8606,
      "å¥³åŃĲ": 8607,
      "uk": 8608,
      "inally": 8609,
      "éŃı": 8610,
      "Ġobtain": 8611,
      "åĲĪçĲĨçļĦ": 8612,
      "è´§çī©": 8613,
      "Ġassum": 8614,
      "Ġpopulation": 8615,
      "è¿ĻæĦıåĳ³çĿĢ": 8616,
      "å¹¿æĴŃ": 8617,
      "Ġgetting": 8618,
      "Ġpurch": 8619,
      "èĦĨ": 8620,
      "ners": 8621,
      "Ð¼": 8622,
      "åĽ½æ°ĳ": 8623,
      "äº§èĥ½": 8624,
      "ç©Ĩ": 8625,
      "ç²īä¸Ŀ": 8626,
      "Ġpopular": 8627,
      "æ³ª": 8628,
      "å»¶ä¼¸": 8629,
      "pm": 8630,
      "class": 8631,
      "åģ·": 8632,
      "çİ°åľ¨çļĦ": 8633,
      "å°ļæľª": 8634,
      "ä¸ºå®¢æĪ·": 8635,
      "Ġindex": 8636,
      "æĴŃæĶ¾": 8637,
      "æĸ¹ä½į": 8638,
      "çĽ®å½ķ": 8639,
      "æļ¨": 8640,
      "_{\\": 8641,
      "æīŃ": 8642,
      "æĹ¥ä¸ĬåįĪ": 8643,
      "è¿Ļç±»": 8644,
      "å¾ŀ": 8645,
      "æľĢå°ı": 8646,
      "board": 8647,
      "æľ¬ç½ĳç«Ļ": 8648,
      "æľ´": 8649,
      "åĽ½çļĦ": 8650,
      "Ġsumm": 8651,
      "ĠEurope": 8652,
      "Ġmeaning": 8653,
      "Ġopportun": 8654,
      "aly": 8655,
      "èħĬ": 8656,
      "æħ°": 8657,
      "éģĹäº§": 8658,
      "Ġvisit": 8659,
      "Ġsection": 8660,
      "ç¥ŀç»ıç½ĳç»ľ": 8661,
      "éĻ¶çĵ·": 8662,
      "Ġmillion": 8663,
      "èĩªçĦ¶çļĦ": 8664,
      "Ġdate": 8665,
      "èĢĲå¿ĥ": 8666,
      "\"}": 8667,
      "ä¾µçĬ¯": 8668,
      "äººæĸĩ": 8669,
      "åıĳæĶ¾": 8670,
      "åĩºç§Ł": 8671,
      "åľºæ¯ĶèµĽ": 8672,
      "äº§ä¸ļåıĳå±ķ": 8673,
      "ä¸įçŁ¥": 8674,
      "èĮ¨": 8675,
      "è¯¢éĹ®": 8676,
      "çĶµåŃĲåķĨåĬ¡": 8677,
      "82": 8678,
      "çĤ¹çļĦ": 8679,
      "éĴĻ": 8680,
      "Ġpercent": 8681,
      "Ġ2014": 8682,
      "åĲīæŀĹ": 8683,
      "Ġmaximum": 8684,
      "xy": 8685,
      "Ġfit": 8686,
      "æľºç»Ħ": 8687,
      "æĹ¥æĬ¥": 8688,
      "ç¡®è¯Ĭ": 8689,
      "äºĶå¹´": 8690,
      "Ġproperties": 8691,
      "ä¹Łå¾Ī": 8692,
      "idth": 8693,
      "éĶ¡": 8694,
      "èĦ±è´«": 8695,
      "ground": 8696,
      "ä¸Ģå¼ł": 8697,
      "éĺ²æ°´": 8698,
      "æĿĳæ°ĳ": 8699,
      "äººåĴĮ": 8700,
      "çĶŁæ¶¯": 8701,
      "aches": 8702,
      "aving": 8703,
      "äºīè®®": 8704,
      "èĬĤæĹ¥": 8705,
      "å©ļå§»": 8706,
      "bon": 8707,
      "ä¸Ģåıª": 8708,
      "åįķåħĥ": 8709,
      "å°ĳæķ°": 8710,
      "æĶ¶èĹı": 8711,
      "æķ´æĶ¹": 8712,
      "ç»¼ä¸Ĭ": 8713,
      "%ãĢģ": 8714,
      "ä¸Ĭä¼ł": 8715,
      "ounter": 8716,
      "Ġheart": 8717,
      "odes": 8718,
      "ä¸§": 8719,
      "ises": 8720,
      "è¾Ī": 8721,
      "æ¹ĺ": 8722,
      "Ġgenerate": 8723,
      "åĬŀåŃ¦": 8724,
      "ç¢Ĺ": 8725,
      "èį£èİ·": 8726,
      "éĤ®ç®±": 8727,
      "å¹³éĿ¢": 8728,
      "èº«ä½ĵåģ¥åº·": 8729,
      "ä¼ĺç§ĢçļĦ": 8730,
      "ä¾Ŀæīĺ": 8731,
      "Ġgoal": 8732,
      "ibrary": 8733,
      "ä¹¦æ³ķ": 8734,
      "æī¿åĮħ": 8735,
      "å¸®åĬ©ä½ł": 8736,
      "URL": 8737,
      "Ġprime": 8738,
      "Ġmachine": 8739,
      "ager": 8740,
      "ç¬¬åħŃ": 8741,
      "çħ¤çĤŃ": 8742,
      "Ġtaking": 8743,
      "æį®äºĨè§£": 8744,
      "Ġdeal": 8745,
      "äº§åĵģè´¨éĩı": 8746,
      "ĠTrans": 8747,
      "Ġfriends": 8748,
      ".)": 8749,
      "bum": 8750,
      "**,": 8751,
      "unch": 8752,
      "çĶŁæĢģç³»ç»Ł": 8753,
      "å¿ĹæĦ¿èĢħ": 8754,
      "umber": 8755,
      "æ¾³å¤§åĪ©": 8756,
      "èĺŃ": 8757,
      "Ġbehav": 8758,
      "ĠæĪĳ": 8759,
      "Ġdeb": 8760,
      "å¸ħ": 8761,
      "Ġprobability": 8762,
      "Ġfeature": 8763,
      "é¢ĩ": 8764,
      "åĨĽäºĭ": 8765,
      "Ġemail": 8766,
      "Ġexpression": 8767,
      "éŃħåĬĽ": 8768,
      "æĺ¾å¾Ĺ": 8769,
      "ä¸ĸçķĮçļĦ": 8770,
      "çĻ¾åº¦": 8771,
      "value": 8772,
      "æĽ´é«ĺçļĦ": 8773,
      "ĠAb": 8774,
      "Ġwriting": 8775,
      "äºĭå®ŀä¸Ĭ": 8776,
      "å»·": 8777,
      "å¤©ç©º": 8778,
      "Ġexec": 8779,
      "ä½ĵæ£Ģ": 8780,
      "ç´Ħ": 8781,
      "èĴľ": 8782,
      "æĸ°åĨłèĤºçĤİ": 8783,
      "Ġdog": 8784,
      "illed": 8785,
      "è¥¿åĮĹ": 8786,
      "æī¿åıĹ": 8787,
      "éĵħ": 8788,
      "å³¡": 8789,
      "çīĽå¥¶": 8790,
      "åħļçļĦ": 8791,
      "Ġpict": 8792,
      "rap": 8793,
      "81": 8794,
      "âĢķ": 8795,
      "å³¶": 8796,
      "Ġissue": 8797,
      "æ³Ĭ": 8798,
      "æ°ĳä¸»": 8799,
      "æĿ¿åĿĹ": 8800,
      "å½ĵå¤©": 8801,
      "earch": 8802,
      "è¯įæ±ĩ": 8803,
      "éĴ¢éĵģ": 8804,
      "åĢºåĪ¸": 8805,
      "æ¯ıæĹ¥": 8806,
      "ĠOur": 8807,
      "æłª": 8808,
      "è¿Ļé¡¹": 8809,
      "2001": 8810,
      "Ġhtt": 8811,
      "ç¿»è¯ĳæĪĲ": 8812,
      "èħ¾è®¯": 8813,
      "Ġmoment": 8814,
      "ä¸ĵé¢ĺ": 8815,
      "èĻ¾": 8816,
      "æĽ¹": 8817,
      "Ġitself": 8818,
      "HT": 8819,
      "çĶ±æŃ¤": 8820,
      "ä¸Ģé¡¹": 8821,
      "ĠFeb": 8822,
      "izes": 8823,
      "å¤ĦçļĦ": 8824,
      "åİ»éĻ¤": 8825,
      "æİĴåĪĹ": 8826,
      "Ġallows": 8827,
      "2022": 8828,
      "æĶ»åĿļ": 8829,
      "cation": 8830,
      "åİŁæľ¬": 8831,
      "anation": 8832,
      "æĹ¥ä¸ĭåįĪ": 8833,
      "Ġyet": 8834,
      "artment": 8835,
      "}}{": 8836,
      "é¦ĸå¸Ń": 8837,
      "urb": 8838,
      "ä»İä¸ļ": 8839,
      "åŃŁ": 8840,
      "Ġlines": 8841,
      "ese": 8842,
      "ç¯®çĲĥ": 8843,
      "Ġ\\]": 8844,
      "èĢģæĿ¿": 8845,
      "åĩłç§į": 8846,
      "Ġindustry": 8847,
      "ç§ĳæĬĢåĪĽæĸ°": 8848,
      "è¾ħå¯¼": 8849,
      "çļĦç²¾ç¥ŀ": 8850,
      "ç±»çļĦ": 8851,
      "References": 8852,
      "å¤§å¸Ī": 8853,
      "Ġlinks": 8854,
      "è¯¾é¢ĺ": 8855,
      "na": 8856,
      "å¿ĥèĦı": 8857,
      "Ġyoung": 8858,
      "Ġcorresp": 8859,
      "çĸ¾çĹħçļĦ": 8860,
      "Ġgovernment": 8861,
      "å¥³åĦ¿": 8862,
      "çĸĳéĹ®": 8863,
      "å¯¹è¯ĿåĨħå®¹": 8864,
      "Pl": 8865,
      "atter": 8866,
      "åĬłåĿ¡": 8867,
      "å»ºç«ĭäºĨ": 8868,
      "Ġprofessional": 8869,
      "beta": 8870,
      "æĽ´å®¹æĺĵ": 8871,
      "Ġ{\"": 8872,
      "æİ¨çĲĨ": 8873,
      "Ġappl": 8874,
      "æĢ§åĪ«": 8875,
      "æľŁåĪĬ": 8876,
      "sequ": 8877,
      "Ġconsist": 8878,
      "æĪĲäº¤": 8879,
      "umb": 8880,
      "Ġsubject": 8881,
      "çĦĬæİ¥": 8882,
      "Ġefficient": 8883,
      "mu": 8884,
      "å¸ĤæĶ¿åºľ": 8885,
      "èĪ°": 8886,
      "Ġ28": 8887,
      "ada": 8888,
      "æłĳç«ĭ": 8889,
      "Ġcover": 8890,
      "Ġcomputer": 8891,
      "ependent": 8892,
      "Ġvideo": 8893,
      "æĪĲå¹´": 8894,
      "æĽ´å¤§çļĦ": 8895,
      "Ġstore": 8896,
      "Ġtheore": 8897,
      "å¤§åľ°": 8898,
      "Ġmonths": 8899,
      "sel": 8900,
      "åŃ¦å®¶": 8901,
      "ĠSw": 8902,
      "éŁµ": 8903,
      "é¥ª": 8904,
      "elling": 8905,
      "çĥ¹é¥ª": 8906,
      "æĽ´å¿«": 8907,
      "åĳ¨å¹´": 8908,
      "éħ¶": 8909,
      "ĊĠĠĠĠĠĠĠĠĠĠĠĠ": 8910,
      "itted": 8911,
      "å²Ń": 8912,
      "Ġlocated": 8913,
      "lock": 8914,
      "äºĭä¸ļåįķä½į": 8915,
      "å®´": 8916,
      "çĽ²": 8917,
      "åĪĨæķ°": 8918,
      "ä¿Ŀåħ»": 8919,
      "Ġtook": 8920,
      "ague": 8921,
      "Ġmention": 8922,
      "åĽ½å®¶åĴĮ": 8923,
      "çĮľ": 8924,
      "äºĶä¸ª": 8925,
      "å®ĮæĪĲäºĨ": 8926,
      "æĹ©ä¸Ĭ": 8927,
      "å¸½": 8928,
      "ä¹Łå°±": 8929,
      "aging": 8930,
      "ç¦ıåĪ©": 8931,
      "Ġsays": 8932,
      "+\\": 8933,
      "ä¸ļåĨħ": 8934,
      "å®īåħ¨çļĦ": 8935,
      "å©Ĩ": 8936,
      "åľ¨æľªæĿ¥": 8937,
      "ä¸īæĺ¯": 8938,
      "rag": 8939,
      "äºĮçº§": 8940,
      "Ġdesigned": 8941,
      "ä¾Ľç»Ļ": 8942,
      "æ°ĳå®¿": 8943,
      "Ġdraw": 8944,
      "ä»Ģä¹Īæĺ¯": 8945,
      "91": 8946,
      "æĸ°çĸĨ": 8947,
      "2002": 8948,
      "Ġhold": 8949,
      "è¯´çļĦ": 8950,
      "ĠSince": 8951,
      "å½±åĵįåĬĽ": 8952,
      "Ġ2012": 8953,
      "å®¢æľį": 8954,
      "æĿĥå¨ģ": 8955,
      "åºĵåŃĺ": 8956,
      "AA": 8957,
      "çļĦä¸»é¢ĺ": 8958,
      "çļĦè§Ħå®ļ": 8959,
      "Ġtax": 8960,
      "Ġformat": 8961,
      "Ġdifficult": 8962,
      "sy": 8963,
      "æĪĳå°Ĩ": 8964,
      "æŁ¥æī¾": 8965,
      "åĮ»å¸Ī": 8966,
      "ä»½é¢Ŀ": 8967,
      "rong": 8968,
      "å±ŀæĢ§": 8969,
      "====": 8970,
      "è¥¿äºļ": 8971,
      "Ġregard": 8972,
      "irm": 8973,
      "å®¢è§Ĥ": 8974,
      "æ¶¦æ»ĳ": 8975,
      "çļĦå½¢å¼ı": 8976,
      "ĠLa": 8977,
      "åĸľçĪ±": 8978,
      "æĪĲåĬŁçļĦ": 8979,
      "æĢ»è£ģ": 8980,
      "æ¯ķç«Ł": 8981,
      "ä½ľå®¶": 8982,
      "ares": 8983,
      "Ġfast": 8984,
      "çī©èµĦ": 8985,
      "Ġdidn": 8986,
      "åĮĸåĴĮ": 8987,
      "Ġhom": 8988,
      "åľºåĲĪ": 8989,
      "ç²¾åĵģ": 8990,
      "åĲ«ä¹ī": 8991,
      "Se": 8992,
      "Ġvalid": 8993,
      "æĺ¯æľī": 8994,
      "uted": 8995,
      "char": 8996,
      "æ³¨æĦıåĬĽ": 8997,
      "vant": 8998,
      "Ġvia": 8999,
      "Ġvariables": 9000,
      "åįĵè¶Ĭ": 9001,
      "èĩªåĬ¨é©¾é©¶": 9002,
      "æĶ¯éĥ¨": 9003,
      "ç£·": 9004,
      "æĹĭè½¬": 9005,
      "è°ĥçĶ¨": 9006,
      "åĬ©æīĭ": 9007,
      "åħ¬åĬ¡": 9008,
      "æĸ°çĶŁ": 9009,
      "adem": 9010,
      "Ġsal": 9011,
      "Ġaction": 9012,
      "çĶŁäº§çļĦ": 9013,
      "ĠStud": 9014,
      "éĢļé£İ": 9015,
      "äºĮæ°§åĮĸ": 9016,
      "èĢĮæĪĲ": 9017,
      "è¿Ľåº¦": 9018,
      "year": 9019,
      "æĪĳä»¬è¦ģ": 9020,
      "æĤ¨éľĢè¦ģ": 9021,
      "onal": 9022,
      "åıĳèĤ²": 9023,
      "ĠPa": 9024,
      "Ġapplications": 9025,
      "éĢĢä¼ĳ": 9026,
      "Ġparent": 9027,
      "æĲºå¸¦": 9028,
      "éĺ³å¸Ĥ": 9029,
      "based": 9030,
      "ä¸įäºĨ": 9031,
      "åıĻ": 9032,
      "reet": 9033,
      "ä¸Ģçīĩ": 9034,
      "ä¼ļéķ¿": 9035,
      "Ġstates": 9036,
      "çģ«çģ¾": 9037,
      "Hello": 9038,
      "sort": 9039,
      "Ġmor": 9040,
      "åħ¬æ°ĳ": 9041,
      "æĸ°åĬłåĿ¡": 9042,
      "Ġ2013": 9043,
      "Ġfiles": 9044,
      "Ġcamp": 9045,
      "ä¸İæŃ¤": 9046,
      "ĠSer": 9047,
      "æº¢": 9048,
      "Ġrat": 9049,
      "ç»µ": 9050,
      "align": 9051,
      "å¤Ħç½®": 9052,
      "å²³": 9053,
      "Ġconsum": 9054,
      "Ġmatter": 9055,
      "ä¹Ļçĥ¯": 9056,
      "Ġkm": 9057,
      "Ġtrack": 9058,
      "çŁ¥è¯ĨåĴĮ": 9059,
      "mit": 9060,
      "Ġconvert": 9061,
      ")$$": 9062,
      "city": 9063,
      "è¿Ļä¸¤ä¸ª": 9064,
      "å¹¶æıĲä¾Ľ": 9065,
      "çķ«": 9066,
      "æłĳèĦĤ": 9067,
      "Ġtransform": 9068,
      "ç¾©": 9069,
      "ĠEl": 9070,
      "Ġchoose": 9071,
      "reme": 9072,
      "èİİ": 9073,
      "Ġexactly": 9074,
      "è¡Įé©¶": 9075,
      "ä¸Ĭæľī": 9076,
      "æĥ§": 9077,
      "å»ºæĿĲ": 9078,
      "éĽĩ": 9079,
      "æ¾³å¤§åĪ©äºļ": 9080,
      "æĿĲæĸĻçļĦ": 9081,
      "æĺ¯æĪĳ": 9082,
      "ç³ĸå°¿": 9083,
      "Ġnormal": 9084,
      "åºŀ": 9085,
      "Ġrecogn": 9086,
      "åħ¬åı¸åľ¨": 9087,
      "Ġut": 9088,
      "çŃĭ": 9089,
      "æĭ³": 9090,
      "æĽ¸": 9091,
      "æĺ¯ä¸įæĺ¯": 9092,
      "åĽŀåºĶ": 9093,
      "ports": 9094,
      "ç§©": 9095,
      "å¼ºåĪ¶": 9096,
      "è¥¿æĸ¹": 9097,
      "ĠNow": 9098,
      "äºĳè®¡ç®Ĺ": 9099,
      "bar": 9100,
      "cast": 9101,
      "åĴĮåºĶçĶ¨": 9102,
      "ä¸ªäººçļĦ": 9103,
      "ÙĦ": 9104,
      "çĨĶ": 9105,
      "Ġcommand": 9106,
      "èĩªè¡Įè½¦": 9107,
      "æĺ¯æĪĳä»¬": 9108,
      "æ¶Īå¤±": 9109,
      "ç¾İè§Ĥ": 9110,
      "äººå¤§": 9111,
      "Ġdu": 9112,
      "èµ·äºĨ": 9113,
      "èµĶåģ¿": 9114,
      "çļĦåħī": 9115,
      "åįľ": 9116,
      "ç«Ļåľ¨": 9117,
      "åıįå¤į": 9118,
      "Ġblock": 9119,
      "å¼ºå¤§": 9120,
      "æĢİä¹Īæł·": 9121,
      "å¡ĺ": 9122,
      "æ°´åĪ©": 9123,
      "Ġparts": 9124,
      "Ġsem": 9125,
      "order": 9126,
      "Ġquite": 9127,
      "Ġ2011": 9128,
      "point": 9129,
      "çŃĴ": 9130,
      "unic": 9131,
      "æĿ¡æ¬¾": 9132,
      "Ġmanagement": 9133,
      "æ¬ł": 9134,
      "ser": 9135,
      "éĢ¾": 9136,
      "å¤ļå¹´çļĦ": 9137,
      "ĠMark": 9138,
      "å¤ļæł·æĢ§": 9139,
      "éħµ": 9140,
      "ä¸īç§į": 9141,
      "Ġclaim": 9142,
      "é¹ı": 9143,
      "æŀª": 9144,
      "å¿Į": 9145,
      "æ¡£æ¡Ī": 9146,
      "Ġgames": 9147,
      "æľĪåºķ": 9148,
      "å¹¿è¥¿": 9149,
      "cont": 9150,
      "Ġproduction": 9151,
      "\\\\": 9152,
      "ÑĮ": 9153,
      "Ġago": 9154,
      "åŃĿ": 9155,
      "ç¥Ń": 9156,
      "æīĵçł´": 9157,
      "ISO": 9158,
      "å°İ": 9159,
      "è¿Ļä½į": 9160,
      "æł¼å±Ģ": 9161,
      "çĹĽèĭ¦": 9162,
      "æ¯«ç±³": 9163,
      "æīĩ": 9164,
      "Ġpredict": 9165,
      "ä¸įè¶ħè¿ĩ": 9166,
      "éĥ¨éķ¿": 9167,
      "LL": 9168,
      "ĠØ": 9169,
      "ried": 9170,
      "æįŁåĿı": 9171,
      "Ġrisk": 9172,
      "åıĳè¾¾": 9173,
      "Ġdisplay": 9174,
      "ĠExample": 9175,
      "åĵģçīĮçļĦ": 9176,
      "Ġespecially": 9177,
      "æ°´ä¸Ń": 9178,
      "åį¸": 9179,
      "ĠSch": 9180,
      "ä½łä¼ļ": 9181,
      "èģļçĦ¦": 9182,
      "Ġreturns": 9183,
      "Ġcame": 9184,
      "ä»¥åħį": 9185,
      "èħ»": 9186,
      "Ġgrowth": 9187,
      "å¤©ä¸ĭ": 9188,
      "Ġrunning": 9189,
      "medi": 9190,
      "ä¸Ģå¸¦": 9191,
      "éĶĢåĶ®é¢Ŀ": 9192,
      "åŁºæľ¬çļĦ": 9193,
      "ĠServ": 9194,
      "çĹħçļĦ": 9195,
      "ç²¾å¿ĥ": 9196,
      "åĨ¥": 9197,
      "æľĢåĪĿ": 9198,
      "éħ¬": 9199,
      "æ´»è·ĥ": 9200,
      "æ°ĳä¼Ĺ": 9201,
      "å¯¼åĲĳ": 9202,
      "çİ¯å¢ĥä¸Ń": 9203,
      "off": 9204,
      "æĦŁåĴĮ": 9205,
      "Ġsample": 9206,
      "ç»ĻäºĨ": 9207,
      "ä¾ĿéĿł": 9208,
      "Ġbecame": 9209,
      "ä¸įåıĺ": 9210,
      "Ġusually": 9211,
      "åĩĨç¡®æĢ§": 9212,
      "Ġ2020": 9213,
      "Ġaud": 9214,
      "æ°®": 9215,
      "éĺŁçļĦ": 9216,
      "ç»¼ä¸ĬæīĢè¿°": 9217,
      "èĬ±åĽŃ": 9218,
      "Ġmath": 9219,
      "åīĩ": 9220,
      "çİ°çĬ¶": 9221,
      "idered": 9222,
      "phi": 9223,
      "Ġcompanies": 9224,
      "MOSS": 9225,
      "æĿ¡ä»¶ä¸ĭ": 9226,
      "Ġaccept": 9227,
      "ç§ĺä¹¦": 9228,
      "anc": 9229,
      "Ġloss": 9230,
      "æĹ¶éĹ´åĨħ": 9231,
      "file": 9232,
      "ìĿ": 9233,
      "å¼Ħ": 9234,
      "è¦ģç´ł": 9235,
      "2024": 9236,
      "è¿ĽèĢĮ": 9237,
      "çº¦ä¸º": 9238,
      "çļĦé£Łçī©": 9239,
      "Ġaff": 9240,
      "æ¯ıåĳ¨": 9241,
      "èĶ¡": 9242,
      "çī©æĸĻ": 9243,
      "æľĢä¸º": 9244,
      "æįŁä¼¤": 9245,
      "è¿Ļåı¥è¯Ŀ": 9246,
      "çº²": 9247,
      "åĿĩè¡¡": 9248,
      "å¾ģæ±Ĥ": 9249,
      "è´µçļĦ": 9250,
      "ç¬¦åı·": 9251,
      "åįĥä¸ĩ": 9252,
      "Ġsimpl": 9253,
      "ç¨ĭåº¦ä¸Ĭ": 9254,
      "gress": 9255,
      "çĶ¢": 9256,
      "éħįä»¶": 9257,
      "Ġoptim": 9258,
      "Ġhappen": 9259,
      "é¡ŀ": 9260,
      "èĲĿ": 9261,
      "quad": 9262,
      "éªĮæĶ¶": 9263,
      "èµĦæºĲçļĦ": 9264,
      "å¹³å®ī": 9265,
      "ights": 9266,
      "éĿŀå¸¸éĩįè¦ģ": 9267,
      "ç»ĦæĪĲéĥ¨åĪĨ": 9268,
      "ä¼ª": 9269,
      "ĠSouth": 9270,
      "äºĮæ¬¡": 9271,
      "è¯»ä¹¦": 9272,
      "åĩºçİ°åľ¨": 9273,
      "åºĶè¯¥æĺ¯": 9274,
      "èĪªå¤©": 9275,
      "å¹³æĸ¹åħ¬éĩĮ": 9276,
      "lambda": 9277,
      "ux": 9278,
      "âĹ": 9279,
      "é¢¨": 9280,
      "åĪĨæŀĲåĴĮ": 9281,
      "æķĳæı´": 9282,
      "Ġlocation": 9283,
      "çļĦæĦŁè§ī": 9284,
      "ĠSu": 9285,
      "åļ": 9286,
      "å¦¥": 9287,
      "æ¶²ä½ĵ": 9288,
      "çŃīå¤ļç§į": 9289,
      "çĮİ": 9290,
      "Ġcal": 9291,
      "ĠCalcul": 9292,
      "ĠPark": 9293,
      "æĦŁçŁ¥": 9294,
      "æŃ£è§Ħ": 9295,
      "Ġusers": 9296,
      "çĥŃéĹ¨": 9297,
      "Ġmechan": 9298,
      "|-": 9299,
      "åħ¬ç¤º": 9300,
      "æĪ¿åŃĲ": 9301,
      "Ġitems": 9302,
      "å¸¦æľī": 9303,
      "å¾®çĶŁçī©": 9304,
      "å¥ĭæĸĹ": 9305,
      "æĻ´": 9306,
      "åĲĦä½į": 9307,
      "çłĶè®¨": 9308,
      "ptions": 9309,
      "å¤ªå¤ļ": 9310,
      "Tom": 9311,
      "å·¥äºº": 9312,
      "001": 9313,
      "çķĮçļĦ": 9314,
      "imately": 9315,
      "æłĩåĩĨçļĦ": 9316,
      "Ġblack": 9317,
      "è¶ĬåįĹ": 9318,
      "æĿ¡ä»¶çļĦ": 9319,
      "åĪ¥": 9320,
      "çħ§é¡¾": 9321,
      "åħħåĪĨåıĳæĮ¥": 9322,
      "åħĦå¼Ł": 9323,
      "çĻ¾å§ĵ": 9324,
      "ä¹ĺå®¢": 9325,
      "åľºåľ°": 9326,
      "èµ°è¿Ľ": 9327,
      "æ¨¡åŀĭçļĦ": 9328,
      "éģĭåĭķ": 9329,
      "ĠNorth": 9330,
      "net": 9331,
      "Ġax": 9332,
      "Ġwomen": 9333,
      "æ°ĳéĹ´": 9334,
      "åħ±äº§": 9335,
      "åľ°è´¨": 9336,
      "åıĤèĢĥæĸĩçĮ®": 9337,
      "èĳ¡èĲĦéħĴ": 9338,
      "ography": 9339,
      "èĩ³åħ³éĩįè¦ģ": 9340,
      "æİ¥çĿĢ": 9341,
      "ä¸ľäº¬": 9342,
      "Ġoccur": 9343,
      "Is": 9344,
      "Ġtown": 9345,
      "èĪŁ": 9346,
      "ensive": 9347,
      "Ġeval": 9348,
      "å¹¿æ³ĽçļĦ": 9349,
      "rug": 9350,
      "Ġë": 9351,
      "æĽ¿æį¢": 9352,
      "Ġcross": 9353,
      "åĽ¢ç»ĵ": 9354,
      "çĶŁæĢģçİ¯å¢ĥ": 9355,
      "èķ´": 9356,
      "å®ŀä¹ł": 9357,
      "Ġbirth": 9358,
      "åĿļå®ļ": 9359,
      "å¾Ĺä»¥": 9360,
      "ä»¿ä½Ľ": 9361,
      "ç§©åºı": 9362,
      "é¡Į": 9363,
      "é¢Ħè®¢": 9364,
      "ä¸įä¹ħ": 9365,
      "Ġ27": 9366,
      "ĠWill": 9367,
      "æµªæ¼«": 9368,
      "Ġcenter": 9369,
      "'d": 9370,
      "åĸ®": 9371,
      "éĤ£æł·": 9372,
      "Ġknowledge": 9373,
      "çļĦåģ¥åº·": 9374,
      "éĴ¢ç®¡": 9375,
      "å¥½äºĨ": 9376,
      "å½ĵå¹´": 9377,
      "åħ¬æĸ¤": 9378,
      "è§Ĩè§Ĵ": 9379,
      "ç¬¬ä¸ĢæĹ¶éĹ´": 9380,
      "Ġoffers": 9381,
      "åı·çłģ": 9382,
      "å®ŀéĻħæĥħåĨµ": 9383,
      "æĺİæĺ¾çļĦ": 9384,
      "Ġpolit": 9385,
      "éĩĩéĽĨ": 9386,
      "è¯ĦéĢī": 9387,
      "Ġglobal": 9388,
      "çĭ®": 9389,
      "words": 9390,
      "è¾½å®ģ": 9391,
      "ores": 9392,
      "Ġ${": 9393,
      "å¸ĪèĮĥ": 9394,
      "è¯¸å¤ļ": 9395,
      "Ġsides": 9396,
      "mathcal": 9397,
      "PE": 9398,
      "æ¸´": 9399,
      "æ·®": 9400,
      "æº¯": 9401,
      "ĠâĪ": 9402,
      "æħĪåĸĦ": 9403,
      "åı¯çĶ¨": 9404,
      "è¿ĺå°Ĩ": 9405,
      "çĹķ": 9406,
      "å®ĹæĹ¨": 9407,
      "çĸ¼çĹĽ": 9408,
      "Ġey": 9409,
      "Ġarch": 9410,
      "çĽĳçĿ£ç®¡çĲĨ": 9411,
      "CN": 9412,
      "è¿Ń": 9413,
      "ä¸įå¦Ĥ": 9414,
      "æĮģæľī": 9415,
      "ç¿Ĵ": 9416,
      "Ġfactors": 9417,
      "æĶ¶å½ķ": 9418,
      "Ġsatisf": 9419,
      "Ġå¦Ĥæŀľ": 9420,
      "Ġseem": 9421,
      "Ġaccording": 9422,
      "ç¼ĸç¨ĭè¯Ńè¨Ģ": 9423,
      "atform": 9424,
      "ÃŃ": 9425,
      "ãĢĤ-": 9426,
      "èĩĤ": 9427,
      "ided": 9428,
      "æ¸©é¦¨": 9429,
      "uth": 9430,
      "ä½łè®¤ä¸º": 9431,
      "ĠPlease": 9432,
      "ement": 9433,
      "æ£ļ": 9434,
      "æ°Ł": 9435,
      "éĿŀæ´²": 9436,
      "æī¾åĩº": 9437,
      "åŃ¦çļĦ": 9438,
      "ä¸īä¸īä¸īä¸ī": 9439,
      "Ġsens": 9440,
      "ä¸įåľ¨": 9441,
      "æ¸ĹéĢı": 9442,
      "çººç»ĩ": 9443,
      "ç²¾åĬĽ": 9444,
      "å·´è¥¿": 9445,
      "æħ¢æĢ§": 9446,
      "è¯Ī": 9447,
      "æĪĳè§īå¾Ĺ": 9448,
      "ternative": 9449,
      "Ġcollect": 9450,
      "èĭ¯": 9451,
      "Ġsun": 9452,
      "CR": 9453,
      "agram": 9454,
      "æ²³æµģ": 9455,
      "Ġprec": 9456,
      "å¢ĥåĨħ": 9457,
      "å·²ç»ıæĪĲä¸º": 9458,
      "è¾¹ç¼ĺ": 9459,
      "ä½ĵéĩį": 9460,
      "å¸Ĥå§Ķ": 9461,
      "åī¯ä¸»ä»»": 9462,
      "çĽ¸åĲĮçļĦ": 9463,
      "avid": 9464,
      "ä½ĵåĪ¶": 9465,
      "ops": 9466,
      "ä¸´æĹ¶": 9467,
      "Ġconsidered": 9468,
      "Ġbott": 9469,
      "åĪ°æĿ¥": 9470,
      "é»ŀ": 9471,
      "ev": 9472,
      "åĨħæ¶µ": 9473,
      "è¿Ļä¸¤": 9474,
      "åħ¥åı£": 9475,
      "æķ´æ²»": 9476,
      "era": 9477,
      "è¿ĺæ²¡æľī": 9478,
      "å¿ħçĦ¶": 9479,
      "èĮĤ": 9480,
      "uary": 9481,
      "çħĮ": 9482,
      "CS": 9483,
      "çĢ": 9484,
      "åĪĨæ³Į": 9485,
      "æ¼ĶåĶ±": 9486,
      "Ġfollows": 9487,
      "ky": 9488,
      "å»Ĭ": 9489,
      "å¹¿æ³ĽåºĶçĶ¨äºİ": 9490,
      "Ġinterp": 9491,
      "å¹´åīį": 9492,
      "åĮĸåĲĪçī©": 9493,
      "çľĭæ³ķ": 9494,
      "åĲ¬åĪ°": 9495,
      "Ġbring": 9496,
      "åķĨå®¶": 9497,
      "è½´æī¿": 9498,
      "Ġload": 9499,
      "Ġlatest": 9500,
      "çļĦåŃ¦ä¹ł": 9501,
      "éĺĲ": 9502,
      "æľĢæĹ©": 9503,
      "éĽ»è¦ĸ": 9504,
      "roid": 9505,
      "Ġavoid": 9506,
      "åĽłä¸ºå®ĥ": 9507,
      "èĽĭç³ķ": 9508,
      "éĢĿ": 9509,
      "å®ŀåľ¨": 9510,
      "æĢ»çļĦæĿ¥è¯´": 9511,
      "ä¸įä½Ĩ": 9512,
      "çĶŁåĬ¨": 9513,
      "åŃĲå¥³": 9514,
      "é»Ħèī²": 9515,
      "Ġalbum": 9516,
      "Ġphysical": 9517,
      "Ġcred": 9518,
      "acebook": 9519,
      "å¥īçĮ®": 9520,
      "çļĦç®¡çĲĨ": 9521,
      "ä¸Ńåħ±": 9522,
      "çŃīæĸ¹éĿ¢çļĦ": 9523,
      "åħ¨å¹´": 9524,
      "ĠHis": 9525,
      "åĪĿæľŁ": 9526,
      "æĭĽåķĨ": 9527,
      "ç»ĺçĶ»": 9528,
      "que": 9529,
      "æ±¡æ³¥": 9530,
      "è½¬åĮĸä¸º": 9531,
      "Ġhope": 9532,
      "ĠCons": 9533,
      "ä»ħä»ħ": 9534,
      "Ġcustomer": 9535,
      "çĸ²åĬ³": 9536,
      "åľĺ": 9537,
      "Ġband": 9538,
      "ç§įåŃĲ": 9539,
      "åĲĦåĽ½": 9540,
      "Ġwhite": 9541,
      "inux": 9542,
      "æĸ°èĥ½æºĲæ±½è½¦": 9543,
      "iddle": 9544,
      "æĬļ": 9545,
      "èªª": 9546,
      "ĠBrit": 9547,
      "Ġmaintain": 9548,
      "æ¬º": 9549,
      "åĲİæŀľ": 9550,
      "ä¼ģä¸ļåĴĮ": 9551,
      "}$.": 9552,
      "çŃīåĽłç´ł": 9553,
      "éľ¸": 9554,
      "Ġgas": 9555,
      "obile": 9556,
      "éĻĢ": 9557,
      "è¯´æ³ķ": 9558,
      "åįłæį®": 9559,
      "aur": 9560,
      "å¯¹æİ¥": 9561,
      "å¼Ģå¿ĥ": 9562,
      "ä¸īåįģ": 9563,
      "Ġ${\\": 9564,
      "ĠFind": 9565,
      "æľªçŁ¥": 9566,
      "éķľå¤´": 9567,
      "æĬ¹": 9568,
      "ç§°åı·": 9569,
      "rror": 9570,
      "Ġmedia": 9571,
      "ä¸ºæŃ¤": 9572,
      "æłĭ": 9573,
      "æĸ°åįİ": 9574,
      "ĠSome": 9575,
      "å¿ĥçģµ": 9576,
      "åĽłèĢĮ": 9577,
      "çļĦç¤¾ä¼ļ": 9578,
      "çĽ¸åıį": 9579,
      "ä¸ĩå¹³æĸ¹ç±³": 9580,
      "Ġhowever": 9581,
      "æĲŃå»º": 9582,
      "Ġestim": 9583,
      "rew": 9584,
      "ili": 9585,
      "å¼¹æĢ§": 9586,
      "çº¦ç¿°": 9587,
      "ĠInt": 9588,
      "åĽŃæŀĹ": 9589,
      "é¾Ļå¤´": 9590,
      "Ġtypically": 9591,
      "ä¸įå¤ª": 9592,
      "å¯¼å¸Ī": 9593,
      "æĮĩç¤º": 9594,
      "overed": 9595,
      "å¾®åįļ": 9596,
      "ä¸Ģä½ĵåĮĸ": 9597,
      "çĲĨè´¢": 9598,
      "å¿ĥéĩĮ": 9599,
      "åģıå¥½": 9600,
      "Or": 9601,
      "çŃīå¤ļä¸ª": 9602,
      "å¸¸çĶ¨çļĦ": 9603,
      "istance": 9604,
      "çį²": 9605,
      "Ġdirection": 9606,
      "Ġbooks": 9607,
      "åı¯ä»¥æıĲé«ĺ": 9608,
      "éĿ¢åĮħ": 9609,
      "è¯ķåĽ¾": 9610,
      "Ġhelps": 9611,
      "èĵĿèī²": 9612,
      "mon": 9613,
      "ä¸įä¸Ģæł·": 9614,
      "å½ĵäºĭ": 9615,
      "ç®¡çĲĨçļĦ": 9616,
      "æīĳ": 9617,
      "å°¼äºļ": 9618,
      "ht": 9619,
      "uit": 9620,
      "ãĢĤ**": 9621,
      "è´º": 9622,
      "å±Ģéĥ¨": 9623,
      "Ġ\\(\\": 9624,
      "äºĨä¸ĢäºĽ": 9625,
      "è®°ä½ı": 9626,
      "æĸ¯åĿ¦": 9627,
      "è¡¥åģ¿": 9628,
      "ondon": 9629,
      "åĴĮæĶ¯æĮģ": 9630,
      "åģ¥åħ¨": 9631,
      "ä¼ļå¯¼èĩ´": 9632,
      "ä¿¡ä»°": 9633,
      "è¯¥åħ¬åı¸": 9634,
      "åī§æĥħ": 9635,
      "åıĳè¨Ģ": 9636,
      "Ġtaken": 9637,
      "çĶµç½ĳ": 9638,
      "ĠPol": 9639,
      "åı¯éĿłæĢ§": 9640,
      "ij": 9641,
      "icles": 9642,
      "è¿Ļä¹Ł": 9643,
      "åħĶ": 9644,
      "æĪĳå¸Ĥ": 9645,
      "æĶ¯æĮģåĴĮ": 9646,
      "å¡«åĨĻ": 9647,
[...]
